{"<s>":0,"<pad>":1,"</s>":2,"<unk>":3,"<mask>":4,"!":5,"\"":6,"#":7,"$":8,"%":9,"&":10,"'":11,"(":12,")":13,"*":14,"+":15,",":16,"-":17,".":18,"/":19,"0":20,"1":21,"2":22,"3":23,"4":24,"5":25,"6":26,"7":27,"8":28,"9":29,":":30,";":31,"<":32,"=":33,">":34,"?":35,"@":36,"A":37,"B":38,"C":39,"D":40,"E":41,"F":42,"G":43,"H":44,"I":45,"J":46,"K":47,"L":48,"M":49,"N":50,"O":51,"P":52,"Q":53,"R":54,"S":55,"T":56,"U":57,"V":58,"W":59,"X":60,"Y":61,"Z":62,"[":63,"\\":64,"]":65,"^":66,"_":67,"`":68,"a":69,"b":70,"c":71,"d":72,"e":73,"f":74,"g":75,"h":76,"i":77,"j":78,"k":79,"l":80,"m":81,"n":82,"o":83,"p":84,"q":85,"r":86,"s":87,"t":88,"u":89,"v":90,"w":91,"x":92,"y":93,"z":94,"{":95,"|":96,"}":97,"~":98,"¡":99,"¢":100,"£":101,"¤":102,"¥":103,"¦":104,"§":105,"¨":106,"©":107,"ª":108,"«":109,"¬":110,"®":111,"¯":112,"°":113,"±":114,"²":115,"³":116,"´":117,"µ":118,"¶":119,"·":120,"¸":121,"¹":122,"º":123,"»":124,"¼":125,"½":126,"¾":127,"¿":128,"À":129,"Á":130,"Â":131,"Ã":132,"Ä":133,"Å":134,"Æ":135,"Ç":136,"È":137,"É":138,"Ê":139,"Ë":140,"Ì":141,"Í":142,"Î":143,"Ï":144,"Ð":145,"Ñ":146,"Ò":147,"Ó":148,"Ô":149,"Õ":150,"Ö":151,"×":152,"Ø":153,"Ù":154,"Ú":155,"Û":156,"Ü":157,"Ý":158,"Þ":159,"ß":160,"à":161,"á":162,"â":163,"ã":164,"ä":165,"å":166,"æ":167,"ç":168,"è":169,"é":170,"ê":171,"ë":172,"ì":173,"í":174,"î":175,"ï":176,"ð":177,"ñ":178,"ò":179,"ó":180,"ô":181,"õ":182,"ö":183,"÷":184,"ø":185,"ù":186,"ú":187,"û":188,"ü":189,"ý":190,"þ":191,"ÿ":192,"Ā":193,"ā":194,"Ă":195,"ă":196,"Ą":197,"ą":198,"Ć":199,"ć":200,"Ĉ":201,"ĉ":202,"Ċ":203,"ċ":204,"Č":205,"č":206,"Ď":207,"ď":208,"Đ":209,"đ":210,"Ē":211,"ē":212,"Ĕ":213,"ĕ":214,"Ė":215,"ė":216,"Ę":217,"ę":218,"Ě":219,"ě":220,"Ĝ":221,"ĝ":222,"Ğ":223,"ğ":224,"Ġ":225,"ġ":226,"Ģ":227,"ģ":228,"Ĥ":229,"ĥ":230,"Ħ":231,"ħ":232,"Ĩ":233,"ĩ":234,"Ī":235,"ī":236,"Ĭ":237,"ĭ":238,"Į":239,"į":240,"İ":241,"ı":242,"Ĳ":243,"ĳ":244,"Ĵ":245,"ĵ":246,"Ķ":247,"ķ":248,"ĸ":249,"Ĺ":250,"ĺ":251,"Ļ":252,"ļ":253,"Ľ":254,"ľ":255,"Ŀ":256,"ŀ":257,"Ł":258,"ł":259,"Ń":260,"Ġt":261,"Ġa":262,"in":263,"on":264,"he":265,"er":266,"at":267,"re":268,"Ġthe":269,"Ġc":270,"Ġs":271,"es":272,"or":273,"en":274,"ou":275,"ion":276,"it":277,"ing":278,"an":279,"Ġan":280,"Ġf":281,"Ġp":282,"Ġto":283,"ĠA":284,"Ġd":285,"ed":286,"is":287,"Ġw":288,"ic":289,"Ġin":290,"le":291,"čĊ":292,"al":293,"Ġand":294,"st":295,"Ġm":296,"Ġo":297,"Ġb":298,"ro":299,"ct":300,"ar":301,"ent":302,"lo":303,"et":304,"Ġre":305,"ation":306,"ĠS":307,"om":308,"Ġu":309,"Ġof":310,"am":311,"Ġth":312,"il":313,"se":314,"Ġy":315,"Ġe":316,"Ġyou":317,"Ġn":318,"ĠC":319,"ce":320,"ut":321,"ch":322,"WS":323,"ĠĠ":324,"Ġfor":325,"ate":326,"ig":327,"ag":328,"ol":329,"ve":330,"as":331,"ĠT":332,"im":333,"Ġh":334,"ĠAWS":335,"ĠI":336,"Ġcon":337,"ab":338,"ith":339,"de":340,"ers":341,"Ġis":342,"Ġst":343,"Ġon":344,"ess":345,"ly":346,"ma":347,"Ġpro":348,"Ġwith":349,"Ġde":350,"pp":351,"ect":352,"Ġdat":353,"if":354,"ment":355,"zon":356,"Ġl":357,"ur":358,"ow":359,"ver":360,"ra":361,"Ġg":362,"Ġus":363,"ure":364,"ust":365,"vi":366,"mazon":367,"un":368,"Ġthat":369,"ec":370,"ul":371,"age":372,"ĠAmazon":373,"Ġcan":374,"ck":375,"ĠD":376,"ot":377,"ad":378,"ĠE":379,"ĠP":380,"qu":381,"Ġas":382,"ity":383,"our":384,"Ġex":385,"ĠM":386,"Ġmo":387,"Ġcom":388,"low":389,"Ġal":390,"est":391,"ri":392,"Ġdata":393,"ĠR":394,"Ġyour":395,"nt":396,"Ġen":397,"cc":398,"Ġbe":399,"Ġor":400,"erv":401,"ple":402,"ions":403,"orm":404,"Ġ.":405,"lic":406,"pt":407,"Ġne":408,"ĠF":409,"iz":410,"ork":411,"ay":412,"Ġv":413,"Ġr":414,"Ġthis":415,"ke":416,"out":417,"el":418,"art":419,"rom":420,"ervic":421,"ĠL":422,"ort":423,"Ġapp":424,"Ġare":425,"Ġsu":426,"ir":427,"em":428,"id":429,"oud":430,"ost":431,"ĠW":432,"loud":433,"ist":434,"Ġfrom":435,"Ġit":436,"form":437,"ame":438,"ĠThe":439,"Ġint":440,"us":441,"ĠG":442,"Ġwe":443,"ain":444,"Âł":445,"Ġch":446,"Ġcre":447,"ations":448,"ance":449,"um":450,"and":451,"ep":452,"Ġacc":453,"able":454,"ies":455,"Ġres":456,"ive":457,"ated":458,"ustom":459,"per":460,"Ġlo":461,"ill":462,"Ġuse":463,"pl":464,"ĠO":465,"so":466,"Ġby":467,"Ġcont":468,"ine":469,"Ġad":470,"Ġim":471,"ces":472,"ĠB":473,"Ġwh":474,"Ġ1":475,"Ġsc":476,"Ġse":477,"ire":478,"Ġle":479,"oo":480,"ack":481,"rou":482,"ult":483,"ĠN":484,"Ġinst":485,"nd":486,"Ġsh":487,"ction":488,"ss":489,"Ġcustom":490,"ase":491,"ore":492,"ant":493,"Ġhe":494,"ĠĠĠĠ":495,"ĠH":496,"Ġat":497,"du":498,"ount":499,"all":500,"Ġbu":501,"her":502,"ave":503,"Ġusing":504,"igh":505,"Ġwork":506,"ode":507,"end":508,"Ġfol":509,"Ġma":510,"Ġ2":511,"Ġup":512,"ub":513,"Ġman":514,"ail":515,"ile":516,"Ġapplic":517,"are":518,"Ġservic":519,"00":520,"ue":521,"fer":522,"ime":523,"his":524,"Ġfollow":525,"fig":526,"ter":527,"ĠIn":528,"ast":529,"Ġper":530,"Ġcl":531,"ge":532,"ĠCloud":533,"Ġte":534,"olut":535,"ĠV":536,"plo":537,"put":538,"ans":539,"Ġqu":540,"ps":541,"Ġhave":542,"ĠU":543,"po":544,"Ġnew":545,"Ġtr":546,"ding":547,"hen":548,"ĠSt":549,"ally":550,"ac":551,"Ġpre":552,"ĠCon":553,"Ġmore":554,"Ġwill":555,"Ġsec":556,"Ġfollowing":557,"Ġsp":558,"Ġprovi":559,"ew":560,"int":561,"Ġrequ":562,"Ġab":563,"vent":564,"Ġrun":565,"oc":566,"The":567,"ploy":568,"cl":569,"ld":570,"ach":571,"Ġmode":572,"ard":573,"th":574,"Ġtra":575,"act":576,"ip":577,"Ġtheir":578,"Ġnot":579,"ning":580,"ff":581,"eg":582,"ĠThis":583,"You":584,"Ġadd":585,"Ġaut":586,"ight":587,"ific":588,"ence":589,"Ġneed":590,"ource":591,"ample":592,"Ġmodel":593,"ron":594,"Ġhow":595,"od":596,"log":597,"yp":598,"ition":599,"Ġj":600,"cess":601,"ial":602,"ich":603,"iv":604,"ility":605,"Ġdeploy":606,"nect":607,"In":608,"Ġset":609,"oose":610,"Ġbuil":611,"xt":612,"ata":613,"lect":614,"Ġsolut":615,"Ġpl":616,"Ġour":617,"ject":618,"ĠK":619,"Ġar":620,"gh":621,"ak":622,"Ġcreate":623,"yst":624,"Ġconfig":625,"port":626,"ib":627,"Ġwhich":628,"Ġfun":629,"Ġaccess":630,"Ġro":631,"da":632,"etw":633,"ient":634,"ments":635,"AM":636,"Ġvi":637,"ru":638,"Ġcomp":639,"amb":640,"com":641,"ace":642,"ory":643,"ws":644,"Ġout":645,"Ġcomm":646,"ud":647,"Ġall":648,"Ġalso":649,"Ġaccount":650,"load":651,"urity":652,"Ġapplication":653,"Ġprocess":654,"Ġhel":655,"ther":656,"ign":657,"ens":658,"ates":659,"ap":660,"ambda":661,"ystem":662,"rib":663,"ics":664,"Ġtime":665,"Ġcustomers":666,"Ġhas":667,"Ġpost":668,"pport":669,"ould":670,"og":671,"ass":672,"ating":673,"erver":674,"ĠAP":675,"abl":676,"ased":677,"op":678,"Ġcloud":679,"ob":680,"ify":681,"chit":682,"chitect":683,"velo":684,"ĠServic":685,"atch":686,"ry":687,"Ġval":688,"ources":689,"ĠYou":690,"ous":691,"ption":692,"Ġke":693,"av":694,"der":695,"rough":696,"ĠJ":697,"Ġtrans":698,"li":699,"ĠMan":700,"Ġservices":701,"Ġinto":702,"ize":703,"aly":704,"formation":705,"ĠEC":706,"ical":707,"ĠWe":708,"yn":709,"te":710,"ĠLambda":711,"Ġrequire":712,"Ġinstance":713,"ds":714,"Ġfe":715,"Ġso":716,"cket":717,"uster":718,"ary":719,"abase":720,"ell":721,"Ġpart":722,"Ġexample":723,"Ġdef":724,"Ġservice":725,"no":726,"own":727,"ide":728,"ĠFor":729,"Ġinter":730,"ang":731,"Ġcode":732,"ks":733,"very":734,"ization":735,"ĠAPI":736,"ber":737,"Ġdes":738,"Ġav":739,"Ġstep":740,"Ġprodu":741,"olic":742,"Ġmet":743,"ruct":744,"Ġlog":745,"Ġfunction":746,"Ġdet":747,"ature":748,"Ġdo":749,"arg":750,"Ġlear":751,"Ġabout":752,"Ġperform":753,"up":754,"Ġfile":755,"ype":756,"ear":757,"Ġstart":758,"velop":759,"enc":760,"ual":761,"Ġ3":762,"ress":763,"Ġuser":764,"pro":765,"Ġsupport":766,"Ġent":767,"Ġconnect":768,"ert":769,"Ġsolution":770,"Ġac":771,"Ġincl":772,"Ġchoose":773,"Ġover":774,"Ġsee":775,"Ġprovid":776,"ind":777,"ream":778,"Ġcost":779,"ice":780,"Ġhelp":781,"os":782,"Ġthrough":783,"Ġthese":784,"Ġwhen":785,"Ġun":786,"Ġend":787,"Ġused":788,"viron":789,"Ġresources":790,"Ġevent":791,"ake":792,"Ġautom":793,"QL":794,"Ġexper":795,"iness":796,"etwork":797,"reate":798,"ark":799,"Ġspec":800,"Ġcons":801,"Ġsuch":802,"Ġrec":803,"Ġme":804,"ll":805,"Ġallow":806,"ets":807,"Ġsecurity":808,"Ġoper":809,"Ġname":810,"sh":811,"Ġdis":812,"usiness":813,"Ġsystem":814,"nder":815,"gan":816,"pon":817,"Ġother":818,"ability":819,"sole":820,"Ġkey":821,"point":822,"ors":823,"agement":824,"Ġapplications":825,"mis":826,"Ġdatabase":827,"ft":828,"Ġ20":829,"ere":830,"ting":831,"Ġavail":832,"Ġits":833,"ration":834,"Ġany":835,"ener":836,"rit":837,"Ġenviron":838,"Ġinformation":839,"Ġdevelop":840,"Ġthey":841,"Ġtech":842,"ances":843,"ike":844,"Ġreg":845,"here":846,"St":847,"Ġsim":848,"Ġmult":849,"Ġone":850,"Ġteam":851,"Ġif":852,"ĠData":853,"Ġag":854,"ts":855,"ages":856,"irect":857,"ef":858,"riv":859,"uration":860,"ĠTo":861,"ĠPro":862,"Ġcomple":863,"ining":864,"ick":865,"Ġcreated":866,"Ġcontain":867,"Ġdif":868,"Ġtest":869,"ari":870,"ome":871,"Ġk":872,"Ġget":873,"orage":874,"Ġcluster":875,"ĠĠĠ":876,"Ġanaly":877,"roup":878,"Ġquer":879,"ccess":880,"Ġbusiness":881,"Ġfeature":882,"Ġwas":883,"Ġeach":884,"Ġcol":885,"ner":886,"net":887,"Ġbuild":888,"Ġthen":889,"ĠService":890,"Ġob":891,"ross":892,"aram":893,"PC":894,"ract":895,"pen":896,"ident":897,"ware":898,"igure":899,"way":900,"ribut":901,"Ġpr":902,"Ġselect":903,"aker":904,"ĠCloudF":905,"ities":906,"Ġback":907,"Ġlike":908,"Ġpolic":909,"Ġsub":910,"rate":911,"pre":912,"ructure":913,"Ġshow":914,"view":915,"Ġpo":916,"Ġret":917,"one":918,"aged":919,"Ġarchitect":920,"ĠCom":921,"Ġdiffer":922,"anc":923,"Ġbucket":924,"ĠĠĠĠĠĠĠĠ":925,"ram":926,"Ġopt":927,"ines":928,"Ġjob":929,"ersion":930,"Ġthem":931,"ia":932,"ized":933,"ases":934,"ience":935,"Maker":936,"con":937,"ĠDe":938,"ffic":939,"aramet":940,"ocu":941,"Ġmon":942,"DB":943,"Ġ5":944,"ection":945,"Con":946,"che":947,"irst":948,"Ġloc":949,"ok":950,"rol":951,"ĠIAM":952,"Ġorgan":953,"less":954,"Ġsource":955,"Ġact":956,"ables":957,"Ġnum":958,"Ġfil":959,"ageMaker":960,"ong":961,"Ġgo":962,"use":963,"ange":964,"Ġavailable":965,"vel":966,"Ġcustomer":967,"empl":968,"ormation":969,"Ġnetwork":970,"For":971,"Ġrequest":972,"ÂłÂł":973,"Ġstore":974,"Ġbut":975,"Ġcall":976,"ues":977,"ager":978,"ext":979,"Ġread":980,"Ġunder":981,"cre":982,"Ġwhere":983,"Ġtw":984,"aws":985,"Ġenvironment":986,"min":987,"Ġdifferent":988,"Ġinclu":989,"Ġconsole":990,"ĠVPC":991,"Ġusers":992,"ative":993,"ault":994,"Ġgener":995,"Ġass":996,"ĠSageMaker":997,"Ġhigh":998,"ĠApp":999,"ĠPart":1000,"itor":1001,"bo":1002,"nolog":1003,"ically":1004,"Ġresult":1005,"Ġpat":1006,"ency":1007,"Ġinteg":1008,"Ġtable":1009,"ring":1010,"io":1011,"fter":1012,"Ġcap":1013,"Ġinstances":1014,"ible":1015,"Ġwant":1016,"Ġonly":1017,"ache":1018,"Ġupd":1019,"aun":1020,"Ġind":1021,"ict":1022,"Ġprovides":1023,"ipel":1024,"ord":1025,"Ġproduct":1026,"ĠQ":1027,"Ġbot":1028,"Ġmulti":1029,"Ġserver":1030,"Ġpub":1031,"ision":1032,"ents":1033,"ĠReg":1034,"uring":1035,"tt":1036,"ree":1037,"Ġarchitecture":1038,"ynam":1039,"Ġinf":1040,"pos":1041,"ale":1042,"ER":1043,"Ġtool":1044,"Ġworkload":1045,"ful":1046,"Ġimport":1047,"ift":1048,"Ġappro":1049,"Ġ4":1050,"Ġacross":1051,"ĠIf":1052,"To":1053,"ifi":1054,"Ġrole":1055,"Ġatt":1056,"ĠCloudFormation":1057,"Ġcommand":1058,"rap":1059,"Ġconfiguration":1060,"Ġnow":1061,"heck":1062,"tern":1063,"rast":1064,"Ġmake":1065,"ound":1066,"Ġperformance":1067,"ĠRe":1068,"Ġins":1069,"name":1070,"Ġ0":1071,"ise":1072,"Ġendpoint":1073,"Ġrunning":1074,"ices":1075,"Ġinv":1076,"Ġident":1077,"Ġtwo":1078,"Ġconfigure":1079,"ĠSp":1080,"atform":1081,"Ġsteps":1082,"ms":1083,"ash":1084,"ocument":1085,"Ġshould":1086,"ecut":1087,"Ġmig":1088,"ler":1089,"miss":1090,"ON":1091,"Ġrespon":1092,"hoose":1093,"ĠCreate":1094,"Ġprovide":1095,"flow":1096,"Ġquery":1097,"Ġbased":1098,"AWS":1099,"Ġtempl":1100,"its":1101,"rastructure":1102,"Ġeas":1103,"Ġobject":1104,"ript":1105,"ĠAd":1106,"Ġmultiple":1107,"Ġnumber":1108,"Ġsame":1109,"Ġaddition":1110,"Ġcomput":1111,"ĠAr":1112,"Ġstorage":1113,"ĠIt":1114,"ateway":1115,"ined":1116,"ys":1117,"ite":1118,"Ġvalue":1119,"arch":1120,"dent":1121,"Ġfin":1122,"ĠML":1123,"Figure":1124,"Ġfirst":1125,"Ġthan":1126,"Ġvis":1127,"Ġlat":1128,"Ġdem":1129,"Ġlearning":1130,"Ġstack":1131,"Ġsolutions":1132,"Ġenter":1133,"ĠSec":1134,"ook":1135,"Ġdatas":1136,"Ġtechnolog":1137,"On":1138,"crib":1139,"Ġbec":1140,"DS":1141,"Ġvari":1142,"Ġlist":1143,"ause":1144,"plement":1145,"ession":1146,"Ġmin":1147,"Ġeng":1148,"Ġexp":1149,"20":1150,"Ġstream":1151,"Ġdirect":1152,"ower":1153,"last":1154,"Ġmetr":1155,"Ġmach":1156,"Ġtraining":1157,"Ġway":1158,"urn":1159,"Ġdetail":1160,"Ġev":1161,"ational":1162,"Ġchang":1163,"res":1164,"arge":1165,"ĠManager":1166,"urre":1167,"time":1168,"ĠAn":1169,"Ġclient":1170,"ctions":1171,"Ġwell":1172,"tain":1173,"Ġweb":1174,"Ġinfrastructure":1175,"Ġext":1176,"ĠAut":1177,"ator":1178,"ĠRed":1179,"Ġproject":1180,"Ġimpro":1181,"arget":1182,"Ġtas":1183,"lication":1184,"Ġpolicy":1185,"Ġwithin":1186,"Ġdev":1187,"Ġscal":1188,"eng":1189,"ote":1190,"ci":1191,"wn":1192,"Ġdeli":1193,"Ġgroup":1194,"oT":1195,"Ġexist":1196,"Ġlearn":1197,"een":1198,"ink":1199,"rivate":1200,"Ġcontrol":1201,"ĠServer":1202,"Ġmain":1203,"pr":1204,"Ġexperience":1205,"ipeline":1206,"AT":1207,"ey":1208,"izations":1209,"now":1210,"ose":1211,"Ġful":1212,"Ġtype":1213,"etween":1214,"Watch":1215,"Ġimplement":1216,"uil":1217,"Ġsome":1218,"Ġbeen":1219,"Ġblog":1220,"nter":1221,"Ġplatform":1222,"Ġlaun":1223,"comm":1224,"This":1225,"Ġbetween":1226,"ID":1227,"ĠTr":1228,"Ġem":1229,"ftware":1230,"Ġrep":1231,"Ġstate":1232,"Ġcontent":1233,"tics":1234,"Ġimage":1235,"Ġshare":1236,"Ġallows":1237,"Ġdefault":1238,"Ġmanagement":1239,"ĠOn":1240,"Ġdown":1241,"Ġparamet":1242,"Ġincre":1243,"ĠHe":1244,"ified":1245,"ital":1246,"arket":1247,"ĠUs":1248,"Ġwhat":1249,"Ġcase":1250,"ference":1251,"ond":1252,"Ġuses":1253,"Ġreal":1254,"Ġwere":1255,"Ġscale":1256,"Ġinstall":1257,"ST":1258,"Ġcheck":1259,"12":1260,"Ġdeployment":1261,"Ġoutput":1262,"alth":1263,"Ġmachine":1264,"Ġmust":1265,"Name":1266,"ights":1267,"ĠIoT":1268,"ĠEn":1269,"app":1270,"Ġspecific":1271,"Ġfiles":1272,"Ġredu":1273,"Ġthere":1274,"ffect":1275,"Ġmodels":1276,"DK":1277,"inu":1278,"Ġmess":1279,"ĠCloudWatch":1280,"Ġno":1281,"Ġtemplate":1282,"lastic":1283,"ingle":1284,"ĠEx":1285,"Ġenc":1286,"oDB":1287,"lob":1288,"Ġoptim":1289,"Ġrem":1290,"Ġmay":1291,"Ġdesign":1292,"ĠAs":1293,"ced":1294,"based":1295,"Choose":1296,"Ġbest":1297,"Ġaddress":1298,"Ġown":1299,"Ġaws":1300,"ĠAl":1301,"Ġcompan":1302,"ten":1303,"ĠCh":1304,"hot":1305,"over":1306,"xx":1307,"ie":1308,"fore":1309,"ĠSQL":1310,"ish":1311,"ĠQu":1312,"Ġsche":1313,"read":1314,"Ġworkflow":1315,"aging":1316,"Ġversion":1317,"gram":1318,"MS":1319,"Ġautomat":1320,"ĠRDS":1321,"LI":1322,"lue":1323,"board":1324,"cle":1325,"Ġpermiss":1326,"omain":1327,"Ġstat":1328,"ix":1329,"AP":1330,"NS":1331,"Ġlook":1332,"raph":1333,"ification":1334,"Ġworkloads":1335,"Ġtop":1336,"ĠServices":1337,"Ġmak":1338,"rame":1339,"Ġform":1340,"Ġpass":1341,"LE":1342,"olum":1343,"Ġoff":1344,"Ġed":1345,"ĠID":1346,"Ġwrit":1347,"Ġrequired":1348,"Ġhost":1349,"SQL":1350,"Ġdist":1351,"gre":1352,"ĠSolut":1353,"ccount":1354,"les":1355,"urrent":1356,"10":1357,"Ġexecut":1358,"Ġdec":1359,"shift":1360,"Ġtyp":1361,"Ġmanaged":1362,"Ġview":1363,"dition":1364,"Ġexisting":1365,"Ġmonitor":1366,"Ġdocument":1367,"ĠConnect":1368,"Ġfeatures":1369,"Ġcomplete":1370,"ier":1371,"Ġpage":1372,"Ġboth":1373,"dict":1374,"Ġincluding":1375,"Ġpublic":1376,"ĠSe":1377,"Ġcent":1378,"Ġ10":1379,"ĠDynam":1380,"get":1381,"ings":1382,"Ġtake":1383,"Ġmost":1384,"Ġwithout":1385,"Ġmany":1386,"iel":1387,"Ġdisc":1388,"Ġsection":1389,"vision":1390,"ular":1391,"Ġsingle":1392,"Ġtarget":1393,"hor":1394,"We":1395,"ĠRedshift":1396,"ilities":1397,"Ġpract":1398,"RE":1399,"alk":1400,"ex":1401,"abel":1402,"Ġmy":1403,"Ġdele":1404,"ily":1405,"Ġload":1406,"line":1407,"Ġresource":1408,"ocus":1409,"Ġmetrics":1410,"Ġgu":1411,"Ġhand":1412,"ĠInst":1413,"Ġchanges":1414,"ĠRes":1415,"Ġwhile":1416,"Ġ6":1417,"ved":1418,"Ġyear":1419,"lock":1420,"ners":1421,"Ġcert":1422,"ĠHow":1423,"ĠArchitect":1424,"ĠPartner":1425,"Ġsign":1426,"ĠGateway":1427,"Ġshows":1428,"Ġopen":1429,"ĠCont":1430,"ĠWith":1431,"ĠDynamoDB":1432,"KS":1433,"Ġwould":1434,"ĠElastic":1435,"indow":1436,"Ġsoftware":1437,"ĠIP":1438,"Ġsuccess":1439,"commend":1440,"Amazon":1441,"Ġmanage":1442,"ole":1443,"Ġpoint":1444,"Ġtools":1445,"Ġaccounts":1446,"round":1447,"Ġmem":1448,"ĠRegion":1449,"icro":1450,"Ġadditional":1451,"ashboard":1452,"Ġsecure":1453,"PU":1454,"Ġrecommend":1455,"Ġadv":1456,"Ġevents":1457,"ĠAt":1458,"Ġrel":1459,"Ġresults":1460,"son":1461,"Ġcontainer":1462,"pend":1463,"Ġevery":1464,"Ġclass":1465,"ever":1466,"ays":1467,"itory":1468,"Ġcommun":1469,"à¸":1470,"Ġdataset":1471,"Ġdevelopment":1472,"Ġchange":1473,"Ġvide":1474,"to":1475,"Ġam":1476,"Ġfocus":1477,"ĠManagement":1478,"Ġprot":1479,"ives":1480,"Ġchall":1481,"pli":1482,"orld":1483,"Ġvia":1484,"Ġtechnology":1485,"eb":1486,"Id":1487,"Ġneeds":1488,"Ġimprove":1489,"ĠY":1490,"Ġbuilding":1491,"Ġengine":1492,"Ġben":1493,"Ġautomatically":1494,"ann":1495,"ules":1496,"ames":1497,"work":1498,"nov":1499,"Ġsystems":1500,"ove":1501,"lobal":1502,"soci":1503,"Ġdetails":1504,"lick":1505,"ug":1506,"place":1507,"Ġpipeline":1508,"AR":1509,"uber":1510,"Ġcor":1511,"Ġrepos":1512,"..":1513,"ront":1514,"Ġscript":1515,"ĠÂł":1516,"Ġquick":1517,"Ġtraffic":1518,"Ġens":1519,"ality":1520,"ubernet":1521,"err":1522,"Ġlead":1523,"Ġenable":1524,"Ġsetting":1525,"Ġconsum":1526,"ogn":1527,"ĠEKS":1528,"If":1529,"ubernetes":1530,"ĠCode":1531,"ntic":1532,"stand":1533,"ont":1534,"ger":1535,"Ġcompon":1536,"Ġrest":1537,"hentic":1538,"for":1539,"ech":1540,"Ġindust":1541,"Ġ8":1542,"Ġprocessing":1543,"als":1544,"Ġdi":1545,"rid":1546,"Ġiss":1547,"avig":1548,"Ġcould":1549,"ving":1550,"igital":1551,"Ġrout":1552,"Ġtim":1553,"lease":1554,"udio":1555,"ider":1556,"Ġcosts":1557,"ĠStep":1558,"Ġsend":1559,"Ġhelps":1560,"Ġreport":1561,"Ġnext":1562,"edia":1563,"ĠTrans":1564,"sp":1565,"reat":1566,"IN":1567,"Ġpers":1568,"file":1569,"ĠSecurity":1570,"Ġdeliver":1571,"Ġpermissions":1572,"Ġbecause":1573,"vious":1574,"ĠWeb":1575,"ule":1576,"0000":1577,"ĠWhen":1578,"Ġdistribut":1579,"Ġdomain":1580,"Ġoption":1581,"andard":1582,"Ġdoes":1583,"ead":1584,"Ġorganization":1585,"atal":1586,"Ġinit":1587,"19":1588,"Ġcases":1589,"ble":1590,"rateg":1591,"Ġbuilt":1592,"ĠOpen":1593,"Ġpack":1594,"Ġprogram":1595,"ĠCLI":1596,"mail":1597,"tual":1598,"ibility":1599,"row":1600,"Ġbefore":1601,"Ġlow":1602,"hat":1603,"dex":1604,"abilities":1605,"plify":1606,"Ġable":1607,"Ġreturn":1608,"sis":1609,"ama":1610,"Ġvalid":1611,"Ġinput":1612,"Ġlaunch":1613,"As":1614,"Ġsample":1615,"Ġph":1616,"Ġregion":1617,"ward":1618,"roups":1619,"Ġorder":1620,"Ġanalytics":1621,"ences":1622,"ivity":1623,"Ġrequirements":1624,"ĠConfig":1625,"Ġpredict":1626,"aster":1627,"Ġvideo":1628,"11":1629,"back":1630,"Ġorganizations":1631,"Ġsm":1632,"Ġinnov":1633,"Ġtag":1634,"Ġteams":1635,"ĠZ":1636,"sc":1637,"Ġlevel":1638,"Ġinclud":1639,"ET":1640,"ral":1641,"Ġfind":1642,"odel":1643,"ription":1644,"ĠGlue":1645,"Ġjust":1646,"Ġport":1647,"Ġresponse":1648,"Ġlong":1649,"Ġacce":1650,"Ġstarted":1651,"Ġrepository":1652,"Ġlogs":1653,"Ġenabl":1654,"Ġcurrent":1655,"Ġensure":1656,"yth":1657,"na":1658,"sent":1659,"Ġdeployed":1660,"ath":1661,"ĠThese":1662,"ĠSc":1663,"Create":1664,"ted":1665,"ĠWork":1666,"ĠGit":1667,"mit":1668,"iqu":1669,"ucket":1670,"val":1671,"ayer":1672,"Ġrece":1673,"ĠAI":1674,"Ġhealth":1675,"Ġvalues":1676,"Ġthose":1677,"imit":1678,"Ġbro":1679,"ĠSim":1680,"Ġvolum":1681,"ython":1682,"Ġdashboard":1683,"Ġoperations":1684,"Ġprivate":1685,"Ġerr":1686,"Ġwho":1687,"ĠSS":1688,"Ġplan":1689,"atalog":1690,"Ġhtt":1691,"Ġconst":1692,"Ġtext":1693,"Ġprovision":1694,"RO":1695,"Ġapproach":1696,"Ġfunctions":1697,"Ġtechn":1698,"mises":1699,"Ġmigration":1700,"Ġserv":1701,"ĠCustom":1702,"Ġknow":1703,"Ġreview":1704,"Ġunderstand":1705,"Ġlocal":1706,"Ġproduction":1707,"Ġut":1708,"apt":1709,"ric":1710,"face":1711,"ĠKubernetes":1712,"Ġ202":1713,"Ġcreating":1714,"acity":1715,"Ġsure":1716,"Ġtask":1717,"ials":1718,"gor":1719,"lex":1720,"Ġser":1721,"ords":1722,"Ġfew":1723,"Ġbenef":1724,"hod":1725,"amazon":1726,"Ġformat":1727,"Ġpe":1728,"pliance":1729,"usion":1730,"Ġvisual":1731,"ging":1732,"Ġprevious":1733,"odes":1734,"ĠIm":1735,"Ġupdate":1736,"Ġassoci":1737,"Ġ7":1738,"ock":1739,"Ġmod":1740,"led":1741,"Ġneeded":1742,"Ġfiel":1743,"Ġfail":1744,"Ġtak":1745,"Ġserverless":1746,"ples":1747,"oot":1748,"ough":1749,"ync":1750,"Ar":1751,"Ġduring":1752,"Ġthree":1753,"Ġimp":1754,"Ġsecond":1755,"ĠSystem":1756,"angu":1757,"Ġstrateg":1758,"Ġafter":1759,"aces":1760,"Ġ9":1761,"Ġtypes":1762,"ĠQuick":1763,"Ġbet":1764,"NT":1765,"af":1766,"ora":1767,"Ġlarge":1768,"Ġencry":1769,"Ġminut":1770,"Ġpattern":1771,"izing":1772,"adata":1773,"ĠCl":1774,"Ġrequests":1775,"Ġinclude":1776,"Ġbelow":1777,"RL":1778,"cribe":1779,"Ġscre":1780,"Ġcapabilities":1781,"indows":1782,"Ġadmin":1783,"Ġstatus":1784,"Ġtables":1785,"ually":1786,"Ġi":1787,"old":1788,"Ġimportant":1789,"Ġauthentic":1790,"Ġter":1791,"AC":1792,"Ġonpre":1793,"TT":1794,"Pro":1795,"Ġquickly":1796,"Ġshown":1797,"ering":1798,"ĠEvent":1799,"ĠSolutions":1800,"other":1801,"Ġenables":1802,"Ġann":1803,"Ġpolicies":1804,"overy":1805,"edi":1806,"Us":1807,"pect":1808,"000":1809,"ination":1810,"ramework":1811,"Ġworking":1812,"Ġconsider":1813,"ves":1814,"cast":1815,"ready":1816,"hena":1817,"Ġoffer":1818,"Ġdigital":1819,"ĠEM":1820,"Ġvir":1821,"ervice":1822,"Ġparameters":1823,"Ġpower":1824,"ĠDat":1825,"pd":1826,"Ġstored":1827,"Ġdepend":1828,"Ġlever":1829,"Ġoptions":1830,"Ġmeet":1831,"Ġintegr":1832,"chie":1833,"ret":1834,"Ġcompute":1835,"ĠAccess":1836,"Ġpay":1837,"Ġsuccessful":1838,"ns":1839,"Ġflow":1840,"Ġintegration":1841,"igin":1842,"Ġeffic":1843,"Ġchalleng":1844,"Ġpractices":1845,"Ġbetter":1846,"Ġcomplex":1847,"acy":1848,"dem":1849,"Ġtransform":1850,"ites":1851,"Ġfound":1852,"urora":1853,"Ġdont":1854,"Ġright":1855,"eplo":1856,"Ġsession":1857,"Ġimages":1858,"Ġver":1859,"Ġanalysis":1860,"Ġpur":1861,"Hub":1862,"Ġmethod":1863,"pert":1864,"ĠAM":1865,"Ġnoteb":1866,"Ġonpremises":1867,"Ġprovided":1868,"ĠSDK":1869,"eploy":1870,"Ġrule":1871,"Ġtrig":1872,"prise":1873,"Ġconnection":1874,"Ġhere":1875,"ood":1876,"Ġbeing":1877,"Ġworld":1878,"ĠStorage":1879,"amp":1880,"Ġeven":1881,"Ġachie":1882,"CT":1883,"Ġdiag":1884,"Ġstandard":1885,"ĠNext":1886,"clusion":1887,"annel":1888,"onst":1889,"anced":1890,"man":1891,"Ġemail":1892,"Ġdevelopers":1893,"Ġmakes":1894,"ĠAm":1895,"Ġdevice":1896,"Ġidentify":1897,"ĠOr":1898,"Ġposs":1899,"urther":1900,"When":1901,"Ġconfigured":1902,"Ġpar":1903,"Ġsearch":1904,"aS":1905,"Ġfull":1906,"Ġtrack":1907,"uild":1908,"Ġcommon":1909,"Ġmessage":1910,"ins":1911,"Ġcolum":1912,"Ġlabel":1913,"ha":1914,"Ġqueries":1915,"ĠDirect":1916,"ĠPost":1917,"Ġproble":1918,"dentials":1919,"loc":1920,"Ġra":1921,"ĠAurora":1922,"Ġeasy":1923,"Ġagain":1924,"Ġgroups":1925,"Ġcompliance":1926,"opy":1927,"ĠUn":1928,"Ġinsights":1929,"olicy":1930,"Ġconf":1931,"Ġnavig":1932,"Ġrefer":1933,"Ġauthor":1934,"Ġrules":1935,"ĠWindows":1936,"Ġyears":1937,"ÂłÂłÂłÂł":1938,"Ġing":1939,"Ġjobs":1940,"inesis":1941,"An":1942,"Ġminutes":1943,"ĠUS":1944,"Ġaction":1945,"Ġdemonst":1946,"Ġquest":1947,"part":1948,"ĠX":1949,"uss":1950,"Ġproducts":1951,"abases":1952,"Sight":1953,"Ġpath":1954,"day":1955,"Ġupload":1956,"Ġsize":1957,"Cl":1958,"Ġlif":1959,"Ġart":1960,"ĠAthena":1961,"hed":1962,"Res":1963,"Ġsk":1964,"Se":1965,"lu":1966,"ched":1967,"With":1968,"Ġdetect":1969,"Ġtasks":1970,"Ġimpact":1971,"ibr":1972,"ĠOut":1973,"Ġcertific":1974,"Ġnode":1975,"ĠGitHub":1976,"ĠLog":1977,"duct":1978,"Ġkeep":1979,"Ġcomponents":1980,"Ġcapacity":1981,"action":1982,"Ġincludes":1983,"Ġdirectly":1984,"ilar":1985,"Ġmonitoring":1986,"Ġlangu":1987,"Ġcount":1988,"Ġco":1989,"Ġglobal":1990,"Ġcontinu":1991,"amples":1992,"Ġindustry":1993,"ilo":1994,"ĠECS":1995,"Ġmoder":1996,"Ġalready":1997,"ales":1998,"Ġinteract":1999,"ĠRun":2000,"gra":2001,"Now":2002,"Sp":2003,"Ġlimit":2004,"Ġmaintain":2005,"Ġspe":2006,"Ġobjects":2007,"cing":2008,"ators":2009,"Ġest":2010,"ĠMarket":2011,"Ġanalyz":2012,"Ġmight":2013,"aving":2014,"racle":2015,"Ġear":2016,"Ġvirtual":2017,"ION":2018,"Ġreduce":2019,"uture":2020,"Ġfully":2021,"ĠMy":2022,"ĠQuickSight":2023,"SON":2024,"ĠLear":2025,"itions":2026,"itive":2027,"ven":2028,"Com":2029,"Ġ12":2030,"Ġdelete":2031,"oice":2032,"Ġapply":2033,"red":2034,"Ġitem":2035,"IC":2036,"lean":2037,"ĠPr":2038,"roll":2039,"Config":2040,"ES":2041,"ĠTh":2042,"Ġdiscuss":2043,"Ġgreat":2044,"xim":2045,"ĠNetwork":2046,"Ġsimple":2047,"Ġmat":2048,"ĠInter":2049,"Ġyoure":2050,"Ġsever":2051,"ĠDev":2052,"ĠPython":2053,"ĠURL":2054,"ately":2055,"ique":2056,"Ġsupports":2057,"rodu":2058,"ĠConsole":2059,"ĠInt":2060,"Ġacceler":2061,"Ġindex":2062,"alanc":2063,"cription":2064,"usters":2065,"Ġmetadata":2066,"Ġcontact":2067,"AN":2068,"ently":2069,"ĠBy":2070,"Ġregist":2071,"Ġattribut":2072,"Ġcomb":2073,"Ġlocation":2074,"ĠIdent":2075,"ĠTech":2076,"Ġque":2077,"oun":2078,"Ġhis":2079,"ĠSimple":2080,"Ġpri":2081,"Ġparameter":2082,"Ġhour":2083,"Ġpartic":2084,"ĠOracle":2085,"Ġclick":2086,"inc":2087,"ĠStart":2088,"quis":2089,"ull":2090,"Ġworks":2091,"Ġperson":2092,"Ã©":2093,"Ġutil":2094,"Ġability":2095,"ĠUsing":2096,"Ex":2097,"Ġblock":2098,"16":2099,"ĠHowever":2100,"ĠEMR":2101,"ĠIT":2102,"XX":2103,"ĠFun":2104,"Ġhad":2105,"Ġmonth":2106,"Ġinc":2107,"ĠAdd":2108,"alle":2109,"Ġpubl":2110,"Ġdiagram":2111,"Ġpan":2112,"Ġdocumentation":2113,"Ġorigin":2114,"Ġhttps":2115,"ists":2116,"vern":2117,"Ġanother":2118,"Ġlets":2119,"Ġmarket":2120,"ense":2121,"rie":2122,"Ġdatabases":2123,"Ġcompany":2124,"Ġris":2125,"17":2126,"Ġdownload":2127,"vers":2128,"ĠAnaly":2129,"Role":2130,"Ġdevices":2131,"Ġline":2132,"Ġtechnical":2133,"cept":2134,"Ġrealtime":2135,"ĠEng":2136,"Ġpossible":2137,"Ġoperational":2138,"iss":2139,"Ġdeep":2140,"word":2141,"ait":2142,"Ġtab":2143,"ffective":2144,"ĠAPIs":2145,"Ġgr":2146,"Ġeasily":2147,"Ġstud":2148,"Ġenvironments":2149,"Ad":2150,"user":2151,"Ġscen":2152,"Ġrele":2153,"istr":2154,"imary":2155,"ĠRep":2156,"Ġmodern":2157,"Ġusage":2158,"Data":2159,"ivi":2160,"After":2161,"Ġnotebook":2162,"ĠPl":2163,"Ġgovern":2164,"OR":2165,"Ġaud":2166,"Ġec":2167,"earch":2168,"ĠKinesis":2169,"Ġreplic":2170,"ĠĠĠĠĠĠĠĠĠĠĠĠĠĠĠĠ":2171,"Ġcreates":2172,"Ġbackup":2173,"Ġavailability":2174,"Ops":2175,"gorith":2176,"ĠJSON":2177,"56":2178,"Ġsetup":2179,"met":2180,"Ġgrow":2181,"ĠSAP":2182,"ask":2183,"ritical":2184,"Ġassociated":2185,"Ġfuture":2186,"arm":2187,"ery":2188,"greSQL":2189,"etting":2190,"Ġnodes":2191,"naps":2192,"Ġshared":2193,"Ġaround":2194,"ands":2195,"ĠAp":2196,"Ġissues":2197,"ellig":2198,"ince":2199,"Ġinference":2200,"cent":2201,"30":2202,"ector":2203,"napshot":2204,"oid":2205,"ention":2206,"ĠThere":2207,"config":2208,"Ġcompanies":2209,"encies":2210,"pare":2211,"ĠSh":2212,"Ġrespons":2213,"34":2214,"sel":2215,"lab":2216,"Ġchallenges":2217,"ourn":2218,"gin":2219,"Ġhard":2220,"Ġcredentials":2221,"ivers":2222,"Ġfeed":2223,"Ġjo":2224,"Ġvarious":2225,"Ġgraph":2226,"ĠPostgreSQL":2227,"veloper":2228,"search":2229,"lection":2230,"Ġservers":2231,"FS":2232,"ither":2233,"ocker":2234,"Ġroles":2235,"EC":2236,"Ġseveral":2237,"Ġlatency":2238,"Ġcommunic":2239,"incip":2240,"Ġmemory":2241,"Ġtesting":2242,"inux":2243,"ĠPartners":2244,"aling":2245,"Ġexpl":2246,"requ":2247,"ker":2248,"Ġcollect":2249,"ĠApplication":2250,"Ġel":2251,"dule":2252,"Ġwalk":2253,"Ġingest":2254,"ĠDB":2255,"Re":2256,"Ġsmall":2257,"une":2258,"18":2259,"Ġoften":2260,"und":2261,"erequis":2262,"AME":2263,"ird":2264,"ries":2265,"ired":2266,"ĠTra":2267,"iment":2268,"Ġlibr":2269,"aaS":2270,"ups":2271,"ecess":2272,"json":2273,"IT":2274,"ĠSu":2275,"ĠSelect":2276,"Ġnames":2277,"Ġsettings":2278,"Ġclusters":2279,"olve":2280,"ons":2281,"ql":2282,"Ġcontin":2283,"ĠÂłĠÂł":2284,"pri":2285,"ĠComput":2286,"Ġcalled":2287,"elf":2288,"Ġplace":2289,"Ġcontains":2290,"ĠFigure":2291,"ividu":2292,"ternal":2293,"hip":2294,"alu":2295,"Ġenabled":2296,"ĠGu":2297,"ential":2298,"dk":2299,"Ġalgorith":2300,"Ġprocesses":2301,"Ġrecord":2302,"ures":2303,"Ġplay":2304,"Type":2305,"Ġmill":2306,"Ġdescrib":2307,"Ġlatest":2308,"data":2309,"Ġfurther":2310,"Ġminim":2311,"Select":2312,"Ġframework":2313,"stance":2314,"Ġgenerate":2315,"rets":2316,"Ġrequires":2317,"enshot":2318,"Ġauthentication":2319,"Ġadded":2320,"Ġspecify":2321,"ĠMicro":2322,"Ġchannel":2323,"ml":2324,"Ġwrite":2325,"oad":2326,"22":2327,"Ġoffers":2328,"ĠIdentity":2329,"force":2330,"resh":2331,"ĠSystems":2332,"AS":2333,"Ġnon":2334,"ĠApache":2335,"ycle":2336,"Ġbo":2337,"Ġlive":2338,"Ġeither":2339,"Ġreplication":2340,"ople":2341,"tes":2342,"ially":2343,"ĠMarketplace":2344,"Ġtrigger":2345,"Ġscaling":2346,"Ġsens":2347,"Ġdelivery":2348,"Ġaccur":2349,"ATE":2350,"vail":2351,"por":2352,"ton":2353,"Ġrepre":2354,"Ġindividu":2355,"ĠStudio":2356,"TTP":2357,"large":2358,"Ġtrain":2359,"ĠThey":2360,"Ġtimes":2361,"ĠName":2362,"izes":2363,"iven":2364,"allel":2365,"Ġpod":2366,"Ġdefine":2367,"Ġprimary":2368,"Ġalong":2369,"greg":2370,"Ġerror":2371,"Ġabove":2372,"Ġbase":2373,"side":2374,"ants":2375,"Ġvolume":2376,"Ġflex":2377,"pted":2378,"Ġscreenshot":2379,"ural":2380,"ĠCloudFront":2381,"Ġdest":2382,"Ġtopic":2383,"ĠSAM":2384,"Ġscalable":2385,"iod":2386,"Ġexpect":2387,"aring":2388,"Ġfield":2389,"ĠNew":2390,"uch":2391,"Ġlast":2392,"ĠSo":2393,"Ġschema":2394,"Ġinvest":2395,"Ġmade":2396,"Ġdirectory":2397,"Ġfilter":2398,"pping":2399,"ele":2400,"Ġref":2401,"Ġsimilar":2402,"BS":2403,"OS":2404,"erm":2405,"99":2406,"Ġscenari":2407,"Ġautomated":2408,"Ġop":2409,"ĠSNS":2410,"jo":2411,"Ġevalu":2412,"Ġmaking":2413,"AB":2414,"eni":2415,"level":2416,"Ġachieve":2417,"Ġcentral":2418,"Ġsent":2419,"bout":2420,"def":2421,"Ġunique":2422,"Ġincrease":2423,"Ġ100":2424,"onds":2425,"bject":2426,"Ġmessages":2427,"Ġcreation":2428,"50":2429,"ĠPre":2430,"respon":2431,"ĠEd":2432,"aw":2433,"Ġmove":2434,"Ġinterface":2435,"epar":2436,"Ġstreaming":2437,"Ġseries":2438,"ecessary":2439,"db":2440,"Ġstrategy":2441,"Ġfore":2442,"Ġproviding":2443,"Ġpop":2444,"Tra":2445,"Ġactions":2446,"erequisites":2447,"xxxx":2448,"Ġskill":2449,"CO":2450,"Ġhig":2451,"ĠRE":2452,"ublic":2453,"ĠPrivate":2454,"ches":2455,"Ġstring":2456,"ished":2457,"Ġrecords":2458,"ĠAfter":2459,"ited":2460,"Ġexecution":2461,"ĠFin":2462,"Ġado":2463,"Ġautomation":2464,"labor":2465,"Ġinstruct":2466,"ĠCO":2467,"Ġquestions":2468,"ridge":2469,"ĠHTTP":2470,"Ġbenefits":2471,"incipal":2472,"ĠType":2473,"Ġself":2474,"Ġdatasets":2475,"ĠRegions":2476,"Ġfree":2477,"Ġagent":2478,"ouse":2479,"Ġpeople":2480,"ĠDatabase":2481,"pose":2482,"Ġjourn":2483,"Ġhighly":2484,"Ġcore":2485,"aut":2486,"pportun":2487,"tra":2488,"ĠAS":2489,"ĠCDK":2490,"ĠCent":2491,"Ġmigr":2492,"Ġcorre":2493,"oring":2494,"ĠEnter":2495,"Ġthird":2496,"ather":2497,"air":2498,"ĠAD":2499,"ĠAR":2500,"ĠManaged":2501,"Ġten":2502,"Ġdri":2503,"ĠComp":2504,"ĠSaaS":2505,"AL":2506,"ken":2507,"Ġcapt":2508,"Ġvery":2509,"Ġretrie":2510,"64":2511,"NAME":2512,"ML":2513,"Sec":2514,"Ġsepar":2515,"ank":2516,"bers":2517,"Ġpartners":2518,"Ġupdated":2519,"Ġannoun":2520,"Ġfaster":2521,"Cloud":2522,"Ġtechnologies":2523,"ĠUser":2524,"Ġmeans":2525,"irm":2526,"Ġmicro":2527,"Ġbring":2528,"Ġcontext":2529,"tainer":2530,"Ġendpoints":2531,"ĠAPN":2532,"ĠAccount":2533,"ways":2534,"Ġprof":2535,"soft":2536,"Ġsources":2537,"ĠUse":2538,"Ġbatch":2539,"Ġprovider":2540,"Ġexport":2541,"ety":2542,"Ġamount":2543,"ĠMedia":2544,"ending":2545,"ĠDocker":2546,"Ġlanguage":2547,"rop":2548,"wit":2549,"perties":2550,"ĠServerless":2551,"Ġadministr":2552,"ifact":2553,"alue":2554,"ĠComm":2555,"Ġcare":2556,"Ġfac":2557,"Ġruns":2558,"ĠLinux":2559,"Ġtry":2560,"Ġsupported":2561,"Ġinterest":2562,"Ġgenerated":2563,"Ġcritical":2564,"Ġupdates":2565,"type":2566,"Ġadvant":2567,"Ġhy":2568,"Ġextract":2569,"Ġopportun":2570,"Ġless":2571,"Ġday":2572,"ax":2573,"Ġlayer":2574,"Ġmuch":2575,"Ġstill":2576,"Ġkeys":2577,"ĠWhat":2578,"ĠEngine":2579,"ledge":2580,"Ġstructure":2581,"ush":2582,"ĠDes":2583,"Ġready":2584,"Ġcopy":2585,"Ġcalls":2586,"Ġtransformation":2587,"Ġdefined":2588,"ffort":2589,"Ġet":2590,"amazonaws":2591,"Ġmiss":2592,"gress":2593,"Ġrisk":2594,"aries":2595,"ĠFire":2596,"Step":2597,"Ġintrodu":2598,"Ġdynam":2599,"ĠSolution":2600,"Ġquality":2601,"Ġclo":2602,"ĠDNS":2603,"light":2604,"Ġavoid":2605,"Ġagainst":2606,"Ġtakes":2607,"Ġcollabor":2608,"Ġconsist":2609,"Ġsimul":2610,"Ġcommands":2611,"Ġreli":2612,"play":2613,"Ġpresent":2614,"Ġmatch":2615,"Ġeffort":2616,"App":2617,"fix":2618,"IP":2619,"ĠAvail":2620,"ols":2621,"Ġentire":2622,"Ġcover":2623,"Ġrange":2624,"15":2625,"arn":2626,"Ġperiod":2627,"ĠSpark":2628,"Ġfact":2629,"ĠSpot":2630,"Ġsav":2631,"ĠAmplify":2632,"Ġtrue":2633,"Ġsnapshot":2634,"Ġidentity":2635,"Ġefficient":2636,"ditional":2637,"serv":2638,"ĠCatalog":2639,"Ġencryption":2640,"essions":2641,"Ġhead":2642,"vert":2643,"Ġconc":2644,"Log":2645,"ĠFS":2646,"Ġfinding":2647,"Ġx":2648,"tal":2649,"ĠPer":2650,"Ġnecessary":2651,"ĠJav":2652,"Ġinitial":2653,"Ġmanaging":2654,"Ġlarg":2655,"Ġways":2656,"Ġcolumn":2657,"Ġlake":2658,"ĠControl":2659,"edic":2660,"Ġdesigned":2661,"By":2662,"ĠAct":2663,"ancial":2664,"xlarge":2665,"Ġpot":2666,"arameter":2667,"bot":2668,"Ġlic":2669,"lier":2670,"Ġarn":2671,"unction":2672,"Stream":2673,"Ġinstructions":2674,"Key":2675,"ling":2676,"Ġworkflows":2677,"west":2678,"by":2679,"Ġassum":2680,"Ġhelping":2681,"Ġintern":2682,"Ġfeedback":2683,"Sync":2684,"24":2685,"ik":2686,"Ġtrust":2687,"enior":2688,"asing":2689,"Ġbackend":2690,"Ġequ":2691,"Ġprotect":2692,"lement":2693,"ope":2694,"Ġfam":2695,"Ġjourney":2696,"ĠCore":2697,"of":2698,"ĠConclusion":2699,"ĠMicrosoft":2700,"cript":2701,"Ġcontinuous":2702,"ĠNe":2703,"Ġpatterns":2704,"iency":2705,"Ġexperi":2706,"Ġemploy":2707,"Ġtoday":2708,"uc":2709,"ĠCons":2710,"ording":2711,"Ġtoget":2712,"ĠAnd":2713,"Ġtogether":2714,"Ġtransfer":2715,"hether":2716,"Ġsur":2717,"LS":2718,"Ġcertificate":2719,"AA":2720,"Ġappropri":2721,"alancer":2722,"Ġbig":2723,"ocuments":2724,"Ġcontainers":2725,"Ġdone":2726,"Ġmeas":2727,"Ġlink":2728,"omet":2729,"ecycle":2730,"IS":2731,"ĠAMI":2732,"Ġdel":2733,"Ġprom":2734,"Ġsignific":2735,"atus":2736,"Ġenterprise":2737,"ĠDeploy":2738,"ĠKey":2739,"ĠVir":2740,"Ġexplo":2741,"ifications":2742,"Ġwee":2743,"Reg":2744,"Ġexternal":2745,"Ġ15":2746,"Ġdemand":2747,"Ġguid":2748,"Ġred":2749,"set":2750,"ĠIts":2751,"Ġanalyze":2752,"Ġaggreg":2753,"ĠChoose":2754,"Ġenh":2755,"ELE":2756,"ĠLoad":2757,"ĠWh":2758,"ĠOrgan":2759,"alc":2760,"ĠCert":2761,"key":2762,"14":2763,"Ġmedia":2764,"ĠEBS":2765,"Ġpackage":2766,"ĠOpenS":2767,"ĠFunctions":2768,"Bridge":2769,"Ġwebs":2770,"ĠOver":2771,"Ġvers":2772,"Ġmetric":2773,"Ġcommunity":2774,"riven":2775,"Ġsignificant":2776,"Ġbill":2777,"Ġalert":2778,"Ġcomputing":2779,"achine":2780,"Ġimplementation":2781,"Ġprior":2782,"Ġclients":2783,"aunch":2784,"ĠSpec":2785,"raw":2786,"Ġoverview":2787,"Ġintellig":2788,"Ġpric":2789,"ana":2790,"Ġcontinue":2791,"Ġdetection":2792,"Ġhapp":2793,"Ġmob":2794,"Ġsuccessfully":2795,"Ġconfigur":2796,"ipelines":2797,"Ġreceive":2798,"ĠKMS":2799,"Ġprojects":2800,"Ġbr":2801,"Ġpartition":2802,"Version":2803,"__":2804,"amed":2805,"ĠGet":2806,"ito":2807,"py":2808,"Ġhaving":2809,"oute":2810,"self":2811,"ĠMySQL":2812,"Al":2813,"ĠDeep":2814,"Ġroute":2815,"Ġfolder":2816,"Ġremote":2817,"ĠCPU":2818,"Ġdeploying":2819,"ĠRec":2820,"medi":2821,"90":2822,"pec":2823,"Ġide":2824,"Ġtags":2825,"ee":2826,"head":2827,"ĠResource":2828,"Set":2829,"havi":2830,"care":2831,"ĠAC":2832,"rates":2833,"Ġdoesnt":2834,"Ġdistributed":2835,"Ġfast":2836,"ĠAllow":2837,"quest":2838,"Ġspecial":2839,"Ġhist":2840,"Ġoperation":2841,"Ġbas":2842,"Ġspeed":2843,"Ġid":2844,"Ġgame":2845,"It":2846,"ĠGra":2847,"ynch":2848,"En":2849,"aml":2850,"Ġ30":2851,"Ġarnaws":2852,"Ġenjo":2853,"bucket":2854,"Ġdeterm":2855,"Ġnative":2856,"inition":2857,"rans":2858,"uman":2859,"Ġmaxim":2860,"ached":2861,"Ġlater":2862,"Ġedge":2863,"ĠStream":2864,"go":2865,"Ġdistribution":2866,"enge":2867,"argate":2868,"Ġqueue":2869,"ĠCS":2870,"Ġhigher":2871,"78":2872,"agema":2873,"Ġgateway":2874,"ĠRead":2875,"Ġcross":2876,"ĠAnalytics":2877,"Ġmigrate":2878,"NET":2879,"Ġpassword":2880,"Ġextens":2881,"ynchron":2882,"isions":2883,"iles":2884,"Ġdocuments":2885,"Ġguide":2886,"Ġcompare":2887,"reg":2888,"Ġsupp":2889,"Ġtotal":2890,"stream":2891,"Ġtermin":2892,"Ġopens":2893,"Ġsubnet":2894,"Ġvisit":2895,"Ġoptimize":2896,"eder":2897,"33":2898,"Ġlooking":2899,"olution":2900,"post":2901,"Ġadvantage":2902,"xy":2903,"Ġsessions":2904,"Ġinnovation":2905,"Ġactiv":2906,"Ġlaunched":2907,"Note":2908,"Ġcenter":2909,"ĠCre":2910,"ĠAg":2911,"TE":2912,"rict":2913,"ĠEventBridge":2914,"Ġcontrols":2915,"Ġill":2916,"ism":2917,"wall":2918,"ĠState":2919,"Ġiniti":2920,"Ġappropriate":2921,"ĠMig":2922,"Ġhours":2923,"Ġaudit":2924,"Ġrepresent":2925,"formance":2926,"ived":2927,"ern":2928,"text":2929,"DE":2930,"Ġsave":2931,"Ġalways":2932,"alse":2933,"Ġsecret":2934,"through":2935,"ĠHub":2936,"ognito":2937,"ĠAvailability":2938,"Aut":2939,"Ġput":2940,"Ġpatient":2941,"Ġindividual":2942,"Ġruntime":2943,"ĠNote":2944,"vid":2945,"Ġgood":2946,"Ġearlier":2947,"vant":2948,"hes":2949,"alcul":2950,"ervices":2951,"Ġupgra":2952,"Ġexplain":2953,"erg":2954,"igned":2955,"Ġsum":2956,"sw":2957,"ceed":2958,"pace":2959,"ĠBack":2960,"ĠStack":2961,"Ġonline":2962,"par":2963,"ifies":2964,"ĠSub":2965,"ĠOnce":2966,"uf":2967,"Ġeffective":2968,"ME":2969,"ones":2970,"Ġpersonal":2971,"ĠAll":2972,"chan":2973,"ĠMS":2974,"Ġrelated":2975,"Ġbehavi":2976,"Ġdestination":2977,"Ġactive":2978,"ĠDevelop":2979,"Ġkub":2980,"CP":2981,"Ġillust":2982,"ĠVM":2983,"TL":2984,"Ġsched":2985,"Start":2986,"Ġinternet":2987,"Ġbre":2988,"Ġparticular":2989,"Ġoperating":2990,"Ġtemplates":2991,"enu":2992,"Ġappli":2993,"Ġroot":2994,"Invent":2995,"Ġmobile":2996,"Ġfour":2997,"Ġmechan":2998,"ian":2999,"About":3000,"ognition":3001,"Ġmicros":3002,"ĠNow":3003,"Ġrecovery":3004,"Man":3005,"Ġprofile":3006,"Ġeasier":3007,"Ġforward":3008,"kt":3009,"process":3010,"ĠSee":3011,"ĠOne":3012,"gest":3013,"ĠAutom":3014,"Ġspace":3015,"Arn":3016,"Ġve":3017,"account":3018,"ooks":3019,"ĠWell":3020,"Ġcour":3021,"ĠInstance":3022,"Ġskills":3023,"Ġdays":3024,"ĠDis":3025,"dat":3026,"agemaker":3027,"bed":3028,"Ġreference":3029,"ĠVP":3030,"cs":3031,"ĠGPU":3032,"Ġgiven":3033,"rite":3034,"ditionally":3035,"ĠAuto":3036,"Ġworked":3037,"Ġcorrect":3038,"ĠARN":3039,"ĠFSx":3040,"lying":3041,"ĠĠĠĠĠ":3042,"ĠDevOps":3043,"ips":3044,"ĠThen":3045,"Ġtoken":3046,"pdate":3047,"Ġcapture":3048,"Ġspecified":3049,"Ġconnectivity":3050,"Ġassess":3051,"LB":3052,"Ġz":3053,"Ġbroad":3054,"Ġthroughput":3055,"ĠGre":3056,"Ġgoing":3057,"Ġpricing":3058,"Ġ11":3059,"Ġproblem":3060,"Ġconnections":3061,"Ġintegrate":3062,"Ġcate":3063,"ĠAc":3064,"ĠLearning":3065,"Once":3066,"icle":3067,"party":3068,"ELECT":3069,"oke":3070,"Ġverify":3071,"ĠDMS":3072,"ptim":3073,"EN":3074,"ĠModel":3075,"Ġ200":3076,"Ġinstead":3077,"ĠYour":3078,"Ġbox":3079,"80":3080,"erson":3081,"Ġpos":3082,"efore":3083,"Ġproblems":3084,"Ġtem":3085,"ĠSet":3086,"ĠIns":3087,"Ġdate":3088,"Ġforecast":3089,"ĠCompute":3090,"ecause":3091,"ROM":3092,"Run":3093,"att":3094,"Ġinstalled":3095,"Ġseconds":3096,"Ġleverage":3097,"Ġprevent":3098,"ĠSenior":3099,"Ġconfigurations":3100,"ĠTechnolog":3101,"Ġhosted":3102,"Ġvolumes":3103,"Ġcur":3104,"Ġtransaction":3105,"Ġpercent":3106,"Get":3107,"hell":3108,"Ġautomate":3109,"Ġmodify":3110,"Ġleft":3111,"pc":3112,"AD":3113,"At":3114,"ectl":3115,"ĠreInvent":3116,"Ġshort":3117,"ĠMachine":3118,"Ġfunctionality":3119,"VID":3120,"Ġprint":3121,"rial":3122,"Ġparallel":3123,"PS":3124,"role":3125,"ĠFargate":3126,"Ġ2020":3127,"model":3128,"Ġocc":3129,"ĠMet":3130,"client":3131,"Ġcomponent":3132,"ression":3133,"Ġremo":3134,"box":3135,"hing":3136,"Ġitems":3137,"ster":3138,"Ġscient":3139,"Ġhardware":3140,"Ġexamples":3141,"Ġlibrary":3142,"ĠGroup":3143,"Ġresearch":3144,"QS":3145,"ndpoint":3146,"Ġproviders":3147,"Ġexpert":3148,"Ġresil":3149,"ĠFile":3150,"ĠDet":3151,"arameters":3152,"Ġpush":3153,"Ġknowledge":3154,"Ġes":3155,"version":3156,"Ġhandle":3157,"Ġlogic":3158,"Ġcommit":3159,"Im":3160,"arding":3161,"path":3162,"Ġwhether":3163,"Ġconnected":3164,"ĠĠĠĠĠĠ":3165,"mary":3166,"esh":3167,"code":3168,"sing":3169,"aid":3170,"yaml":3171,"Ġdeveloper":3172,"Ġpoints":3173,"Ġthink":3174,"TO":3175,"Ġbrows":3176,"chema":3177,"Ġexperiment":3178,"AG":3179,"ifier":3180,"Ġdue":3181,"ĠBe":3182,"ĠProduct":3183,"ĠNot":3184,"Ġfinancial":3185,"chest":3186,"Ġpane":3187,"test":3188,"ĠDocument":3189,"Ġlower":3190,"Ġrelease":3191,"ĠNo":3192,"Ġenabling":3193,"ĠDirectory":3194,"Ġcar":3195,"Ġsimp":3196,"Ġengineering":3197,"Ġseg":3198,"ĠCompet":3199,"sec":3200,"Ġseparate":3201,"Ġrema":3202,"Ġrate":3203,"ĠOpenSearch":3204,"Ġsubs":3205,"32":3206,"ĠDef":3207,"ĠHealth":3208,"ailo":3209,"group":3210,"Ġpotential":3211,"Ġplease":3212,"Ġlogging":3213,"ĠPublic":3214,"Ġrelevant":3215,"Ġeduc":3216,"Ġlifecycle":3217,"jor":3218,"Ġturn":3219,"Ġsales":3220,"Ġattributes":3221,"Ġcache":3222,"ended":3223,"Ġphys":3224,"bound":3225,"Ġthirdparty":3226,"ser":3227,"Ġgive":3228,"ĠTest":3229,"CH":3230,"Ġoverall":3231,"Ġhuman":3232,"Ġschedul":3233,"SS":3234,"ocation":3235,"Ġge":3236,"ĠEach":3237,"Ġindic":3238,"ĠAction":3239,"edicated":3240,"Ġnavigation":3241,"Ġgives":3242,"onitor":3243,"Ġrecommendations":3244,"Ġwait":3245,"ĠEFS":3246,"Ġprefer":3247,"Ġfollows":3248,"itu":3249,"Ġgrant":3250,"Ġleg":3251,"ĠGlobal":3252,"cho":3253,"pective":3254,"Ġoriginal":3255,"Ġgain":3256,"ises":3257,"Ġnavigate":3258,"PO":3259,"Ġdescribed":3260,"ĠGo":3261,"Ġexperiences":3262,"Next":3263,"ĠCost":3264,"ocol":3265,"Ġconsumer":3266,"Ġsimpl":3267,"Ġbuckets":3268,"Ġbecome":3269,"Ġlonger":3270,"Group":3271,"ollow":3272,"nets":3273,"Ġnamed":3274,"ĠLake":3275,"iving":3276,"ĠActive":3277,"Ġstage":3278,"ĠCognito":3279,"Ġaccelerate":3280,"Ġfinal":3281,"Ġadding":3282,"Ġ16":3283,"ensor":3284,"Ġbutton":3285,"Ġansw":3286,"Ġfields":3287,"Ġversions":3288,"Ġyoull":3289,"ĠSnow":3290,"Ġwebsite":3291,"hors":3292,"Ġselected":3293,"leet":3294,"Ġattach":3295,"Ġissue":3296,"Ġcharg":3297,"Ġsince":3298,"ason":3299,"Ġunt":3300,"Ġthings":3301,"Ġsomet":3302,"osp":3303,"umber":3304,"Ġestabl":3305,"Ġfl":3306,"Ġstores":3307,"Ġscore":3308,"Ch":3309,"Ġzon":3310,"Ġsaf":3311,"Ġaddresses":3312,"Ġvalidation":3313,"Ġmenu":3314,"cy":3315,"ĠAdv":3316,"Bucket":3317,"Ġtravel":3318,"User":3319,"pped":3320,"actions":3321,"Ġdemo":3322,"Ġenjoys":3323,"ĠJava":3324,"Ġallowing":3325,"Ġchallenge":3326,"ody":3327,"ifest":3328,"iam":3329,"Ġpast":3330,"Object":3331,"ĠPar":3332,"Ġprepare":3333,"thing":3334,"ph":3335,"house":3336,"Ġinvol":3337,"ĠBuil":3338,"ĠFROM":3339,"ĠSecrets":3340,"Ġbehavior":3341,"Ġtransl":3342,"Ġregister":3343,"Ġflexibility":3344,"Ġexc":3345,"25":3346,"Ġcalcul":3347,"ĠCenter":3348,"Ġprogramm":3349,"book":3350,"rated":3351,"estamp":3352,"Ġintegrated":3353,"Ġcollection":3354,"igning":3355,"Ġquant":3356,"Resource":3357,"Ġinternal":3358,"EM":3359,"Ġlet":3360,"Ġpipelines":3361,"Ġconcept":3362,"Region":3363,"buil":3364,"ĠString":3365,"Ġnear":3366,"Ġtun":3367,"Ġdisplay":3368,"ĠCan":3369,"itut":3370,"Ġdid":3371,"Ġmajor":3372,"Ġbenefit":3373,"Ġbegin":3374,"ĠContainer":3375,"Ġleast":3376,"Deploy":3377,"Trail":3378,"Ġfrequ":3379,"ape":3380,"tenance":3381,"abled":3382,"UR":3383,"Ġreach":3384,"Ġtests":3385,"Ġask":3386,"Build":3387,"Ġoptimization":3388,"Ġadvanced":3389,"Ġ2019":3390,"Ġcurrently":3391,"ĠST":3392,"Ġcontribut":3393,"40":3394,"add":3395,"Ġhealthcare":3396,"13":3397,"Ġpartner":3398,"Ġaccuracy":3399,"US":3400,"oday":3401,"ĠInstances":3402,"ka":3403,"ĠECR":3404,"Ġpermission":3405,"hend":3406,"ĠRoute":3407,"Ġrestore":3408,"Time":3409,"ĠSQS":3410,"Ġcorrespon":3411,"Ġleaders":3412,"nown":3413,"ograph":3414,"Ġdriv":3415,"Ġexplore":3416,"Ġarch":3417,"js":3418,"Ġdetermine":3419,"oint":3420,"tim":3421,"Ġpractice":3422,"ABLE":3423,"ĠUI":3424,"Ġmanually":3425,"OT":3426,"Ġmanual":3427,"Ġpublish":3428,"Ġintelligence":3429,"Ġalgorithm":3430,"Ġmeasure":3431,"ĠLearn":3432,"Ġuseast":3433,"Ġdrive":3434,"Ġcatalog":3435,"ĠSum":3436,"Ġclean":3437,"eli":3438,"Ġregul":3439,"Ġobserv":3440,"Ġreports":3441,"demand":3442,"verage":3443,"Ġmean":3444,"Ġchar":3445,"Ġreplace":3446,"essage":3447,"Ġnote":3448,"Ġopensource":3449,"Ġchain":3450,"ĠOper":3451,"ĠInd":3452,"ĠInf":3453,"Ġprovisioning":3454,"raud":3455,"ĠVPN":3456,"Ġvariety":3457,"rass":3458,"Ġbeh":3459,"Ġguidance":3460,"ĠTransit":3461,"ĠTer":3462,"Ġconfirm":3463,"Ġanom":3464,"useast":3465,"...":3466,"job":3467,"location":3468,"ĠCompetency":3469,"orch":3470,"Ġsolve":3471,"Ġsubmit":3472,"Ġprovisioned":3473,"ĠLe":3474,"Ġfront":3475,"ownload":3476,"idth":3477,"Ġdecisions":3478,"Ġstarting":3479,"Att":3480,"iew":3481,"Ġdetailed":3482,"rypt":3483,"Ġbusinesses":3484,"emplate":3485,"ĠMigration":3486,"Ġtre":3487,"Access":3488,"Ġfive":3489,"Ġassets":3490,"ĠAss":3491,"Ġware":3492,"Instance":3493,"cluster":3494,"ĠProgram":3495,"Ġside":3496,"ĠBatch":3497,"Ġpreviously":3498,"Ġvariables":3499,"ĠScaling":3500,"ustain":3501,"Ġerrors":3502,"ĠHere":3503,"ĠOur":3504,"erc":3505,"Ġbin":3506,"ithub":3507,"Ġbrowser":3508,"Ġsubsc":3509,"Custom":3510,"Ġonce":3511,"me":3512,"Ġuseful":3513,"60":3514,"Ġsets":3515,"Conclusion":3516,"ptune":3517,"Ġdemonstrate":3518,"ĠEnterprise":3519,"ses":3520,"Ġchoice":3521,"Ġ2021":3522,"Ġsy":3523,"lear":3524,"ĠIO":3525,"Ġremove":3526,"avigate":3527,"Ġcertain":3528,"iversity":3529,"engrass":3530,"Ġthous":3531,"ĠCloudTrail":3532,"ĠSupport":3533,"ength":3534,"Ġincreasing":3535,"LO":3536,"izer":3537,"Ġcapability":3538,"witch":3539,"ĠRef":3540,"ĠOverview":3541,"Ġwindow":3542,"ged":3543,"ĠCIC":3544,"Use":3545,"ensive":3546,"Ġretail":3547,"Ġorchest":3548,"Ġresponsible":3549,"ĠPrincipal":3550,"ĠCD":3551,"Add":3552,"do":3553,"cont":3554,"Ġinvok":3555,"Ġdashboards":3556,"ĠCluster":3557,"Ġoutcom":3558,"MP":3559,"Ġmaintenance":3560,"Ġbreak":3561,"eature":3562,"Ġpool":3563,"heus":3564,"Ġcolumns":3565,"Ġinde":3566,"pload":3567,"not":3568,"Ġsharing":3569,"Ġactivity":3570,"Pr":3571,"ptions":3572,"Ġhome":3573,"Des":3574,"Ġdro":3575,"co":3576,"Ġschedule":3577,"Ġtenant":3578,"Ġcontroll":3579,"ĠTower":3580,"ĠMult":3581,"Policy":3582,"edical":3583,"value":3584,"ĠGuide":3585,"Ġattribute":3586,"ero":3587,"ray":3588,"Ġrepo":3589,"Ġdefinition":3590,"ĠProf":3591,"Ġ50":3592,"Ġwritten":3593,"run":3594,"aim":3595,"ĠSoftware":3596,"Ġrap":3597,"fol":3598,"Ġregions":3599,"celer":3600,"lack":3601,"ufact":3602,"Ġsays":3603,"Ġprefix":3604,"Ġmaximum":3605,"ĠDevelopment":3606,"ars":3607,"ili":3608,"Ġdeployments":3609,"ĠStore":3610,"Ġexpand":3611,"ĠBut":3612,"Ġnetworking":3613,"Ġvalidate":3614,"21":3615,"Ġdesired":3616,"Ġplatforms":3617,"Ġstudents":3618,"Ġchat":3619,"Ġrouting":3620,"ĠAuthor":3621,"Ġuntil":3622,"ĠZone":3623,"Ġmillion":3624,"Flow":3625,"ĠLaunch":3626,"ING":3627,"Sub":3628,"essional":3629,"Ġcomes":3630,"Account":3631,"ump":3632,"Ġinside":3633,"ĠConfigure":3634,"aches":3635,"Sc":3636,"Ġrapid":3637,"ĠTechnology":3638,"Ġartifact":3639,"Ġcompleted":3640,"ailover":3641,"Ġcomputer":3642,"Ġtalk":3643,"ĠId":3644,"Ġcommunication":3645,"Qu":3646,"emory":3647,"Event":3648,"inst":3649,"reds":3650,"Ġscenario":3651,"Ġlot":3652,"ĠETL":3653,"AF":3654,"coming":3655,"Ġpurpose":3656,"From":3657,"Ġexecute":3658,"Open":3659,"Rep":3660,"Ġscreen":3661,"Ġsecurely":3662,"chm":3663,"Ġchecks":3664,"Ġcoste":3665,"Ġscripts":3666,"rics":3667,"urs":3668,"Ġestim":3669,"Ġweek":3670,"lete":3671,"though":3672,"Ġjoin":3673,"Ġareas":3674,"Ġsimplify":3675,"LT":3676,"date":3677,"ncy":3678,"Ġmember":3679,"Ġplug":3680,"Ġthousands":3681,"Ġdependencies":3682,"ĠOutpost":3683,"Ġmap":3684,"Ġallowed":3685,"Ġdecision":3686,"cer":3687,"ĠCheck":3688,"Ġcharact":3689,"Ġrelations":3690,"ĠBackup":3691,"ĠArchitecture":3692,"ĠContact":3693,"Ġalgorithms":3694,"Ġisol":3695,"Ġ14":3696,"Ġkubectl":3697,"Ġnotification":3698,"Ġ53":3699,"ventory":3700,"Ġmoving":3701,"Lambda":3702,"Ġdeveloped":3703,"REATE":3704,"Ġdb":3705,"Ġdiscover":3706,"ater":3707,"Ġarchitectures":3708,"Ġsimply":3709,"ĠProm":3710,"amless":3711,"Ġsubnets":3712,"connect":3713,"Ġcompet":3714,"ynchronous":3715,"Th":3716,"vider":3717,"Ġefficiency":3718,"instance":3719,"Under":3720,"ane":3721,"ĠGraph":3722,"istics":3723,"Ġembed":3724,"brid":3725,"prehend":3726,"Ġdedicated":3727,"Ġfailure":3728,"Ġpopular":3729,"1234":3730,"pi":3731,"rel":3732,"ees":3733,"chitected":3734,"Ġretrieve":3735,"ends":3736,"Ġgovernance":3737,"ĠInsights":3738,"des":3739,"active":3740,"ĠFrom":3741,"Ġvisibility":3742,"ĠVis":3743,"Ġveh":3744,"list":3745,"Connect":3746,"space":3747,"ĠOrganizations":3748,"Ġsol":3749,"Ġdiff":3750,"toend":3751,"Ġunderlying":3752,"Ġwide":3753,"verse":3754,"Using":3755,"55":3756,"Ġnotifications":3757,"Ġsensitive":3758,"Ġfindings":3759,"ness":3760,"Client":3761,"ĠLogs":3762,"Ġclose":3763,"Ġparticip":3764,"List":3765,"change":3766,"ĠVirtual":3767,"ormal":3768,"Ġapplied":3769,"Ġgre":3770,"ĠWorkSp":3771,"kognition":3772,"eat":3773,"Cont":3774,"Ġsector":3775,"chain":3776,"Ġscalability":3777,"Value":3778,"host":3779,"Ġincreased":3780,"Ġengineers":3781,"Ġaudio":3782,"frame":3783,"Ġphysical":3784,"andom":3785,"Ġ2022":3786,"Code":3787,"Ġscenarios":3788,"Ġwalkthrough":3789,"Ġgoal":3790,"Cre":3791,"Ġpassion":3792,"Ġmicroservices":3793,"ecution":3794,"Ġexpected":3795,"ĠDR":3796,"Ġinteractive":3797,"ception":3798,"Ġexpertise":3799,"Ġleading":3800,"atic":3801,"Ġtypically":3802,"Ġannounce":3803,"Ġ19":3804,"ĠSAML":3805,"imens":3806,"Ġunderstanding":3807,"Ġconvers":3808,"Ġstatic":3809,"ĠCICD":3810,"Ġmethods":3811,"ĠCA":3812,"ĠReview":3813,"Service":3814,"ĠBuild":3815,"Ġseamless":3816,"86":3817,"ãģ":3818,"ders":3819,"Ġgeneral":3820,"Ġsequ":3821,"ĠVPCs":3822,"Ġopportunities":3823,"ĠThat":3824,"Ġincluded":3825,"Ġapps":3826,"Ġaw":3827,"ield":3828,"itle":3829,"ĠNeptune":3830,"ĠLets":3831,"De":3832,"etheus":3833,"Ġdescription":3834,"Ġthresh":3835,"RI":3836,"fl":3837,"Ġwhy":3838,"Ġvariable":3839,"ĠBecause":3840,"gers":3841,"Ġfeder":3842,"ĠGener":3843,"Out":3844,"ember":3845,"raform":3846,"ĠBusiness":3847,"Ġcomments":3848,"Ġrecommended":3849,"Ġendtoend":3850,"ĠImage":3851,"service":3852,"Ġprogress":3853,"perp":3854,"Ġtransactions":3855,"atively":3856,"plit":3857,"Ġpredictions":3858,"Ġprocessed":3859,"XXXX":3860,"Ġreturns":3861,"ĠCustomer":3862,"ĠBot":3863,"ĠJo":3864,"afka":3865,"Ġstarts":3866,"ags":3867,"rong":3868,"Ġtraditional":3869,"Ġprice":3870,"Pre":3871,"100":3872,"gle":3873,"Ġdynamic":3874,"Pipeline":3875,"Ġnews":3876,"lemental":3877,"Lets":3878,"ĠGB":3879,"Ġcomplexity":3880,"Ġalarm":3881,"Ġbecom":3882,"Ġcorresponding":3883,"ND":3884,"Ġleveraging":3885,"Ġbuiltin":3886,"Cluster":3887,"rl":3888,"à¹":3889,"mp":3890,"count":3891,"ĠRet":3892,"perty":3893,"Ġadministrator":3894,"ĠIS":3895,"Ġupgrade":3896,"Ġenhance":3897,"Ġgrowth":3898,"Ġtrained":3899,"Ġ24":3900,"Ġgetting":3901,"Ġmanifest":3902,"There":3903,"ĠPM":3904,"Ġpurch":3905,"Ġcome":3906,"ĠCustomers":3907,"ĠAppStream":3908,"ror":3909,"ĠLex":3910,"ĠZones":3911,"Ġweve":3912,"Ġfocused":3913,"oosing":3914,"ĠGreengrass":3915,"ĠQuery":3916,"Ġcourse":3917,"ename":3918,"ĠCreating":3919,"Ġconsistent":3920,"Ġmonths":3921,"fana":3922,"Ġenterpr":3923,"Per":3924,"Ġinsert":3925,"Ġclassification":3926,"Ġcharges":3927,"Inst":3928,"Ġnetworks":3929,"Ġwriting":3930,"Ġutilization":3931,"Fin":3932,"Ġrows":3933,"vile":3934,"ĠSource":3935,"ĠAdditionally":3936,"Ġmembers":3937,"Ġexam":3938,"ĠCommand":3939,"ĠIN":3940,"Ġpg":3941,"Ġfix":3942,"Ġbackups":3943,"Ġlocations":3944,"ĠSpecial":3945,"istic":3946,"Ġsaid":3947,"Ġla":3948,"pts":3949,"Ġdescribe":3950,"Ġsoc":3951,"event":3952,"Ġplanning":3953,"arms":3954,"ild":3955,"Ġetc":3956,"FA":3957,"Ġimmedi":3958,"where":3959,"Ġimplemented":3960,"ĠSELECT":3961,"cher":3962,"Ġondemand":3963,"ĠFirst":3964,"Ġprotection":3965,"Ġbound":3966,"ĠPy":3967,"ops":3968,"Ġaccording":3969,"missions":3970,"Ġcant":3971,"Ġiter":3972,"ied":3973,"atory":3974,"Ġnewly":3975,"from":3976,"ĠDo":3977,"Stack":3978,"cker":3979,"Ġnamespace":3980,"Ġshe":3981,"Ġsomething":3982,"Request":3983,"Ġaverage":3984,"Ġold":3985,"Ġdelivered":3986,"Ġscan":3987,"ĠBalancer":3988,"Ġautomatic":3989,"ories":3990,"Ġauthorization":3991,"ĠFl":3992,"Ġstreams":3993,"Ġpull":3994,"Ġadoption":3995,"UC":3996,"ĠComprehend":3997,"Enter":3998,"Ġconstruct":3999,"Ġpods":4000,"built":4001,"UT":4002,"icult":4003,"MB":4004,"ints":4005,"ĠSetting":4006,"Ġmanufact":4007,"Ġcollaboration":4008,"Ġentry":4009,"poses":4010,"managed":4011,"ilit":4012,"idence":4013,"aily":4014,"GION":4015,"Ġsagemaker":4016,"gory":4017,"Ġpair":4018,"Ġrow":4019,"ĠAtt":4020,"Ġpres":4021,"Ġhelped":4022,"Ġmaster":4023,"Rec":4024,"Ġworker":4025,"bug":4026,"ulting":4027,"ĠVMware":4028,"Ġsustain":4029,"comp":4030,"Ġserve":4031,"Ġstartup":4032,"oken":4033,"Ġsite":4034,"One":4035,"input":4036,"ĠCol":4037,"Ġillustrates":4038,"ĠWhile":4039,"Ġboot":4040,"Ġlibraries":4041,"ĠBlog":4042,"Ġpreced":4043,"ters":4044,"Ġrestrict":4045,"mb":4046,"Ġlimited":4047,"Ġcompared":4048,"mber":4049,"Ġtri":4050,"Ġaccom":4051,"ĠRekognition":4052,"inks":4053,"Ġzone":4054,"Ġfalse":4055,"output":4056,"23":4057,"Met":4058,"How":4059,"tion":4060,"Ġactivities":4061,"lish":4062,"new":4063,"ĠRegist":4064,"Ġproced":4065,"Ġ2012":4066,"Or":4067,"aus":4068,"Ġmechanism":4069,"just":4070,"ĠInterface":4071,"Ġdifficult":4072,"Ġedit":4073,"ĠSave":4074,"Ġ25":4075,"ĠWorkSpaces":4076,"Ġsmart":4077,"CI":4078,"Ġdoing":4079,"ĠPower":4080,"ĠElemental":4081,"Ġsavings":4082,"ded":4083,"ditions":4084,"ĠPh":4085,"lat":4086,"Ġattached":4087,"alid":4088,"Ġhund":4089,"ED":4090,"hose":4091,"Ġpayload":4092,"ĠAcceler":4093,"Ġopportunity":4094,"ground":4095,"upy":4096,"wards":4097,"Ġlambda":4098,"Ġlicens":4099,"Ġlegacy":4100,"logy":4101,"mission":4102,"inf":4103,"ball":4104,"ĠValue":4105,"Ġothers":4106,"Ġactual":4107,"Ġlicense":4108,"Ġoptimized":4109,"Ġnat":4110,"Ġlabels":4111,"Ġthough":4112,"Ġmigrating":4113,"Ġmax":4114,"Ġoperate":4115,"ĠJob":4116,"Ġmission":4117,"Ġencrypted":4118,"ĠPlatform":4119,"pecially":4120,"item":4121,"region":4122,"iring":4123,"ĠSSO":4124,"Ġpublished":4125,"Dele":4126,"Ġthats":4127,"Ġscientists":4128,"Ġrecent":4129,"table":4130,"Table":4131,"ious":4132,"Source":4133,"Ġboto":4134,"bit":4135,"Ġaccessible":4136,"Ġreading":4137,"ĠProcess":4138,"Ġlay":4139,"Ġscience":4140,"erial":4141,"Ġisnt":4142,"Ġraw":4143,"ah":4144,"Ġcamp":4145,"Ġreporting":4146,"Ġcombination":4147,"SM":4148,"eff":4149,"ĠText":4150,"UNT":4151,"Ġreducing":4152,"DF":4153,"Ġpackages":4154,"ty":4155,"ards":4156,"ges":4157,"Ġarea":4158,"ĠDeveloper":4159,"ĠAppSync":4160,"à¤":4161,"Ġcraw":4162,"Ġpersist":4163,"Ġstop":4164,"Ġgovernment":4165,"ised":4166,"Ġfit":4167,"ĠMod":4168,"Ġcentralized":4169,"Net":4170,"Ġimplementing":4171,"zip":4172,"ĠCOVID":4173,"imin":4174,"Ġasset":4175,"Ġfailover":4176,"api":4177,"5678":4178,"df":4179,"lines":4180,"Ġland":4181,"Ġspend":4182,"Ġemployees":4183,"csv":4184,"Architected":4185,"Ġprograms":4186,"Ġgeneration":4187,"Ġsupply":4188,"Ġpreceding":4189,"uth":4190,"ĠClient":4191,"Ġvend":4192,"Ġauto":4193,"Ġdeveloping":4194,"Ġglob":4195,"ĠInteg":4196,"Ġseen":4197,"Ġsends":4198,"Ġsecondary":4199,"ĠRole":4200,"Ġindepend":4201,"policy":4202,"Ġleave":4203,"Ġextra":4204,"ĠFramework":4205,"Ġ80":4206,"70":4207,"ĠEdge":4208,"Ġsegment":4209,"with":4210,"atible":4211,"Ġ13":4212,"Ġsubscription":4213,"Ġlarger":4214,"ĠDelete":4215,"utor":4216,"ĠSr":4217,"github":4218,"Ġhol":4219,"Ġ_":4220,"Ġknown":4221,"Ġingestion":4222,"ersonal":4223,"power":4224,"Ġproperties":4225,"argets":4226,"Ġchanging":4227,"Ġprediction":4228,"Ġtempor":4229,"ospital":4230,"aign":4231,"Ġcategor":4232,"format":4233,"Ġsecrets":4234,"FI":4235,"ne":4236,"ERT":4237,"upyter":4238,"Ġcred":4239,"Ġvisualize":4240,"ĠBlock":4241,"ĠShe":4242,"ĠWellArchitected":4243,"Ġfire":4244,"Ġenerg":4245,"Item":4246,"ĠLab":4247,"Ġvisualization":4248,"Function":4249,"Ġroll":4250,"ĠĠĠĠĠĠĠ":4251,"Ġstatement":4252,"Ġespecially":4253,"cloud":4254,"Ġfigure":4255,"Ġbar":4256,"Int":4257,"Ġtaking":4258,"Ġmarketing":4259,"zure":4260,"Ġhttp":4261,"Ġadopt":4262,"ĠDocumentDB":4263,"ĠMulti":4264,"Ġtriggers":4265,"Commit":4266,"Ġpopul":4267,"ĠGrafana":4268,"ĠHel":4269,"ĠProt":4270,"Ġmention":4271,"ias":4272,"ĠNode":4273,"gu":4274,"Ġfamily":4275,"Ġstand":4276,"Ġrobot":4277,"Ġinvoke":4278,"Ġcosteffective":4279,"Ġgra":4280,"ĠTraining":4281,"ĠKe":4282,"Ġentity":4283,"Ġcontaining":4284,"chmark":4285,"aff":4286,"ĠMonitor":4287,"Ġconsumers":4288,"Ġ40":4289,"ably":4290,"Ġtoo":4291,"Ġrather":4292,"Ġassign":4293,"44":4294,"ĠDeli":4295,"Ġcop":4296,"endra":4297,"Ġoutside":4298,"vironment":4299,"ĠREST":4300,"ĠAdvanced":4301,"ĠTable":4302,"width":4303,"Ġtopics":4304,"Ġassist":4305,"Ġappear":4306,"Ġflexible":4307,"Ġhybrid":4308,"Ġjson":4309,"Ġlevels":4310,"Ġshowed":4311,"erce":4312,"Ġcloudbased":4313,"ĠGuard":4314,"ĠTLS":4315,"Ġrecently":4316,"Ġminimum":4317,"urrency":4318,"Ġphone":4319,"pm":4320,"Ġpowerful":4321,"metry":4322,"ĠFollow":4323,"Ġadapt":4324,"off":4325,"ĠStandard":4326,"pdown":4327,"ĠCSV":4328,"Ġgoals":4329,"Ġeks":4330,"Ġterms":4331,"urop":4332,"Ġprotocol":4333,"Ġwarehouse":4334,"ĠAlex":4335,"Ġannot":4336,"Ġbott":4337,"url":4338,"Ġher":4339,"RA":4340,"Ġchannels":4341,"aching":4342,"fficient":4343,"Ġhappen":4344,"ĠPolicy":4345,"sequ":4346,"Ġvoice":4347,"KE":4348,"NI":4349,"Ġenergy":4350,"Ġtrend":4351,"LL":4352,"Ġiam":4353,"Ġrespective":4354,"Ġhistor":4355,"Ġreally":4356,"Link":4357,"Ġclear":4358,"Ġmapping":4359,"Ġimproved":4360,"ĠEngineer":4361,"ĠEndpoint":4362,"Ġearly":4363,"ails":4364,"class":4365,"Ġregular":4366,"Ġdepending":4367,"Ġele":4368,"ĠEffect":4369,"Ġvision":4370,"Ġscope":4371,"Ġexcited":4372,"ctl":4373,"aper":4374,"eric":4375,"processing":4376,"Ġanswer":4377,"Ġoutcomes":4378,"ĠKafka":4379,"Ġelse":4380,"Ġassume":4381,"88":4382,"ĠLine":4383,"Ġannounced":4384,"Wh":4385,"Ġenterprises":4386,"ĠFirewall":4387,"Ġsn":4388,"Ġstartups":4389,"Ġinnovative":4390,"ĠStatement":4391,"ktop":4392,"Ġwatch":4393,"Ġexperts":4394,"imits":4395,"Ġproper":4396,"Ġowners":4397,"Ġreliable":4398,"native":4399,"start":4400,"ocal":4401,"idd":4402,"Ġlearned":4403,"amer":4404,"mar":4405,"Ġsupporting":4406,"atives":4407,"01":4408,"my":4409,"Ġsort":4410,"eam":4411,"orth":4412,"Ġprerequisites":4413,"ĠMake":4414,"au":4415,"urance":4416,"Ġaffect":4417,"Ġprivile":4418,"Ġfleet":4419,"Ġhundreds":4420,"gs":4421,"Ġrepl":4422,"ĠTime":4423,"Ġadjust":4424,"Ġdiscussed":4425,"ĠOutput":4426,"Ġestablish":4427,"els":4428,"ĠFirehose":4429,"wide":4430,"Ġconditions":4431,"ĠPrometheus":4432,"Ġbuilds":4433,"Ġhosting":4434,"ĠTensor":4435,"ĠDigital":4436,"Ġenough":4437,"ĠAdmin":4438,"Ġchoosing":4439,"Ġ17":4440,"Ġindustries":4441,"response":4442,"Ġbasic":4443,"ĠUpdate":4444,"Ġdriver":4445,"Ġhyperp":4446,"folio":4447,"aps":4448,"Ġair":4449,"defined":4450,"Sh":4451,"Ġlife":4452,"DP":4453,"sm":4454,"Ġitself":4455,"Ġlanguages":4456,"ĠCodeBuild":4457,"Ġthreshold":4458,"Ġstrategies":4459,"ĠBY":4460,"Ġpassionate":4461,"ĠAZ":4462,"ĠJupyter":4463,"Ġfraud":4464,"ĠEurop":4465,"Ġperformed":4466,"osc":4467,"String":4468,"TP":4469,"Ġchart":4470,"Ġsug":4471,"Path":4472,"Ġconfiguring":4473,"Ġremedi":4474,"uru":4475,"Ġeverything":4476,"Ġreceived":4477,"ideo":4478,"ĠAny":4479,"ĠAzure":4480,"Ġinventory":4481,"Ġ1000":4482,"ĠAIML":4483,"alf":4484,"pliant":4485,"iliar":4486,"Ġoptional":4487,"Ġaccept":4488,"ils":4489,"ĠFormation":4490,"Ġtele":4491,"ĠMore":4492,"Ġsending":4493,"Ġquantum":4494,"IA":4495,"NN":4496,"End":4497,"Ġcy":4498,"come":4499,"Ġagility":4500,"Ġoffering":4501,"Ġcertificates":4502,"ĠWAF":4503,"Ġtier":4504,"ĠObject":4505,"ĠOutposts":4506,"Ġevaluate":4507,"Ġlab":4508,"ising":4509,"Ġconstra":4510,"uty":4511,"Ġalerts":4512,"Ġeducation":4513,"Ġinterv":4514,"Ġsect":4515,"ĠPrerequisites":4516,"ĠInstall":4517,"Ed":4518,"Ġlogin":4519,"Dem":4520,"Ġgit":4521,"Ġsocial":4522,"going":4523,"ĠInternet":4524,"Ġduration":4525,"Ġsuggest":4526,"dir":4527,"rating":4528,"Ġdaily":4529,"create":4530,"iC":4531,"Ġ18":4532,"Ġmount":4533,"Ġeffect":4534,"ĠVer":4535,"print":4536,"Read":4537,"Ġtell":4538,"Ġsynt":4539,"ĠDist":4540,"ĠSSH":4541,"Ġquestion":4542,"vide":4543,"term":4544,"etime":4545,"ponse":4546,"lac":4547,"ren":4548,"ĠCodeCommit":4549,"rue":4550,"Ġmark":4551,"Ġconver":4552,"Ġgen":4553,"Ġmanager":4554,"OC":4555,"ĠUniversity":4556,"Delete":4557,"Ġ60":4558,"ios":4559,"Ġreplica":4560,"Ġ2018":4561,"posed":4562,"Ġagents":4563,"Ġoverhead":4564,"Ġmaintaining":4565,"Ġcell":4566,"ĠProperties":4567,"Ġnatural":4568,"aset":4569,"Test":4570,"Ġkind":4571,"Ġartifacts":4572,"ĠRel":4573,"Ġchanged":4574,"FO":4575,"ĠCodePipeline":4576,"quet":4577,"oks":4578,"Ġhighlight":4579,"Ġengagement":4580,"ĠPlease":4581,"iques":4582,"demic":4583,"az":4584,"lot":4585,"ume":4586,"Ġdisk":4587,"Ġunit":4588,"icon":4589,"aced":4590,"lace":4591,"custom":4592,"Ġcannot":4593,"Ġpurposes":4594,"Work":4595,"akes":4596,"Ġefficiently":4597,"Server":4598,"Ġdive":4599,"Ġgreater":4600,"ĠEurope":4601,"vit":4602,"ĠBI":4603,"ĠEvents":4604,"ĠAgent":4605,"ĠView":4606,"Ġcharacter":4607,"bles":4608,"tle":4609,"Ġcondition":4610,"opic":4611,"1017":4612,"ĠFunction":4613,"ĠSign":4614,"ĠOR":4615,"Ġswitch":4616,"ificate":4617,"Ġcompre":4618,"Ġstandards":4619,"PE":4620,"Ġimproving":4621,"ĠVisual":4622,"Def":4623,"Job":4624,"Ġloss":4625,"Ġlooks":4626,"DI":4627,"rang":4628,"shop":4629,"Ġmachines":4630,"ĠUnder":4631,"tic":4632,"Ġincident":4633,"wner":4634,"ĠWH":4635,"olume":4636,"Ġyouve":4637,"lications":4638,"ĠGetting":4639,"image":4640,"Ġproxy":4641,"Ġuploaded":4642,"yond":4643,"Ġbeyond":4644,"Ġnormal":4645,"ĠStreams":4646,"GB":4647,"Ġcou":4648,"endpoint":4649,"Ġinstallation":4650,"orpor":4651,"ĠSales":4652,"36":4653,"hift":4654,"odb":4655,"ĠMac":4656,"abels":4657,"Ġlimits":4658,"Ġreduces":4659,"ĠCo":4660,"ĠAuthors":4661,"Ġprob":4662,"oll":4663,"ĠClean":4664,"Ġmentioned":4665,"Ġentities":4666,"Ġdisaster":4667,"ĠÂłĠÂłĠÂłĠÂł":4668,"ipment":4669,"Ġlocally":4670,"Trans":4671,"acing":4672,"inpoint":4673,"ificial":4674,"Shell":4675,"ĠBefore":4676,"Ġtutor":4677,"Ġcause":4678,"Ġrandom":4679,"ĠRedis":4680,"naw":4681,"Ġobtain":4682,"ĠGraphQL":4683,"AI":4684,"Ġconnector":4685,"Ġlinks":4686,"alent":4687,"Ġheav":4688,"dev":4689,"Ġdocker":4690,"Ġcenters":4691,"ĠDescription":4692,"Ġterminal":4693,"Ġdr":4694,"ĠRem":4695,"andwidth":4696,"otal":4697,"ored":4698,"Navigate":4699,"Ġstrong":4700,"ERE":4701,"blog":4702,"All":4703,"ĠSm":4704,"rror":4705,"anch":4706,"Ġreduced":4707,"ARN":4708,"AZ":4709,"aby":4710,"Ġtracking":4711,"Ġhistory":4712,"CE":4713,"Ġess":4714,"ĠKendra":4715,"Ġdelivering":4716,"Ġplugin":4717,"Ġpowered":4718,"fs":4719,"ribute":4720,"First":4721,"ĠOS":4722,"Ġinsp":4723,"Ġtemporary":4724,"ww":4725,"Ġsay":4726,"VM":4727,"Ġreason":4728,"Ġextension":4729,"ownt":4730,"Ġvar":4731,"duc":4732,"CL":4733,"Ġeditor":4734,"Ġcontinuously":4735,"ĠPort":4736,"Ġclone":4737,"inci":4738,"Ġmeeting":4739,"Ġphase":4740,"entially":4741,"ĠParameter":4742,"ta":4743,"Ġcontract":4744,"Ġnumbers":4745,"Ġoutputs":4746,"luent":4747,"Ġresol":4748,"84":4749,"Ġgrowing":4750,"CS":4751,"actory":4752,"Ġinform":4753,"Ġincur":4754,"the":4755,"alyst":4756,"Ġcustomize":4757,"Ġinvolved":4758,"lacier":4759,"Check":4760,"Ġintroduced":4761,"Ġaccessed":4762,"Ġposts":4763,"Ġgenerates":4764,"ĠAir":4765,"Ġmedical":4766,"ĠConfiguration":4767,"COUNT":4768,"hoot":4769,"hens":4770,"Ident":4771,"ĠPersonal":4772,"ĠIPv":4773,"Ġtimestamp":4774,"ĠDelivery":4775,"UP":4776,"roubles":4777,"ĠBuilding":4778,"Ġdisru":4779,"apacity":4780,"Ġdemonstrated":4781,"ĠCREATE":4782,"Ġinterested":4783,"So":4784,"Ġdimens":4785,"Ġmodule":4786,"ĠAlso":4787,"Ġsimulation":4788,"andler":4789,"we":4790,"ulner":4791,"prof":4792,"Ġrese":4793,"ĠSince":4794,"ĠBucket":4795,"Ġretention":4796,"Ġlines":4797,"Ġwanted":4798,"IDR":4799,"ÂłÂłÂłÂłÂłÂłÂłÂł":4800,"ĠCE":4801,"Ġaltern":4802,"Ġalarms":4803,"ĠMB":4804,"ĠNAM":4805,"roubleshoot":4806,"ĠSector":4807,"Ġaspect":4808,"ĠOptim":4809,"Ġimprovements":4810,"function":4811,"ĠChime":4812,"Ġfacilit":4813,"Ġtriggered":4814,"deploy":4815,"ÂłĠ":4816,"clu":4817,"REGION":4818,"tical":4819,"Ġ20121017":4820,"ĠSpecialist":4821,"Ġlabeling":4822,"driven":4823,"Ġtaken":4824,"CPU":4825,"Ġdropdown":4826,"Ġidentified":4827,"ĠVersion":4828,"ĠJeff":4829,"Ġassessment":4830,"Ġdomains":4831,"write":4832,"Ġthreat":4833,"Ġconfidence":4834,"Ġsudo":4835,"ilot":4836,"Ġfamiliar":4837,"orts":4838,"Ġtechniques":4839,"ĠActions":4840,"bin":4841,"Ġconsumption":4842,"Ġadds":4843,"Ġelimin":4844,"ĠMSK":4845,"det":4846,"txt":4847,"Ġclin":4848,"fn":4849,"ĠRob":4850,"Lear":4851,"Ġyet":4852,"ĠProfessional":4853,"ĠIntellig":4854,"Ġmillions":4855,"Ġaccurate":4856,"Ġelastic":4857,"Ġcampaign":4858,"ĠGlacier":4859,"venue":4860,"ĠFinally":4861,"Ġplayer":4862,"Ġselecting":4863,"Ġdiscovery":4864,"Ġstay":4865,"Ġsnapshots":4866,"hips":4867,"Ġperforming":4868,"server":4869,"sql":4870,"Output":4871,"ĠTherefore":4872,"Ġstacks":4873,"Ġreturned":4874,"Ġbackground":4875,"Ġcut":4876,"ĠAutomation":4877,"Ġcdk":4878,"Ġthing":4879,"aking":4880,"Ġlikely":4881,"Ġproperty":4882,"Ġimmediately":4883,"ĠSome":4884,"spec":4885,"ĠSP":4886,"53":4887,"Ġclaim":4888,"nical":4889,"oop":4890,"Ġrecogn":4891,"ĠEnable":4892,"Ġeffectively":4893,"Un":4894,"Duty":4895,"Ġbud":4896,"ĠDataSync":4897,"rec":4898,"Ġpatients":4899,"VE":4900,"udi":4901,"Security":4902,"index":4903,"Ġsat":4904,"AMP":4905,"Ġbehind":4906,"Ġsam":4907,"Ġrecip":4908,"State":4909,"Ġrespond":4910,"Before":4911,"Update":4912,"faces":4913,"Ġstoring":4914,"map":4915,"itig":4916,"ĠDep":4917,"Ġsubscrib":4918,"size":4919,"29":4920,"Ġclasses":4921,"alance":4922,"Ġparts":4923,"security":4924,"Ġhistorical":4925,"Ġcd":4926,"Ġchallenging":4927,"hel":4928,"ilter":4929,"Ġarnaw":4930,"ĠElasticsearch":4931,"imes":4932,"Ġbecomes":4933,"26":4934,"cale":4935,"Ġpatch":4936,"ĠEast":4937,"Finally":4938,"ina":4939,"conom":4940,"rant":4941,"Ġexact":4942,"Ġmeaning":4943,"rc":4944,"late":4945,"Ġplans":4946,"Ġcaus":4947,"assword":4948,"only":4949,"Ġder":4950,"Ġtransition":4951,"mod":4952,"ĠLead":4953,"ĠAlexa":4954,"stra":4955,"ĠTABLE":4956,"ared":4957,"ueue":4958,"IAM":4959,"Session":4960,"ĠHost":4961,"Ġsafe":4962,"ĠGame":4963,"These":4964,"ryption":4965,"Ġthroughout":4966,"front":4967,"orn":4968,"ĠClick":4969,"12345678":4970,"yml":4971,"Status":4972,"Ġinputs":4973,"awss":4974,"Ġportfolio":4975,"iB":4976,"Ġgets":4977,"ides":4978,"Ġlit":4979,"xxxxxxxx":4980,"stack":4981,"vey":4982,"ĠDashboard":4983,"sub":4984,"Ġamong":4985,"umer":4986,"example":4987,"ĠTerraform":4988,"27":4989,"irc":4990,"acific":4991,"wise":4992,"Ġincoming":4993,"erved":4994,"Ġperforms":4995,"trans":4996,"Ġasynchronous":4997,"Ġextend":4998,"Ġattem":4999,"ackage":5000,"ional":5001,"Ġconnecting":5002,"any":5003,"ĠList":5004,"ĠNet":5005,"ĠNAMER":5006,"licit":5007,"duction":5008,"rivacy":5009,"Ġapproaches":5010,"45":5011,"eres":5012,"Click":5013,"Model":5014,"Ġencour":5015,"Ġvehicle":5016,"Action":5017,"Ġinstitut":5018,"Ġconsiderations":5019,"Ġfrontend":5020,"Ġfirewall":5021,"Ġface":5022,"ĠTarget":5023,"Ġvulner":5024,"Ġarnawsiam":5025,"Ġalloc":5026,"Ġplane":5027,"Ġusername":5028,"Ġprogramming":5029,"Ġ90":5030,"ipp":5031,"pth":5032,"Ġquot":5033,"Ġhowever":5034,"ĠFore":5035,"Ġever":5036,"Ġweeks":5037,"Ġrapidly":5038,"Ġspare":5039,"ĠExample":5040,"Ġcommunicate":5041,"Ġbaseline":5042,"Ġdelivers":5043,"ze":5044,"Ġremoved":5045,"request":5046,"ĠALB":5047,"DC":5048,"Ġresulting":5049,"Ġupon":5050,"DA":5051,"Ġrob":5052,"Ġconsists":5053,"Ġattack":5054,"Our":5055,"onom":5056,"Ġsitu":5057,"Ġreliability":5058,"Ġsplit":5059,"ĠSy":5060,"anned":5061,"enced":5062,"olid":5063,"Ġbenchmark":5064,"ĠPract":5065,"Ġrds":5066,"Ġsaved":5067,"37":5068,"Ġconvert":5069,"oded":5070,"Ġshowing":5071,"Ġsync":5072,"sents":5073,"iting":5074,"ĠLocal":5075,"ĠEX":5076,"OL":5077,"ĠDevice":5078,"Ġtuning":5079,"Ġtargets":5080,"riter":5081,"Ġslow":5082,"Ġled":5083,"Ġbus":5084,"ĠContent":5085,"Torch":5086,"Configure":5087,"Ġpersonalized":5088,"Ġstaff":5089,"Ġmodernization":5090,"Ġshift":5091,"viton":5092,"Ġcult":5093,"Ġanomal":5094,"Mod":5095,"ĠTool":5096,"Ġlayers":5097,"Ġsmaller":5098,"Ġrepresents":5099,"Ġincreases":5100,"Ġcomprehens":5101,"Ġworkers":5102,"Ray":5103,"Ġformats":5104,"Ġofferings":5105,"Ġmitig":5106,"35":5107,"ben":5108,"Ġbasis":5109,"Ġbilling":5110,"ãĤ":5111,"Ġvalu":5112,"ĠResources":5113,"lambda":5114,"Ġrelational":5115,"Ġmind":5116,"ĠOther":5117,"Ġassigned":5118,"Ġensures":5119,"ĠUp":5120,"Ġstudy":5121,"object":5122,"Ġfailed":5123,"Ġscheduled":5124,"ercial":5125,"ris":5126,"Ġbit":5127,"ĠExpl":5128,"UST":5129,"ĠRecovery":5130,"more":5131,"Ġund":5132,"ĠPacific":5133,"Ġenforce":5134,"Ġsizes":5135,"Ġarchive":5136,"Ġsections":5137,"Ġfoot":5138,"Ġframeworks":5139,"Ġspending":5140,"Is":5141,"ĠBra":5142,"Configuration":5143,"Ġreleased":5144,"Ass":5145,"File":5146,"Effect":5147,"plete":5148,"icles":5149,"Ġmonit":5150,"Ġpick":5151,"ĠCIDR":5152,"Ġnever":5153,"owntime":5154,"ordin":5155,"Dat":5156,"ĠProject":5157,"48":5158,"col":5159,"Ġtook":5160,"ĠVideo":5161,"Ġpassed":5162,"isf":5163,"Ġcloudnative":5164,"Det":5165,"Ġportal":5166,"ĠWHERE":5167,"Ġrobust":5168,"96":5169,"Ġbur":5170,"ãĥ":5171,"Ġprinci":5172,"ĠTransfer":5173,"ĠTeam":5174,"IM":5175,"build":5176,"Ġsix":5177,"Ġbandwidth":5178,"ertain":5179,"ĠTask":5180,"TS":5181,"Ġhospital":5182,"Ġcategory":5183,"eed":5184,"ĠSite":5185,"Ġnull":5186,"ĠEngineering":5187,"pg":5188,"Ġtheyre":5189,"EX":5190,"anks":5191,"ĠLook":5192,"ĠIV":5193,"Ġbuy":5194,"ĠOrganization":5195,"Learn":5196,"be":5197,"Ġoptimal":5198,"Ġnotebooks":5199,"Ġmanufacturing":5200,"00000":5201,"Count":5202,"Ġapproxim":5203,"ĠSES":5204,"lastiC":5205,"ĠIDE":5206,"Ġdig":5207,"Ġongoing":5208,"mental":5209,"witter":5210,"Ġefforts":5211,"access":5212,"ĠCM":5213,"Ġblocks":5214,"down":5215,"iments":5216,"osystem":5217,"Ġregistry":5218,"Ġminimal":5219,"anges":5220,"Ġhandling":5221,"ĠStarted":5222,"ĠPyTorch":5223,"Ġfet":5224,"Ġuswest":5225,"Ġintegrations":5226,"ool":5227,"atically":5228,"ginia":5229,"ĠIll":5230,"epr":5231,"ĠHigh":5232,"ĠAsia":5233,"pty":5234,"istration":5235,"ICE":5236,"lastiCache":5237,"ĠRunning":5238,"Ġunits":5239,"Ġworkforce":5240,"store":5241,"unk":5242,"Ġcomprehensive":5243,"Ġimprovement":5244,"Ġfailures":5245,"olders":5246,"ament":5247,"Ġarent":5248,"Ġsignificantly":5249,"Ġselection":5250,"ĠRequest":5251,"Ġaway":5252,"org":5253,"Ġfocuses":5254,"28":5255,"Ġtick":5256,"ults":5257,"IF":5258,"ĠSD":5259,"cell":5260,"ĠIdP":5261,"Ġdecid":5262,"lined":5263,"ĠConsulting":5264,"ĠMQ":5265,"rew":5266,"ĠAbout":5267,"Ġms":5268,"Ġdebug":5269,"Ġpreview":5270,"Ġinnovate":5271,"ai":5272,"ori":5273,"import":5274,"Ġrot":5275,"Ġbroadcast":5276,"Ġcoming":5277,"ĠSession":5278,"Ġlocated":5279,"ĠGraviton":5280,"ĠExt":5281,"Ġtutorial":5282,"Ġbook":5283,"Ġtransit":5284,"Ġthread":5285,"202":5286,"Ġadministrators":5287,"Ġelect":5288,"Ġdeleted":5289,"Ġrevenue":5290,"Ġhighlevel":5291,"Ġsell":5292,"Ġhot":5293,"Ġconcepts":5294,"Ġgames":5295,"Ġsem":5296,"Text":5297,"eny":5298,"uswest":5299,"ony":5300,"order":5301,"alks":5302,"ĠHy":5303,"base":5304,"world":5305,"ĠAcc":5306,"most":5307,"oogle":5308,"While":5309,"Ġleader":5310,"Ġdowntime":5311,"Ġgran":5312,"Ġconcurrent":5313,"ĠPinpoint":5314,"ĠNU":5315,"Ġtroubleshoot":5316,"Ġresear":5317,"Ġlaunching":5318,"kill":5319,"Ġstatements":5320,"pper":5321,"orer":5322,"Ġevaluation":5323,"dn":5324,"Ġcamer":5325,"ANA":5326,"ĠPersonalize":5327,"ĠFeature":5328,"Ġartificial":5329,"Ġlisted":5330,"Ġinvestig":5331,"OST":5332,"PG":5333,"Ġheader":5334,"ĠVirginia":5335,"oles":5336,"Ġrequirement":5337,"Ġwrites":5338,"hem":5339,"Ġrender":5340,"RT":5341,"rior":5342,"ĠFurther":5343,"ĠES":5344,"Ġguest":5345,"Ġpresented":5346,"Ġhosts":5347,"encing":5348,"ĠElastiCache":5349,"Ġachieved":5350,"Pl":5351,"king":5352,"Ġfilters":5353,"Ġencrypt":5354,"flake":5355,"enk":5356,"Ġcontents":5357,"Ġanalyst":5358,"ĠPol":5359,"Sign":5360,"ium":5361,"local":5362,"Ġflows":5363,"EA":5364,"Ġinteractions":5365,"ĠTw":5366,"Ġroad":5367,"Ġutilize":5368,"ĠDefault":5369,"secre":5370,"ĠEdit":5371,"Tag":5372,"kit":5373,"su":5374,"Ġcard":5375,"icense":5376,"Endpoint":5377,"Ġvideos":5378,"LA":5379,"Ġdepart":5380,"Ġdefines":5381,"Ġroutes":5382,"Ġcompar":5383,"Ġresearcher":5384,"antly":5385,"ffer":5386,"Ġdeploys":5387,"Ġ500":5388,"serve":5389,"Ġpreferred":5390,"Ġsoon":5391,"enant":5392,"eter":5393,"ĠTwitter":5394,"Ġdatad":5395,"ĠHPC":5396,"ĠMe":5397,"Ġdescribes":5398,"ĠGuardDuty":5399,"Ġsnipp":5400,"ĠAlthough":5401,"roller":5402,"onth":5403,"Ã³":5404,"ĠAB":5405,"Ġvary":5406,"ĠInfrastructure":5407,"Ġtrying":5408,"eries":5409,"Ġmatter":5410,"Ġsatisf":5411,"oper":5412,"admin":5413,"Ġanomaly":5414,"ĠAccelerator":5415,"aming":5416,"Ġgranular":5417,"Ġusually":5418,"ade":5419,"Ġpandemic":5420,"let":5421,"Ġworkspace":5422,"ĠUsers":5423,"Ġtrends":5424,"Ġassociate":5425,"Ġecosystem":5426,"cd":5427,"luepr":5428,"predict":5429,"Ġreads":5430,"Ġgot":5431,"Ġmanner":5432,"Go":5433,"status":5434,"Ġprincipal":5435,"Ġwin":5436,"Ġprec":5437,"Ġarticle":5438,"ository":5439,"Ġcommercial":5440,"Ġdur":5441,"Ġreplicas":5442,"Download":5443,"Ġframe":5444,"Ġinsight":5445,"rat":5446,"ounder":5447,"Ġalign":5448,"Ġdownstream":5449,"Ġwords":5450,"Ġowner":5451,"voke":5452,"Ġeconom":5453,"trained":5454,"oding":5455,"rds":5456,"rows":5457,"ĠEduc":5458,"Ġcollected":5459,"ĠPerformance":5460,"ĠTextract":5461,"icks":5462,"strap":5463,"Ġchose":5464,"ysql":5465,"Ġfrequently":5466,"rangler":5467,"And":5468,"udit":5469,"itories":5470,"ĠSlack":5471,"Ġdetected":5472,"ĠTechnical":5473,"git":5474,"ĠÃ":5475,"Ġexcept":5476,"Ġheavy":5477,"Ġtheres":5478,"Ġindustrial":5479,"Ġbody":5480,"ĠLive":5481,"Ġfine":5482,"Ġhttpsgithub":5483,"Ġarray":5484,"ĠTensorFlow":5485,"43":5486,"ocs":5487,"Ġleads":5488,"Query":5489,"ĠAND":5490,"isms":5491,"anguage":5492,"Ġdownloaded":5493,"ĠvCPU":5494,"Ġengineer":5495,"lies":5496,"ĠINT":5497,"Ġcrawler":5498,"ĠPrivateLink":5499,"aur":5500,"ison":5501,"Ġpython":5502,"Ġplayers":5503,"Ġprivacy":5504,"Ġbeli":5505,"pled":5506,"Customers":5507,"ĠOU":5508,"abytes":5509,"rum":5510,"Ġbank":5511,"ublish":5512,"arent":5513,"Ġindependent":5514,"isec":5515,"author":5516,"ĠRefer":5517,"Ġmigrated":5518,"Ġcovered":5519,"Ġfactors":5520,"ĠCertification":5521,"Ġwor":5522,"ĠGround":5523,"itude":5524,"75":5525,"Part":5526,"oney":5527,"ĠExp":5528,"UN":5529,"Not":5530,"ĠTrust":5531,"selves":5532,"Ġresilient":5533,"kub":5534,"ĠIndust":5535,"95":5536,"KEY":5537,"Buil":5538,"ĠInstead":5539,"bench":5540,"OP":5541,"ĠTim":5542,"Ġbudget":5543,"estream":5544,"ĠXRay":5545,"Ġremain":5546,"ada":5547,"Ġwhole":5548,"Ġoffic":5549,"Ġinvestment":5550,"Ġproduce":5551,"Ġrelationship":5552,"env":5553,"ulk":5554,"Ġpress":5555,"Ġrisks":5556,"Wise":5557,"ĠChange":5558,"ĠNotification":5559,"ĠGov":5560,"Ġsequence":5561,"ief":5562,"Ġsummary":5563,"ender":5564,"arams":5565,"ox":5566,"valu":5567,"76":5568,"Ġpartitions":5569,"API":5570,"Ġposition":5571,"zer":5572,"iler":5573,"Ġoperators":5574,"Ġbinary":5575,"Ġcontroller":5576,"fill":5577,"Ġones":5578,"ancy":5579,"demo":5580,"Ġcredit":5581,"Ġflo":5582,"Ġengage":5583,"Ġsubject":5584,"ĠAssoci":5585,"Ag":5586,"ĠInit":5587,"ĠFound":5588,"bps":5589,"KET":5590,"ongoDB":5591,"ĠIs":5592,"Ġviews":5593,"Ġreceives":5594,"Ġneg":5595,"Ġexpensive":5596,"yle":5597,"asons":5598,"ĠImport":5599,"Ġvaluable":5600,"Ġauthors":5601,"Ġcalling":5602,"ht":5603,"Ġecho":5604,"Ġlogical":5605,"Ġupdating":5606,"overn":5607,"Ġensuring":5608,"hn":5609,"gres":5610,"ids":5611,"Ġdesktop":5612,"Ġaware":5613,"Ġregistered":5614,"Ġamazon":5615,"rames":5616,"Ġconsume":5617,"Ġsimplifies":5618,"Ġelements":5619,"Endure":5620,"Ġessential":5621,"ĠMetrics":5622,"ĠFactory":5623,"Ġincorpor":5624,"LP":5625,"optim":5626,"ĠĠĠĠĠĠĠĠĠ":5627,"Ġsurvey":5628,"Ġdemonstrates":5629,"Ġglobally":5630,"Ġcategories":5631,"ecute":5632,"eks":5633,"iaccount":5634,"Install":5635,"Ġclinical":5636,"ĠProvider":5637,"ĠDeployment":5638,"Ġcrossaccount":5639,"ĠLocation":5640,"Ġorganizational":5641,"Le":5642,"OM":5643,"ifying":5644,"Ġmigrations":5645,"Ġmechanisms":5646,"Ġpurchase":5647,"rix":5648,"Ġidea":5649,"Su":5650,"ls":5651,"ĠĠĠĠĠĠĠĠĠĠĠĠĠĠĠĠĠĠĠĠĠĠĠĠĠĠĠĠĠĠĠĠ":5652,"Ġseamlessly":5653,"ĠForecast":5654,"Red":5655,"ermin":5656,"Ġcharge":5657,"Ġrepeat":5658,"Today":5659,"Ġmass":5660,"Ġoccur":5661,"Ġtypical":5662,"Ġpayment":5663,"paration":5664,"ĠProcessing":5665,"ĠCEO":5666,"enter":5667,"ĠTB":5668,"ĠInformation":5669,"nel":5670,"Ġmanages":5671,"htt":5672,"Ġorders":5673,"ĠFree":5674,"Ġtrusted":5675,"ĠMo":5676,"used":5677,"Ġforecasting":5678,"opping":5679,"Store":5680,"alancing":5681,"Ġredirect":5682,"scribe":5683,"Ġlongterm":5684,"VER":5685,"Ġfri":5686,"Ġactually":5687,"ĠACL":5688,"Clean":5689,"eve":5690,"Ġcontinues":5691,"Ġdriving":5692,"ferent":5693,"Ġserving":5694,"Ġrefresh":5695,"GE":5696,"ĠAmeric":5697,"ishes":5698,"gener":5699,"tainers":5700,"oices":5701,"UM":5702,"session":5703,"Ġsummar":5704,"ĠMSP":5705,"Ġregulatory":5706,"ĠIOPS":5707,"Ġep":5708,"Ġfund":5709,"ĠSSM":5710,"BM":5711,"irection":5712,"Ġtransport":5713,"Ġsubsequ":5714,"Ġmaterial":5715,"names":5716,"Ġapi":5717,"commerce":5718,"Ġisolation":5719,"URL":5720,"Ġlisten":5721,"Ġsafety":5722,"izard":5723,"ĠToday":5724,"Ġindexes":5725,"cdk":5726,"Ġbranch":5727,"Ġfunctional":5728,"ĠParallel":5729,"ĠDomain":5730,"ĠEm":5731,"Ġspark":5732,"Ġos":5733,"Ġlight":5734,"ATION":5735,"Token":5736,"ĠWorld":5737,"Ġequipment":5738,"Put":5739,"ĠMany":5740,"berg":5741,"OUR":5742,"Ġproceed":5743,"ĠOperations":5744,"Message":5745,"schema":5746,"Ġonto":5747,"Ġaccessing":5748,"agers":5749,"Ġspecifically":5750,"lib":5751,"Ġnature":5752,"kta":5753,"Ġlargest":5754,"ructured":5755,"Ġlittle":5756,"II":5757,"amily":5758,"iddle":5759,"enabled":5760,"Ġproductivity":5761,"CA":5762,"SELECT":5763,"Ġtimeout":5764,"Ġretain":5765,"Ġtranslation":5766,"ĠRegistry":5767,"ats":5768,"Ġobservability":5769,"Ġconduct":5770,"Ġdeeper":5771,"ikes":5772,"ĠRelational":5773,"Ġreflect":5774,"Ġpositive":5775,"ĠSummary":5776,"olicies":5777,"Ġprompt":5778,"ĠLif":5779,"rain":5780,"Ġhandson":5781,"Ġcountries":5782,"ured":5783,"rive":5784,"ugment":5785,"Ġmissing":5786,"ende":5787,"ĠFlow":5788,"Ġgoes":5789,"Ġminute":5790,"Ġdrop":5791,"Ġinterfaces":5792,"Ġinnovations":5793,"unt":5794,"ĠConf":5795,"Ġspent":5796,"Ġcirc":5797,"ĠSalesforce":5798,"ĠNAT":5799,"cp":5800,"Ġmom":5801,"Ġrealworld":5802,"ĠEnvironment":5803,"Ġgenerally":5804,"38":5805,"Ġmatches":5806,"isor":5807,"ypes":5808,"Ġallocation":5809,"98":5810,"md":5811,"Ġchild":5812,"ĠBen":5813,"Ġdifference":5814,"Ġpanel":5815,"Prerequisites":5816,"ĠLevel":5817,"Map":5818,"Ġinbound":5819,"ĠDuring":5820,"ĠBest":5821,"initions":5822,"ute":5823,"Ġtranspare":5824,"Ġdecided":5825,"Ġcp":5826,"ographic":5827,"holders":5828,"ĠMongoDB":5829,"ĠIDs":5830,"ĠExplorer":5831,"arily":5832,"Ġcustomized":5833,"UCKET":5834,"Ġarnawss":5835,"Ġresolution":5836,"Ġlock":5837,"length":5838,"ĠUpload":5839,"ĠSettings":5840,"Ġintent":5841,"Sid":5842,"Ġapproximately":5843,"ĠWrangler":5844,"ĠDisc":5845,"UE":5846,"ĠSMS":5847,"ressed":5848,"ĠExper":5849,"Ġmonthly":5850,"Ġaggregate":5851,"ĠOps":5852,"Ġrepositories":5853,"Ġsensors":5854,"ĠScience":5855,"Ġfoundation":5856,"Ġcombined":5857,"Ġblockchain":5858,"Ġexceed":5859,"like":5860,"Ġul":5861,"rug":5862,"ĠSCT":5863,"ĠDE":5864,"train":5865,"Live":5866,"real":5867,"Ġhandler":5868,"tifact":5869,"VPC":5870,"Ġrely":5871,"ĠGovCloud":5872,"roid":5873,"ĠApplications":5874,"Ġpriority":5875,"Ġreasons":5876,"ĠFr":5877,"Ġhear":5878,"latest":5879,"Ġstages":5880,"ĠLO":5881,"Ġlength":5882,"Ġprocedure":5883,"uly":5884,"Ġspread":5885,"DBC":5886,"ustre":5887,"Comp":5888,"Ġfar":5889,"abric":5890,"Ġbalancer":5891,"ĠLicense":5892,"Ġkeeping":5893,"Ġ32":5894,"Ġmodules":5895,"Over":5896,"nowledge":5897,"Ġminimize":5898,"Ġdecre":5899,"Ġconsolid":5900,"Ġsensor":5901,"Ġindividuals":5902,"Ġorchestration":5903,"boarding":5904,"Ġideas":5905,"ĠWest":5906,"clude":5907,"ĠFace":5908,"Ġworkshop":5909,"Ġsynchron":5910,"1111":5911,"ĠCommun":5912,"IST":5913,"ĠPipeline":5914,"Ġdecide":5915,"Ġremediation":5916,"Ġresearchers":5917,"ĠCloudEndure":5918,"AML":5919,"Ġevol":5920,"ĠCertificate":5921,"Ġsustainability":5922,"Ġpip":5923,"Cons":5924,"ĠOutside":5925,"Ġplaying":5926,"Ġfiltering":5927,"Ġ300":5928,"Ġcareer":5929,"Ġrelationships":5930,"ĠCal":5931,"Ġadvance":5932,"Ġenhanced":5933,"ĠGe":5934,"Ġbrings":5935,"hest":5936,"dential":5937,"Ġfeel":5938,"Ġcorrectly":5939,"Ġhope":5940,"Ġlaunches":5941,"Ġcombine":5942,"len":5943,"logs":5944,"ĠSingle":5945,"ardless":5946,"Ġexecuted":5947,"Ġutility":5948,"elemetry":5949,"ĠCentral":5950,"ĠSnowball":5951,"UB":5952,"ĠExchange":5953,"Ġdou":5954,"Ġmodeling":5955,"Ġflag":5956,"info":5957,"Ġshell":5958,"ĠROS":5959,"Ġintegrating":5960,"Ġfollowed":5961,"ĠDirector":5962,"Ġmicroservice":5963,"ĠSnowflake":5964,"77":5965,"case":5966,"ĠPod":5967,"Ġrecommendation":5968,"Ġinstitutions":5969,"Ġpretrained":5970,"Ġtrial":5971,"ĠON":5972,"Ġpreparation":5973,"Ġinterru":5974,"script":5975,"Ġmodernize":5976,"Sim":5977,"Ġroom":5978,"Ġmessaging":5979,"ĠWorkflow":5980,"arks":5981,"ĠYes":5982,"Ġideal":5983,"install":5984,"Ġsuit":5985,"Demand":5986,"Ġrev":5987,"Ġdiverse":5988,"GW":5989,"acc":5990,"Ġresolve":5991,"pling":5992,"ginx":5993,"Ġsentiment":5994,"Each":5995,"Ġreduction":5996,"Ġcorpor":5997,"oft":5998,"inn":5999,"Ġconcurrency":6000,"Ġguard":6001,"Ġmatching":6002,"Ġstates":6003,"ube":6004,"aScript":6005,"Ġcountry":6006,"Many":6007,"Ġfill":6008,"Ġecommerce":6009,"que":6010,"ĠRO":6011,"Ġinstru":6012,"Ġscales":6013,"Ġdeleg":6014,"ovember":6015,"Ġinvokes":6016,"Ġaccompl":6017,"ov":6018,"avor":6019,"Execution":6020,"Point":6021,"paces":6022,"Ġconven":6023,"Ġrates":6024,"Ġapplying":6025,"Ġanomalies":6026,"query":6027,"memory":6028,"estination":6029,"ĠNOT":6030,"Ġ22":6031,"ributes":6032,"Ġconstraints":6033,"iling":6034,"anging":6035,"Spec":6036,"Ġinitiatives":6037,"aj":6038,"osen":6039,"Ġobjectives":6040,"ĠTruth":6041,"manager":6042,"den":6043,"Input":6044,"Ġlists":6045,"Ġconversion":6046,"ĠCR":6047,"Ġagencies":6048,"default":6049,"Ġidentifier":6050,"Ġverification":6051,"Edge":6052,"Ġcrypt":6053,"ĠTrue":6054,"ĠSMB":6055,"ĠInc":6056,"INT":6057,"ĠAust":6058,"hentication":6059,"ĠTranscribe":6060,"Ġcook":6061,"Ġsamples":6062,"ride":6063,"ĠOption":6064,"Ġdrivers":6065,"Ġcyber":6066,"Ġempty":6067,"ĠTCP":6068,"Ġresiliency":6069,"bs":6070,"Ġhighper":6071,"66":6072,"Ġcaching":6073,"state":6074,"check":6075,"Ġconsidered":6076,"Ġ21":6077,"Ġdesigning":6078,"Ġarchitectural":6079,"Ġaspects":6080,"Ġaim":6081,"Ġhelpful":6082,"Ġloaded":6083,"ĠSing":6084,"quality":6085,"Ġrequiring":6086,"OD":6087,"ĠHis":6088,"Ġcurl":6089,"enkins":6090,"Ġground":6091,"ively":6092,"Ġpersistent":6093,"acer":6094,"Ġoffered":6095,"Ġinvoked":6096,"ĠIve":6097,"Ġexists":6098,"OF":6099,"ĠCopy":6100,"Ġquerying":6101,"Document":6102,"ĠGoogle":6103,"Inf":6104,"Ġmultiaccount":6105,"ternatively":6106,"ACCOUNT":6107,"Ġbrand":6108,"ĠMonitoring":6109,"Ġmodified":6110,"Ġresponses":6111,"pecific":6112,"Ġprofiles":6113,"Image":6114,"Parameter":6115,"ister":6116,"ĠJavaScript":6117,"Ġzero":6118,"Ġsubscribe":6119,"Ġintroduce":6120,"1234567890":6121,"Ġbytes":6122,"riteria":6123,"Ġtested":6124,"fully":6125,"string":6126,"Ġargu":6127,"Ġproducer":6128,"chedul":6129,"Ġreplicate":6130,"ĠPowerShell":6131,"Ġanalyzing":6132,"ĠMap":6133,"Context":6134,"gree":6135,"ĠSecret":6136,"Ġ64":6137,"ĠMemory":6138,"Ġoutbound":6139,"Ġexpression":6140,"Ġyourself":6141,"ĠEnc":6142,"Ġselfservice":6143,"ouch":6144,"ectrum":6145,"ava":6146,"Ġsnippet":6147,"ĠDC":6148,"ĠGroups":6149,"ĠOkta":6150,"Ġstrategic":6151,"inter":6152,"Ġstories":6153,"ĠPoint":6154,"Ġtrace":6155,"Ġloading":6156,"ology":6157,"Ġpred":6158,"ĠThrough":6159,"Ġmesh":6160,"ĠPrior":6161,"Ġhyperparameters":6162,"imate":6163,"Ġgiving":6164,"Ġinspect":6165,"ystep":6166,"Ġholds":6167,"Ġstake":6168,"uming":6169,"Ġadvert":6170,"Ġtherefore":6171,"Ġvendors":6172,"ESS":6173,"vas":6174,"Ġdynamically":6175,"inations":6176,"Ġbat":6177,"ĠValid":6178,"Ġdidnt":6179,"Describe":6180,"uwest":6181,"ĠStatus":6182,"Ġrestart":6183,"ĠInference":6184,"Url":6185,"ormat":6186,"Ġinvocation":6187,"ĠWhats":6188,"atibility":6189,"ĠEnt":6190,"ĠLustre":6191,"Ġexplicit":6192,"Ġpromot":6193,"ĠParquet":6194,"mas":6195,"ĠHTTPS":6196,"Ġpus":6197,"Ġmot":6198,"ĠBig":6199,"Your":6200,"uck":6201,"Ġbottom":6202,"ĠLens":6203,"ĠInput":6204,"Ġgreen":6205,"My":6206,"gets":6207,"Ġchosen":6208,"ĠProvision":6209,"ARCH":6210,"Ġpriorit":6211,"Ġreviews":6212,"ĠDem":6213,"outh":6214,"conf":6215,"Creating":6216,"omm":6217,"atell":6218,"ĠDay":6219,"Ġimm":6220,"ĠReplace":6221,"room":6222,"31":6223,"ĠInnov":6224,"Ġauthenticate":6225,"Ġindicates":6226,"Error":6227,"uit":6228,"Ġproactive":6229,"HI":6230,"ky":6231,"Ġalmost":6232,"Admin":6233,"Ġleadership":6234,"Ġlicenses":6235,"Ġempower":6236,"Ġcity":6237,"ĠTier":6238,"Follow":6239,"Ret":6240,"ĠComputing":6241,"Tech":6242,"Ġhub":6243,"ulation":6244,"ART":6245,"orizon":6246,"init":6247,"ferences":6248,"ĠArch":6249,"Dynam":6250,"Port":6251,"Ġbalance":6252,"Ġcr":6253,"Ġoptimizing":6254,"....":6255,"Ġpredictive":6256,"Ġfrequency":6257,"ĠSiteWise":6258,"bystep":6259,"atial":6260,"Ġposture":6261,"oscaling":6262,"Ġoperator":6263,"Ġcomment":6264,"Ġnonprof":6265,"Do":6266,"rich":6267,"Ġapplies":6268,"ĠGovern":6269,"Ġcompatible":6270,"Ġembedded":6271,"Launch":6272,"ĠSCP":6273,"max":6274,"escale":6275,"Ġblue":6276,"Ġintegrates":6277,"VIDIA":6278,"IME":6279,"anst":6280,"Ġmillisec":6281,"Ġinteresting":6282,"ĠDownload":6283,"Ġsigned":6284,"ĠEMEA":6285,"Ġheaders":6286,"Ġcouple":6287,"Number":6288,"ĠAMIs":6289,"perature":6290,"Ġconsult":6291,"Ġmainframe":6292,"Ġhappens":6293,"ctor":6294,"omen":6295,"related":6296,"ĠPath":6297,"Ġincremental":6298,"Ġidentifying":6299,"Ġdisplayed":6300,"Ġproperly":6301,"94":6302,"ĠRule":6303,"Ġthemselves":6304,"Ġinvolves":6305,"cember":6306,"What":6307,"ĠSample":6308,"Ġip":6309,"Ġmultit":6310,"Ġtransformations":6311,"chool":6312,"Ġculture":6313,"long":6314,"Ġtowards":6315,"auth":6316,"ĠCall":6317,"ports":6318,"Ġahead":6319,"ĠClass":6320,"Ġstructured":6321,"IO":6322,"Make":6323,"ng":6324,"obile":6325,"Ġinteraction":6326,"Ġeventdriven":6327,"Its":6328,"Write":6329,"cceed":6330,"iated":6331,"Ġpages":6332,"Ġmer":6333,"ĠGPUs":6334,"Ġbeginning":6335,"Dis":6336,"river":6337,"ocations":6338,"Ġleverages":6339,"ux":6340,"ĠMin":6341,"ĠBit":6342,"Ġcontainerized":6343,"PRO":6344,"ĠMax":6345,"Ġengines":6346,"anstalk":6347,"Ver":6348,"ĠUnited":6349,"Ġlakes":6350,"Ġwhats":6351,"ested":6352,"Ġobjective":6353,"Ġshares":6354,"Option":6355,"Ġnpm":6356,"roduction":6357,"ÂłÂłÂł":6358,"days":6359,"ĠACM":6360,"specific":6361,"Because":6362,"Ġelement":6363,"Ġgather":6364,"ĠHead":6365,"Ġcaptured":6366,"Ġvisualizations":6367,"Ġaudience":6368,"Ġdup":6369,"Ġworlds":6370,"Ġpaths":6371,"umeRole":6372,"Ġincurring":6373,"oy":6374,"reme":6375,"Ġcompanys":6376,"Ġcat":6377,"ene":6378,"ĠMain":6379,"opilot":6380,"Ġsegments":6381,"domain":6382,"cons":6383,"Ġfails":6384,"ĠDisaster":6385,"ĠSchema":6386,"ously":6387,"ĠMQTT":6388,"Ġmoney":6389,"ĠWere":6390,"ocols":6391,"Ġmal":6392,"dings":6393,"ierarch":6394,"Ġperspective":6395,"lation":6396,"Ġack":6397,"attern":6398,"secon":6399,"Ġrad":6400,"ĠNovember":6401,"Ġlargescale":6402,"ĠBuilder":6403,"ĠISV":6404,"source":6405,"Ġjoining":6406,"Ġdatadriven":6407,"iences":6408,"ĠRest":6409,"Ġrecover":6410,"ĠOnDemand":6411,"ued":6412,"Ġcriteria":6413,"ĠPres":6414,"quire":6415,"ĠPermissions":6416,"ĠStreaming":6417,"ĠLast":6418,"Ġsports":6419,"Ġunified":6420,"Ġinsurance":6421,"Ã¡":6422,"Ġmut":6423,"AGE":6424,"wh":6425,"ecr":6426,"ĠKit":6427,"Ġqueues":6428,"aC":6429,"label":6430,"Ġfinet":6431,"critical":6432,"Ġstra":6433,"Ġspot":6434,"Ġaff":6435,"alues":6436,"Ġintended":6437,"Ġprofession":6438,"ĠIntegration":6439,"Ġexplains":6440,"Ġencourage":6441,"CON":6442,"DATE":6443,"TY":6444,"Ġrecognition":6445,"Ġcoordin":6446,"Ġsubsequent":6447,"arth":6448,"ĠNavigate":6449,"select":6450,"batch":6451,"ĠEnd":6452,"ĠParameters":6453,"Ġpurposebuilt":6454,"Ġfetch":6455,"Ġcloudformation":6456,"Ġasked":6457,"land":6458,"ĠSuccess":6459,"Ġhighest":6460,"BUCKET":6461,"icious":6462,"Ġagile":6463,"à¸²":6464,"Ġcorporate":6465,"Date":6466,"ĠCompliance":6467,"Here":6468,"ĠFamily":6469,"ĠPolly":6470,"Ġmoved":6471,"Ġran":6472,"Ġbrands":6473,"Dev":6474,"onfig":6475,"ĠJump":6476,"Ġtenants":6477,"Auth":6478,"View":6479,"Ġtitle":6480,"Lens":6481,"Ġstaging":6482,"Ġvs":6483,"Ġplus":6484,"Ġpotentially":6485,"itute":6486,"Ġpeak":6487,"Ġconversation":6488,"Ġparent":6489,"watch":6490,"Ġsuper":6491,"grained":6492,"configuration":6493,"Ġestablished":6494,"Load":6495,"Post":6496,"Ġml":6497,"Comm":6498,"Ġeksctl":6499,"Guru":6500,"ĠMay":6501,"ĠTranslate":6502,"kens":6503,"Ġsaw":6504,"ĠReplication":6505,"Autom":6506,"Ġscores":6507,"Then":6508,"Upload":6509,"kubernetes":6510,"sed":6511,"Ġsense":6512,"ĠNVIDIA":6513,"Ġstepbystep":6514,"ĠReport":6515,"Ġmac":6516,"Ġexperiments":6517,"Ġgenerating":6518,"Ġdepends":6519,"gz":6520,"nost":6521,"AAAA":6522,"ernel":6523,"html":6524,"Be":6525,"Ġcommunications":6526,"ĠMesh":6527,"node":6528,"tr":6529,"ĠNULL":6530,"NE":6531,"users":6532,"ĠServiceNow":6533,"ĠFlink":6534,"Ġhash":6535,"Ġamplify":6536,"Ġresponsibility":6537,"inct":6538,"Ġloop":6539,"ĠHeres":6540,"Ġdefining":6541,"Ġunlock":6542,"ĠConnector":6543,"ĠModern":6544,"Ġì":6545,"Ġdecl":6546,"ĠRAM":6547,"ĠJoin":6548,"Ġownership":6549,"04":6550,"Ġconnects":6551,"olumn":6552,"Ġworldwide":6553,"Ġintelligent":6554,"Ġincreasingly":6555,"Back":6556,"ĠFeder":6557,"Ġfinished":6558,"Ġeveryone":6559,"Ġfixed":6560,"ĠUK":6561,"ĠStrateg":6562,"actor":6563,"Ġcovers":6564,"54":6565,"Ke":6566,"Ġbad":6567,"ĠSecure":6568,"Ġworry":6569,"lass":6570,"ĠAirflow":6571,"ket":6572,"you":6573,"oom":6574,"Ġoutlined":6575,"Ġrecording":6576,"ASE":6577,"cat":6578,"Ġwont":6579,"uri":6580,"Ġcompletion":6581,"ĠReady":6582,"adoop":6583,"poke":6584,"Ġimproves":6585,"ĠTransform":6586,"ĠCertified":6587,"ĠSmart":6588,"call":6589,"Ġscheduling":6590,"74":6591,"uge":6592,"Ġicon":6593,"Ġregarding":6594,"Ġsilo":6595,"ĠNLP":6596,"ĠStates":6597,"UI":6598,"Ġproc":6599,"itro":6600,"Ġanalysts":6601,"Ġfall":6602,"Ġlack":6603,"usic":6604,"Ġqual":6605,"boot":6606,"Ġretailers":6607,"2021":6608,"Ġclosely":6609,"ĠAustral":6610,"Ġfocusing":6611,"iveness":6612,"ĠÃł":6613,"Gener":6614,"orre":6615,"Ġpol":6616,"Ġbl":6617,"ĠLink":6618,"ĠGen":6619,"Ġprotocols":6620,"Ġbootstrap":6621,"writ":6622,"Ġmanagers":6623,"hous":6624,"Ġpict":6625,"Ġmovi":6626,"ĠFurthermore":6627,"SA":6628,"Ġphot":6629,"Ġbulk":6630,"ĠDAT":6631,"Ġregistration":6632,"ĠDetect":6633,"Ġfundament":6634,"Size":6635,"Rule":6636,"hand":6637,"Ġease":6638,"ĠMediaLive":6639,"Ġgp":6640,"ĠYoull":6641,"Ġcertification":6642,"ibilities":6643,"Ġinflu":6644,"Ġstakeholders":6645,"ĠSn":6646,"ĠHANA":6647,"Ġ23":6648,"Ġguardra":6649,"oph":6650,"Ġingested":6651,"Task":6652,"uning":6653,"Ġamounts":6654,"Equ":6655,"archar":6656,"Ġprocedures":6657,"Ġandor":6658,"Ġmix":6659,"forward":6660,"Ġcourses":6661,"Ġtalent":6662,"owers":6663,"Ġcompliant":6664,"Ġwhit":6665,"Inter":6666,"body":6667,"erve":6668,"util":6669,"Ġextended":6670,"TC":6671,"arning":6672,"ĠEvery":6673,"Ġvirt":6674,"timately":6675,"Ġauditing":6676,"Ġexplained":6677,"books":6678,"ĠDec":6679,"Ġextreme":6680,"Ġalternative":6681,"Ġstraight":6682,"Ġpet":6683,"Ġcompletely":6684,"Ġhandles":6685,"ĠPlan":6686,"cal":6687,"public":6688,"Ġpreprocessing":6689,"ĠFinancial":6690,"uff":6691,"Secret":6692,"Ġbehalf":6693,"ĠNone":6694,"Ġnumer":6695,"Ġprofessional":6696,"DAT":6697,"vpc":6698,"aste":6699,"ĠBeanstalk":6700,"Ġsatell":6701,"Ġfood":6702,"Ġspecialized":6703,"Copy":6704,"vc":6705,"Ġwid":6706,"Ġdf":6707,"ĠCap":6708,"Ġawait":6709,"ĠSF":6710,"ĠHive":6711,"Ġredund":6712,"Am":6713,"Ġprofessionals":6714,"Class":6715,"Ġles":6716,"à¸²à¸":6717,"Ġoffline":6718,"Ġvendor":6719,"ĠDistribut":6720,"lights":6721,"Ġdep":6722,"Ġfacilitate":6723,"LM":6724,"NSERT":6725,"Ġingress":6726,"ilarly":6727,"Ġremaining":6728,"Ġfavor":6729,"Ġvpc":6730,"Ġanywhere":6731,"Ġhighperformance":6732,"Ġdial":6733,"product":6734,"000000":6735,"pected":6736,"Ġvehicles":6737,"Ġloves":6738,"Ġdependency":6739,"Ġemployee":6740,"ĠGbps":6741,"Ġ2017":6742,"Ġfault":6743,"ĠDecember":6744,"ĠMacie":6745,"ĠJenkins":6746,"Ġstatistics":6747,"Ġprotected":6748,"02":6749,"rally":6750,"web":6751,"ores":6752,"Ġresilience":6753,"Ġexactly":6754,"ĠOff":6755,"avail":6756,"Ġjoined":6757,"Ġupt":6758,"ĠChall":6759,"Ġtooling":6760,"Ġ...":6761,"Ġsignature":6762,"ACE":6763,"ĠSpecify":6764,"content":6765,"ĠNumber":6766,"Ġbuffer":6767,"Ġhappy":6768,"elb":6769,"Ġencoding":6770,"Ġcommonly":6771,"ĠSearch":6772,"ĠEdition":6773,"Ġparticipants":6774,"65":6775,"Ġpredefined":6776,"Ġcompatibility":6777,"ĠCanada":6778,"step":6779,"ĠCount":6780,"Ġprop":6781,"Ġrich":6782,"He":6783,"Telemetry":6784,"Ġbund":6785,"Ġcommunities":6786,"Ġterm":6787,"Ġbillion":6788,"Ġpercentage":6789,"Ġoccurs":6790,"Ġmoment":6791,"256":6792,"Gu":6793,"Ġsigning":6794,"Ġ35":6795,"Ġaggregation":6796,"Ġsolving":6797,"Ġsts":6798,"abling":6799,"Ġspeak":6800,"ĠSpotlight":6801,"Please":6802,"Sum":6803,"Ġhierarch":6804,"Response":6805,"HE":6806,"ĠSSL":6807,"Ġparticularly":6808,"ĠRules":6809,"Ġsucceed":6810,"aves":6811,"SP":6812,"Ġbroker":6813,"ARCHAR":6814,"apping":6815,"Ġauthorized":6816,"Ġaggregated":6817,"SageMaker":6818,"ambd":6819,"Racer":6820,"ĠIBM":6821,"Ġpublicly":6822,"Ġprinciples":6823,"IG":6824,"rott":6825,"Ġhom":6826,"Ġcolor":6827,"ĠAdditional":6828,"LC":6829,"words":6830,"Ġhold":6831,"apan":6832,"pril":6833,"Ġreplicated":6834,"____":6835,"Ġsys":6836,"ĠQueue":6837,"secret":6838,"New":6839,"PT":6840,"Ġdeal":6841,"Ġserves":6842,"79":6843,"oost":6844,"Ġmedi":6845,"ugging":6846,"Call":6847,"nam":6848,"ĠCPG":6849,"Ġsufficient":6850,"Ġregardless":6851,"Ġfederated":6852,"Brew":6853,"ĠHudi":6854,"Subnet":6855,"ĠBased":6856,"ĠPut":6857,"ancing":6858,"iot":6859,"ĠKub":6860,"CR":6861,"ĠRate":6862,"Ġago":6863,"ĠIVS":6864,"Template":6865,"Ġfulfill":6866,"ĠChina":6867,"Ġapproval":6868,"Ġecs":6869,"ipping":6870,"plays":6871,"Ġlogged":6872,"ĠĠĠĠĠĠĠĠĠĠ":6873,"Ġcamera":6874,"analy":6875,"urning":6876,"ĠCondition":6877,"ĠUsage":6878,"Ġpreferences":6879,"ĠLookout":6880,"ĠJumpStart":6881,"Ġpaste":6882,"Ġcru":6883,"ĠManage":6884,"Ġremains":6885,"ĠSummit":6886,"Ġaugment":6887,"Ġcomprom":6888,"Ġexploring":6889,"Ġannouncements":6890,"customer":6891,"Ġapproved":6892,"ORT":6893,"Rem":6894,"Ġcycle":6895,"Ġcomparison":6896,"ros":6897,"asic":6898,"Ġpace":6899,"Ġcolle":6900,"Ġvalidated":6901,"Ġmonitors":6902,"did":6903,"Ġment":6904,"Ġdelay":6905,"ĠCON":6906,"Ġcentrally":6907,"Ġspeech":6908,"Ġfinegrained":6909,"39":6910,"ĠCross":6911,"Ġrights":6912,"ertainment":6913,"PM":6914,"Solution":6915,"iate":6916,"agent":6917,"Ġ28":6918,"ĠDesign":6919,"ĠConsider":6920,"Ġanswers":6921,"GIN":6922,"Ġexception":6923,"zz":6924,"Ġproven":6925,"Ġactionable":6926,"Ġselfmanaged":6927,"lay":6928,"ĠChat":6929,"Ġcopied":6930,"ĠIntelligence":6931,"ered":6932,"ĠOpenTelemetry":6933,"Application":6934,"Ġcalculate":6935,"Ġchatbot":6936,"YY":6937,"page":6938,"ĠAudit":6939,"eting":6940,"standing":6941,"ĠOutputs":6942,"til":6943,"Ġtokens":6944,"typ":6945,"Review":6946,"ĠDeepRacer":6947,"Ġwaiting":6948,"ĠGeneral":6949,"ians":6950,"ĠER":6951,"Ġsuite":6952,"ires":6953,"ibana":6954,"Manager":6955,"Ġremoving":6956,"powered":6957,"ĠArchive":6958,"Ġstory":6959,"ulate":6960,"ptember":6961,"valid":6962,"Ġautonom":6963,"return":6964,"TER":6965,"Ġsites":6966,"ĠReal":6967,"Setting":6968,"ricing":6969,"ek":6970,"Ġnotice":6971,"Ġpredic":6972,"System":6973,"cial":6974,"ĠTemplate":6975,"Ġpremises":6976,"Ġcopies":6977,"Jo":6978,"ira":6979,"Ġlove":6980,"Result":6981,"PY":6982,"ĠJapan":6983,"Ġdisplays":6984,"ROUP":6985,"Ġadministrative":6986,"Oper":6987,"ĠOb":6988,"ĠSetup":6989,"year":6990,"Ġword":6991,"ĠAndroid":6992,"Ġdriven":6993,"ĠBro":6994,"Ġseeing":6995,"Ġtransformed":6996,"yy":6997,"Ġfr":6998,"Ġemb":6999,"Since":7000,"mo":7001,"oder":7002,"compliant":7003,"Ġparty":7004,"Ġrequested":7005,"Ġconfident":7006,"Ġbelieve":7007,"elcome":7008,"ĠInsp":7009,"Ġdetermin":7010,"Ġbluepr":7011,"agine":7012,"asks":7013,"ĠDel":7014,"Ġvarchar":7015,"Ġapplicable":7016,"Ġloads":7017,"Ġconsistency":7018,"emp":7019,"ĠSDKs":7020,"optimized":7021,"bon":7022,"Ġports":7023,"Ġpeering":7024,"ĠThings":7025,"Ġextracted":7026,"Ġscr":7027,"ĠURI":7028,"Ġlicensing":7029,"ĠCTO":7030,"Ġdegree":7031,"hook":7032,"template":7033,"Ġauth":7034,"Exp":7035,"ĠSav":7036,"ĠOct":7037,"Ġdisable":7038,"Ġextensions":7039,"ifferent":7040,"Ġenrich":7041,"Ġ2023":7042,"Process":7043,"USTER":7044,"Ġhospitality":7045,"scape":7046,"200":7047,"gen":7048,"licate":7049,"Ġcold":7050,"Ġinstant":7051,"Ġtimec":7052,"Ġappears":7053,"CREATE":7054,"NO":7055,"True":7056,"ĠWeve":7057,"ĠLat":7058,"ĠVARCHAR":7059,"Ġprebuilt":7060,"ĠTools":7061,"Ġexchange":7062,"However":7063,"Bot":7064,"Ġcompos":7065,"Ġutilizing":7066,"enture":7067,"Ġonboarding":7068,"Ġcandid":7069,"ĠPolicies":7070,"Ġadministration":7071,"IoT":7072,"Ġcodes":7073,"Ġenv":7074,"Ġmaximize":7075,"Ġextraction":7076,"Ġspin":7077,"PL":7078,"ĠLambdaEdge":7079,"ĠPrem":7080,"Ġfootprint":7081,"untu":7082,"isher":7083,"ĠPipelines":7084,"Ġconsumed":7085,"Ġhit":7086,"Ġexpress":7087,"ĠYork":7088,"Api":7089,"export":7090,"ĠResearch":7091,"eto":7092,"ĠFluent":7093,"Ġbringing":7094,"Ġtemperature":7095,"Ġattempt":7096,"arant":7097,"ĠMX":7098,"ĠFleet":7099,"ĠDataBrew":7100,"Ġ70":7101,"Ġstudent":7102,"alone":7103,"ĠReact":7104,"ĠConnection":7105,"ĠJan":7106,"Ġagree":7107,"ĠMa":7108,"application":7109,"Ġhuge":7110,"Ġcanary":7111,"Ġshut":7112,"Ġbuilders":7113,"Ġdouble":7114,"Ġq":7115,"ĠENI":7116,"health":7117,"Ġtrade":7118,"limit":7119,"loads":7120,"Ġsubset":7121,"ĠThats":7122,"rip":7123,"Ġenjoy":7124,"68":7125,"result":7126,"Ġspecifying":7127,"Ġinterval":7128,"Ġgenom":7129,"Ġtax":7130,"Ġlifting":7131,"ĠParallelCluster":7132,"ĠLanguage":7133,"Ġinitiate":7134,"Ġprivileges":7135,"ULT":7136,"pack":7137,"ailed":7138,"Ġdetector":7139,"ibrary":7140,"Ġthus":7141,"ĠCodeGuru":7142,"CESS":7143,"ship":7144,"Ġdefaults":7145,"ĠMarketing":7146,"Ġvirtually":7147,"Lab":7148,"Ġtreat":7149,"Ġstr":7150,"Ġdimensions":7151,"Ġtens":7152,"itiz":7153,"Ġprivilege":7154,"arma":7155,"ĠSkill":7156,"ĠTag":7157,"container":7158,"Ġattende":7159,"resource":7160,"Of":7161,"PI":7162,"Ġmis":7163,"ĠPe":7164,"ĠMessage":7165,"Ġinspection":7166,"DER":7167,"cost":7168,"cert":7169,"Ġdifferences":7170,"Ġhighlights":7171,"ĠAdministr":7172,"Ġimportance":7173,"ĠJohn":7174,"Ġmeaningful":7175,"Search":7176,"fort":7177,"files":7178,"making":7179,"Ġneeding":7180,"Ġidentifies":7181,"Ġfinish":7182,"ooth":7183,"ĠREAD":7184,"roy":7185,"Ġsaving":7186,"Ġdefinitions":7187,"Ġwhenever":7188,"ĠRepository":7189,"Ġadvantages":7190,"Ġwarehous":7191,"Ã³n":7192,"Ġnearly":7193,"ĠIM":7194,"ĠMFA":7195,"9999":7196,"EMA":7197,"Address":7198,"ĠOT":7199,"alkthrough":7200,"Frame":7201,"aa":7202,"tar":7203,"ĠONT":7204,"Ġautomating":7205,"Ġprotot":7206,"Ġ99":7207,"Ġgraphs":7208,"ĠAuthentication":7209,"viously":7210,"Ġmassive":7211,"HSM":7212,"ĠProduction":7213,"Ġsubst":7214,"Web":7215,"ĠONTAP":7216,"ĠRoles":7217,"Ġauthenticated":7218,"ĠMultiAZ":7219,"Ġcrucial":7220,"Ġvault":7221,"ultane":7222,"Ġthereby":7223,"Ġrecorded":7224,"ĠSingap":7225,"Col":7226,"ĠPII":7227,"ĠNitro":7228,"Ġencount":7229,"metric":7230,"Ġtroubleshooting":7231,"Ġexerc":7232,"Ġexcell":7233,"Ġassumes":7234,"Ġpatching":7235,"iver":7236,"Ġcapital":7237,"Ġmeasures":7238,"ĠCDC":7239,"Ġguardrails":7240,"ĠGET":7241,"Ġhighquality":7242,"mlin":7243,"dynam":7244,"ocket":7245,"ĠBill":7246,"Ġshard":7247,"Ġunc":7248,"Ġunst":7249,"ĠAnalyzer":7250,"Ġproof":7251,"prefix":7252,"ĠComplete":7253,"Container":7254,"Ġviewers":7255,"ĠYAML":7256,"05":7257,"Last":7258,"ĠEmail":7259,"Ġround":7260,"plunk":7261,"ĠAuth":7262,"ĠIntern":7263,"fect":7264,"hol":7265,"kers":7266,"Ġmask":7267,"olden":7268,"Change":7269,"month":7270,"Ġmeant":7271,"Ġotherwise":7272,"Ġrepresentation":7273,"ĠHealthcare":7274,"Ġsometimes":7275,"ĠWhy":7276,"ofthe":7277,"Ġsenior":7278,"ĠPan":7279,"Ġspan":7280,"Ġbuilder":7281,"Ġanything":7282,"Gateway":7283,"first":7284,"task":7285,"cel":7286,"ĠScient":7287,"Ġlabeled":7288,"Ġprepared":7289,"Ġcompletes":7290,"Ġreceiving":7291,"Ġextensive":7292,"Script":7293,"Ġrespectively":7294,"gy":7295,"Ġyoud":7296,"poch":7297,"Ġlinked":7298,"ĠCurrent":7299,"Ġfinance":7300,"ĠResponse":7301,"ĠKeys":7302,"Network":7303,"lots":7304,"Ġseem":7305,"Ġcommitted":7306,"ĠCity":7307,"message":7308,"Ġpill":7309,"clus":7310,"Target":7311,"Ġframes":7312,"imator":7313,"race":7314,"101":7315,"CF":7316,"astion":7317,"ober":7318,"Ġzip":7319,"Ġcharacteristics":7320,"Ġtodays":7321,"Ġdistribute":7322,"latency":7323,"ca":7324,"Ġden":7325,"Ġbi":7326,"Ġreadonly":7327,"Another":7328,"Ġcommitment":7329,"Package":7330,"lers":7331,"comput":7332,"Ġclaims":7333,"Ġglue":7334,"ĠMost":7335,"licks":7336,"Ġcollaborate":7337,"dis":7338,"Ġrealize":7339,"Ġap":7340,"ĠBr":7341,"Ġfederation":7342,"PA":7343,"Provider":7344,"Ġsimplified":7345,"Ġassistance":7346,"Ġobserve":7347,"Ġretry":7348,"ĠConsult":7349,"Equals":7350,"Ġnotes":7351,"orp":7352,"ĠiOS":7353,"Ġfs":7354,"otive":7355,"ĠTotal":7356,"Ġweight":7357,"ĠComputer":7358,"ĠCIS":7359,"Ġorg":7360,"alancers":7361,"kubectl":7362,"ĠFort":7363,"istry":7364,"Ġweather":7365,"Ġworkst":7366,"const":7367,"ĠOrigin":7368,"Ġstandby":7369,"Ġaligned":7370,"Ġscaled":7371,"Ġprecision":7372,"Ġconsuming":7373,"ĠCollect":7374,"ĠJune":7375,"Ġdisruption":7376,"icksight":7377,"ipped":7378,"Analy":7379,"ĠCanvas":7380,"Description":7381,"Ġcompil":7382,"igger":7383,"Studio":7384,"Ġtagging":7385,"Ġgranted":7386,"Ġexpired":7387,"Ġfactor":7388,"ĠBoth":7389,"Capacity":7390,"Ġskip":7391,"ĠMarch":7392,"semb":7393,"ĠJDBC":7394,"ĠProxy":7395,"Base":7396,"sample":7397,"Ġinject":7398,"amplify":7399,"ĠRunner":7400,"Ġwebsites":7401,"ĠIntelligent":7402,"ĠNLB":7403,"Ġattention":7404,"Ġregional":7405,"ITH":7406,"Ġforecasts":7407,"ĠAssociate":7408,"gt":7409,"ĠEN":7410,"Ġalias":7411,"apache":7412,"Ġdistinct":7413,"graph":7414,"ĠReference":7415,"Ġdeletion":7416,"ĠEnglish":7417,"Ġsuitable":7418,"current":7419,"Ġ26":7420,"Ġlandscape":7421,"Ġmitigate":7422,"Full":7423,"paring":7424,"ague":7425,"Ġcompr":7426,"Ġkms":7427,"ĠImplement":7428,"Press":7429,"olith":7430,"Ġ29":7431,"Ġdecou":7432,"Ġisolated":7433,"Ġwhitep":7434,"olver":7435,"pem":7436,"provision":7437,"Monitor":7438,"ategory":7439,"Ġconstantly":7440,"Ġopin":7441,"Ġcompetitive":7442,"Ġglobe":7443,"urement":7444,"ung":7445,"umb":7446,"Ġinterpre":7447,"Ġoffice":7448,"Ġremoves":7449,"Ġdon":7450,"Ġlives":7451,"Ġrestaur":7452,"ĠCommunity":7453,"Ġsatellite":7454,"HP":7455,"feature":7456,"Ġsimultane":7457,"Ġdiscount":7458,"Ġindicate":7459,"Ġannotations":7460,"TML":7461,"ĠPOST":7462,"Ġplaced":7463,"Ġlimitations":7464,"mediate":7465,"Enc":7466,"Ġcharacters":7467,"Ġlanding":7468,"Ġquota":7469,"Ġfre":7470,"ĠĠĠĠĠĠĠĠĠĠĠ":7471,"Ġpassing":7472,"Ġemails":7473,"ĠSFTP":7474,"SEC":7475,"Ġclicks":7476,"isco":7477,"outing":7478,"89":7479,"site":7480,"Ġà¤":7481,"ĠCar":7482,"ibly":7483,"ĠIntel":7484,"Although":7485,"ĠAttribute":7486,"MA":7487,"ĠLand":7488,"Ġsimulate":7489,"Events":7490,"Ġfriends":7491,"target":7492,"ĠAre":7493,"Ġreuse":7494,"expected":7495,"ĠStartup":7496,"metrics":7497,"Ġexciting":7498,"ography":7499,"ĠINSERT":7500,"ĠMedical":7501,"Ġbacked":7502,"Ġaccomplish":7503,"Ġoutcome":7504,"Verify":7505,"Ġthrott":7506,"ĠDr":7507,"Ġreaders":7508,"Ġwants":7509,"Ġexecuting":7510,"Ġpartitioning":7511,"USER":7512,"ĠINFO":7513,"TH":7514,"Ġkernel":7515,"Ġintegrity":7516,"Ġhttpsaws":7517,"ĠCDN":7518,"ĠJust":7519,"Ġtranscript":7520,"Ġstackname":7521,"ĠChief":7522,"Ġbecoming":7523,"ĠMXNet":7524,"Lake":7525,"Ġage":7526,"entral":7527,"iforn":7528,"lied":7529,"lenec":7530,"Ġpie":7531,"ĠEven":7532,"ĠPo":7533,"Ġ400":7534,"urred":7535,"Ġcloser":7536,"Ġbiggest":7537,"Ġhyperparameter":7538,"Socket":7539,"Ġvulnerabilities":7540,"Ġcitiz":7541,"Ġbeg":7542,"cles":7543,"clud":7544,"Ġinstalling":7545,"Ġ__":7546,"ĠHD":7547,"ĠIndex":7548,"comawss":7549,"Ġconsulting":7550,"Ġfoundational":7551,"ĠSingapore":7552,"licity":7553,"Ġunstructured":7554,"ĠSw":7555,"spaces":7556,"ĠRuntime":7557,"Ġmiddle":7558,"rowse":7559,"grade":7560,"Ġlinear":7561,"ĠProtocol":7562,"dd":7563,"Ġmusic":7564,"Ġtracks":7565,"Ġconstructs":7566,"Ġdimension":7567,"Ġdepartment":7568,"Ġbelong":7569,"Ġcompression":7570,"attle":7571,"rep":7572,"Ġpi":7573,"aria":7574,"ITY":7575,"ĠSubnet":7576,"ĠOK":7577,"Ġentries":7578,"59":7579,"ĠLabels":7580,"ĠNational":7581,"END":7582,"ĠKeep":7583,"Ġpaper":7584,"Ġrein":7585,"Ġvol":7586,"Ġdetects":7587,"Ġcoverage":7588,"Ġsyntax":7589,"Identity":7590,"123456789012":7591,"GP":7592,"number":7593,"aler":7594,"Ġmag":7595,"Ġ10000":7596,"Ġchecking":7597,"Ġschemas":7598,"Ġdeleting":7599,"Ġinvestments":7600,"Ġneural":7601,"iking":7602,"Ġthinking":7603,"ĠEst":7604,"andbox":7605,"minute":7606,"MPLE":7607,"Ġtoward":7608,"During":7609,"Ġpredictor":7610,"Ġbottlenec":7611,"Ġepis":7612,"raft":7613,"Ġdynamodb":7614,"lin":7615,"Ġconference":7616,"core":7617,"hour":7618,"Ġdepth":7619,"Ġcredential":7620,"Ġunn":7621,"Ġanyone":7622,"Ġbecame":7623,"onsuming":7624,"Ġturned":7625,"ĠKibana":7626,"irectory":7627,"ĠSecond":7628,"ĠShare":7629,"ĠHello":7630,"onym":7631,"Ġtimeconsuming":7632,"handler":7633,"zone":7634,"eflow":7635,"Ġserved":7636,"Enable":7637,"FILE":7638,"Ġscratch":7639,"Ġhorizon":7640,"update":7641,"Ġfinally":7642,"ĠInstitute":7643,"Additionally":7644,"ĠDetails":7645,"isting":7646,"Ġrecipe":7647,"Options":7648,"Ps":7649,"Ġwater":7650,"lerocket":7651,"Ġmultitenant":7652,"Ġhim":7653,"ĠPay":7654,"ĠNorth":7655,"Ġlogger":7656,"Ġidle":7657,"Ġthought":7658,"click":7659,"iration":7660,"Ġawss":7661,"Ġdigit":7662,"Up":7663,"warding":7664,"ĠGiB":7665,"Ġ27":7666,"Ġcheckpoint":7667,"ĠDockerfile":7668,"regon":7669,"SI":7670,"licated":7671,"inuous":7672,"Ġserial":7673,"Ġsimulations":7674,"Ġnatively":7675,"ĠSavings":7676,"ye":7677,"ĠPDF":7678,"ĠWrite":7679,"Ġcallback":7680,"dataset":7681,"Ġpublishing":7682,"09":7683,"cf":7684,"ĠCloudHSM":7685,"Ġaccordingly":7686,"las":7687,"Ġha":7688,"MO":7689,"Ġsimpler":7690,"DynamoDB":7691,"ĠMark":7692,"ĠHSM":7693,"Ġfolders":7694,"Ġoptionally":7695,"Ġleveraged":7696,"address":7697,"Ġpushed":7698,"ĠMobile":7699,"endly":7700,"Ġreleases":7701,"ĠApril":7702,"ĠSE":7703,"ĠWord":7704,"Ġprocessor":7705,"token":7706,"Ġbegan":7707,"ĠOffic":7708,"Ġpara":7709,"Ġorchestrate":7710,"Ġgradu":7711,"Ġrotation":7712,"Ġdelegated":7713,"Ġmilliseconds":7714,"ĠDeploying":7715,"ifornia":7716,"ĠPCI":7717,"Want":7718,"mn":7719,"ivate":7720,"Ġalongside":7721,"istent":7722,"Ġmaps":7723,"Ġvertical":7724,"Ġinitiative":7725,"weight":7726,"Avail":7727,"ĠTO":7728,"ĠTags":7729,"Ġhalf":7730,"Ġmultic":7731,"timestamp":7732,"Ġacknowledge":7733,"Ġeight":7734,"ĠIaC":7735,"quired":7736,"ORM":7737,"ĠShow":7738,"Ġconcer":7739,"FAULT":7740,"Ġsegmentation":7741,"catalog":7742,"known":7743,"Ġche":7744,"Ġcame":7745,"ĠPRO":7746,"ĠInv":7747,"Ġautomates":7748,"ĠTechnologies":7749,"Ġhyp":7750,"adow":7751,"ĠAlternatively":7752,"Ġtimel":7753,"ĠTimestream":7754,"ots":7755,"open":7756,"args":7757,"Ġkeyvalue":7758,"ĠTesting":7759,"Agent":7760,"ĠOregon":7761,"Ġsimplicity":7762,"Ġadopting":7763,"Ġhighlighted":7764,"prom":7765,"arp":7766,"ĠTV":7767,"FT":7768,"Ġautoscaling":7769,"shops":7770,"ĠSpectrum":7771,"Ġequiv":7772,"yber":7773,"Ġinvocations":7774,"Ġexperienced":7775,"Ġextremely":7776,"WT":7777,"stract":7778,"antum":7779,"intensive":7780,"Ġplaces":7781,"Ġstreamline":7782,"ĠURLs":7783,"Ġsubscript":7784,"Ġwizard":7785,"ĠFI":7786,"Ġobserved":7787,"ĠIndia":7788,"Ġregularly":7789,"Domain":7790,"Ġwidth":7791,"Ġwomen":7792,"rypted":7793,"Ġevolve":7794,"ĠWorking":7795,"Ġdialog":7796,"Ġsw":7797,"Ġwish":7798,"ĠTop":7799,"ĠGuru":7800,"pipeline":7801,"ashion":7802,"Ġcores":7803,"Ġsynthe":7804,"ĠBraket":7805,"Ġfavorite":7806,"No":7807,"Ġssm":7808,"ĠEqu":7809,"Ġmapped":7810,"ondon":7811,"Ġzones":7812,"Ġtranslate":7813,"Ġconversations":7814,"Ġinformed":7815,"Ġultimately":7816,"Ġsubscriptions":7817,"facing":7818,"ĠDa":7819,"Ġestimate":7820,"ĠRetrie":7821,"Ġsituations":7822,"letter":7823,"Host":7824,"ife":7825,"uby":7826,"Ġmonolith":7827,"Ġmajority":7828,"Ġcontribute":7829,"Connection":7830,"Ġti":7831,"Ġtouch":7832,"Ġproduced":7833,"Values":7834,"Ġranges":7835,"Ġperfect":7836,"Ġpicture":7837,"ĠVoice":7838,"DL":7839,"bb":7840,"Ġmysql":7841,"Ġprompted":7842,"Ġindependently":7843,"AssumeRole":7844,"Ġstraightforward":7845,"SH":7846,"ĠNO":7847,"Ġdemands":7848,"Principal":7849,"Ġenfor":7850,"Ġprim":7851,"Ġallocated":7852,"Ġss":7853,"ĠHugging":7854,"Ġemer":7855,"repre":7856,"etary":7857,"ĠAmazons":7858,"Ġreviewed":7859,"Ġaccelerator":7860,"Ġprogrammatically":7861,"58":7862,"rs":7863,"ĠSplunk":7864,"izable":7865,"Ġtracing":7866,"ĠAmerica":7867,"Parameters":7868,"Ġasync":7869,"Ġhealthy":7870,"Example":7871,"Ġevaluated":7872,"ĠNoSQL":7873,"Ġscanning":7874,"Ġattacks":7875,"project":7876,"Ġimported":7877,"training":7878,"zing":7879,"Ġdict":7880,"ĠFraud":7881,"Ġidentities":7882,"Ġwebin":7883,"Ġtargeted":7884,"scription":7885,"redit":7886,"03":7887,"Ġnp":7888,"Ġhandled":7889,"incipals":7890,"Ġenhancements":7891,"GBoost":7892,"Ġsituation":7893,"Ent":7894,"sales":7895,"Ġpacket":7896,"ĠAvailable":7897,"erman":7898,"ĠNAME":7899,"Ġpools":7900,"Organ":7901,"Ġtelemetry":7902,"Ġexplicitly":7903,"rb":7904,"ÃŃ":7905,"Ġprices":7906,"atio":7907,"oration":7908,"Ġnested":7909,"123":7910,"Ġgrants":7911,"Sets":7912,"rem":7913,"Ġtransforms":7914,"ĠAddress":7915,"ĠRegister":7916,"Ġreplacing":7917,"Queue":7918,"city":7919,"ĠReserved":7920,"TR":7921,"services":7922,"ĠStud":7923,"Ġdemonstration":7924,"CloudWatch":7925,"RDS":7926,"YS":7927,"sure":7928,"Ġrouted":7929,"ĠNetworking":7930,"Ġcalculated":7931,"Ġregulations":7932,"Based":7933,"andra":7934,"ĠHTML":7935,"Ġarchitects":7936,"ĠDevelopers":7937,"ino":7938,"ĠMar":7939,"Ġexpectations":7940,"Ġretrieval":7941,"ĠDeepLens":7942,"Ġpairs":7943,"06":7944,"Ġtune":7945,"Ġwent":7946,"mise":7947,"Ġ2016":7948,"LIC":7949,"Ġsustainable":7950,"Ġticket":7951,"VC":7952,"Ġforms":7953,"ĠDi":7954,"ĠPricing":7955,"ĠConfiguring":7956,"ĠAZs":7957,"Ġcampaigns":7958,"Ġstren":7959,"Ġquite":7960,"Ġkeyn":7961,"Ġboundaries":7962,"Modified":7963,"fish":7964,"ĠVAL":7965,"error":7966,"ĠAnalysis":7967,"dkr":7968,"Mult":7969,"igible":7970,"Ġtraces":7971,"ĠMLOps":7972,"ĠAnother":7973,"ĠNotebook":7974,"uary":7975,"Ġda":7976,"adog":7977,"ĠQual":7978,"Ġ128":7979,"72":7980,"Format":7981,"Ġstock":7982,"Ġunexpected":7983,"Ġfewer":7984,"XXXXXXXX":7985,"second":7986,"Ġprocessors":7987,"Ġreported":7988,"Ġcoding":7989,"ĠRobo":7990,"buntu":7991,"tlerocket":7992,"ERV":7993,"Ġtechnique":7994,"Ġthreats":7995,"46":7996,"vided":7997,"database":7998,"document":7999,"Ġtransactional":8000,"ĠAnywhere":8001,"comawssamples":8002,"Ġprov":8003,"ĠAustralia":8004,"ĠError":8005,"ĠLondon":8006,"Ġ45":8007,"www":8008,"Ġsql":8009,"Ġshards":8010,"Ġarriv":8011,"ĠXGBoost":8012,"CloudF":8013,"ugust":8014,"Em":8015,"python":8016,"Ġpain":8017,"sem":8018,"context":8019,"Ġvisible":8020,"Ġemp":8021,"Import":8022,"Ġlowlatency":8023,"Ġaccommod":8024,"ĠBlockchain":8025,"ĠvCPUs":8026,"ĠInnovation":8027,"ĠTrack":8028,"ĠEducate":8029,"pha":8030,"ĠFind":8031,"Ġcreative":8032,"Ġanalytical":8033,"Convert":8034,"Only":8035,"Summary":8036,"Ġchoices":8037,"Ġacts":8038,"Ġsurface":8039,"ĠVerify":8040,"Ġtoler":8041,"Ġaccelerated":8042,"urers":8043,"ĠExecut":8044,"Ġlowest":8045,"Ġaccurately":8046,"Ġburst":8047,"MPLETE":8048,"vidence":8049,"ĠIce":8050,"Ġexposed":8051,"Ġphases":8052,"ĠSSD":8053,"WAN":8054,"Ġsour":8055,"Conf":8056,"Db":8057,"atest":8058,"ĠLibrary":8059,"ĠWebSocket":8060,"Ġdiscussion":8061,"Ġfaced":8062,"Serverless":8063,"ĠIndustry":8064,"sk":8065,"Ġ1234":8066,"Database":8067,"Ġreus":8068,"ĠTur":8069,"ĠRetail":8070,"opped":8071,"rations":8072,"eces":8073,"Ġjq":8074,"Exception":8075,"Ġcurated":8076,"Ġroadmap":8077,"Ġautonomous":8078,"ara":8079,"ĠAWSs":8080,"ades":8081,"ATH":8082,"Ġpredicted":8083,"Artifact":8084,"Ġconverted":8085,"ĠMW":8086,"ĠSteps":8087,"num":8088,"ĠFilter":8089,"Ġnoted":8090,"ĠApply":8091,"Ġclicking":8092,"Ġscientist":8093,"ĠDetector":8094,"Ġtransparent":8095,"WOR":8096,"antic":8097,"chedule":8098,"IDC":8099,"Ġreality":8100,"spect":8101,"ĠCalifornia":8102,"Ġconcerns":8103,"Ġwhose":8104,"ĠYear":8105,"ASS":8106,"ĠProvide":8107,"glue":8108,"Ġsynchronous":8109,"arter":8110,"Ġactivate":8111,"ĠPremier":8112,"Ġevolving":8113,"ĠEncryption":8114,"ĠDAG":8115,"Ġseason":8116,"oods":8117,"Ġ31":8118,"ĠDistro":8119,"ailor":8120,"Ġoptimizations":8121,"qs":8122,"ctors":8123,"ario":8124,"ĠIPs":8125,"ĠLifecycle":8126,"uel":8127,"rown":8128,"Ġdistance":8129,"Ġappliance":8130,"Ġscheduler":8131,"Ġprobability":8132,"va":8133,"Ġinfo":8134,"configured":8135,"Ġnearreal":8136,"andas":8137,"Ġfeat":8138,"Ġreferences":8139,"Space":8140,"Ġwatching":8141,"plore":8142,"Ġdise":8143,"Ġannual":8144,"Ph":8145,"Ġforum":8146,"ĠIrel":8147,"Ġmultip":8148,"ĠHelm":8149,"49":8150,"Lift":8151,"Ġepoch":8152,"ellow":8153,"ĠLayer":8154,"ĠAutopilot":8155,"IPAA":8156,"Ġpresents":8157,"nostic":8158,"Ġcatch":8159,"leep":8160,"root":8161,"001":8162,"Ġabstract":8163,"person":8164,"Ġworth":8165,"Ġpractical":8166,"Ġtransforming":8167,"Ġretrieved":8168,"Ġattachment":8169,"Ġpropag":8170,"Ġslot":8171,"ĠTheir":8172,"Ġdisabled":8173,"Ġcorner":8174,"Ġverified":8175,"innaker":8176,"Ġconvenient":8177,"Ġattendees":8178,"has":8179,"rief":8180,"Ġecr":8181,"Ġupgrades":8182,"Ġestimated":8183,"57":8184,"uce":8185,"ĠHadoop":8186,"ightsail":8187,"ields":8188,"Ġsignal":8189,"Ġuploads":8190,"roducing":8191,"eleb":8192,"Record":8193,"Ġpiece":8194,"ĠSouth":8195,"ĠLo":8196,"Ġvast":8197,"Ġlost":8198,"2019":8199,"Ġsaves":8200,"ĠOctober":8201,"Co":8202,"GS":8203,"Vis":8204,"ervation":8205,"ĠContainers":8206,"Ġmaintained":8207,"coding":8208,"Through":8209,"Volume":8210,"era":8211,"Ġenroll":8212,"cli":8213,"uk":8214,"ĠPublish":8215,"Ġcapable":8216,"Ġrealized":8217,"Ġdiagno":8218,"ĠMc":8219,"Ġimmediate":8220,"mode":8221,"isk":8222,"Ġspecifies":8223,"ĠScientist":8224,"Ġnet":8225,"Ġconnectors":8226,"Ġspecification":8227,"fin":8228,"iencies":8229,"ĠVision":8230,"Ġcontinued":8231,"Ġstructures":8232,"ĠIreland":8233,"ĠGrant":8234,"ĠExecution":8235,"ĠÂłĠ":8236,"Ġtraveling":8237,"Instances":8238,"Ġaffected":8239,"mt":8240,"ĠVolume":8241,"Ġcomputational":8242,"Ġimplementations":8243,"Ġboost":8244,"ĠDepending":8245,"ĠConsultant":8246,"Cost":8247,"Ġspoke":8248,"Ġsoph":8249,"arr":8250,"Ġurl":8251,"Ġemerg":8252,"ĠSDDC":8253,"Ġfashion":8254,"Ġrank":8255,"ĠVari":8256,"Ġcaller":8257,"Ġtalks":8258,"ĠAws":8259,"luon":8260,"Ġcharged":8261,"Ġcybersecurity":8262,"Ġmalicious":8263,"mer":8264,"Ġ75":8265,"Ġbanking":8266,"authorized":8267,"asp":8268,"ĠHIPAA":8269,"Seconds":8270,"Ġsuggestions":8271,"plements":8272,"ĠWait":8273,"Ġshopping":8274,"ACK":8275,"Ġolder":8276,"RING":8277,"Ġhouse":8278,"console":8279,"pass":8280,"riers":8281,"Ġreferred":8282,"available":8283,"Ġsound":8284,"Ġschool":8285,"struct":8286,"ĠSan":8287,"ĠMat":8288,"Ġequal":8289,"reet":8290,"ĠItem":8291,"Ġlisting":8292,"Ġviewing":8293,"Users":8294,"ĠShared":8295,"Ġconsistently":8296,"ĠPractices":8297,"Names":8298,"Wait":8299,"Ġgap":8300,"eper":8301,"Ġbegins":8302,"Ġ20210":8303,"Ġsubmitted":8304,"Groups":8305,"Me":8306,"fd":8307,"Ã§":8308,"ĠHat":8309,"2020":8310,"Ġhourly":8311,"SE":8312,"ĠSM":8313,"ĠAppFlow":8314,"168":8315,"Ġboxes":8316,"can":8317,"sagemaker":8318,"ĠDL":8319,"ayload":8320,"Content":8321,"Ġexpos":8322,"Ġgovernments":8323,"ĠRemote":8324,"Ġsophistic":8325,"Ġlikes":8326,"rone":8327,"cr":8328,"Ġhum":8329,"ĠPT":8330,"Ġupstream":8331,"ospatial":8332,"Ġdurability":8333,"Act":8334,"VP":8335,"alty":8336,"CHEMA":8337,"NA":8338,"bl":8339,"ients":8340,"Ġ36":8341,"Ġovercome":8342,"Ġidentifi":8343,"Ġrecognize":8344,"Ġforce":8345,"touse":8346,"leets":8347,"Ġperformant":8348,"Ġorganize":8349,"abelfish":8350,"Ġguides":8351,"ĠLabs":8352,"Ġnegative":8353,"Ġfundamental":8354,"Ġexercise":8355,"Ġdestroy":8356,"Ġmarkets":8357,"Ġequivalent":8358,"AX":8359,"hi":8360,"ini":8361,"Ġnginx":8362,"ĠUP":8363,"instances":8364,"Building":8365,"ĠMWAA":8366,"08":8367,"Route":8368,"uron":8369,"Ġnewer":8370,"Ġinterview":8371,"Ġreader":8372,"ĠINTO":8373,"Ġreact":8374,"Ġevidence":8375,"ĠPack":8376,"ĠRPO":8377,"Ġabs":8378,"ashing":8379,"Ġperiodically":8380,"Ġcontrolled":8381,"Ġnonprofit":8382,"ariaDB":8383,"ny":8384,"xml":8385,"Ġsrc":8386,"ĠSH":8387,"Ġonboard":8388,"ĠPST":8389,"Ġreserved":8390,"Ġimplements":8391,"Ġpasses":8392,"Ġachieving":8393,"Ġrace":8394,"ĠORDER":8395,"cers":8396,"Ġrenew":8397,"ĠFA":8398,"Ġkeeps":8399,"Ġguidelines":8400,"Ġwidely":8401,"ĠDCV":8402,"Public":8403,"pact":8404,"ĠImpro":8405,"Ġcombining":8406,"Ġremotely":8407,"var":8408,"Ġinbox":8409,"ĠGerman":8410,"ĠScal":8411,"Ġcollecting":8412,"Ġfactory":8413,"ĠRecomm":8414,"Ġattempts":8415,"Ġstable":8416,"ĠPredict":8417,"Ġdetermines":8418,"Demo":8419,"ĠJanuary":8420,"hib":8421,"Ġfirm":8422,"ica":8423,"Ġmand":8424,"Ġbid":8425,"ĠTre":8426,"ĠHLS":8427,"ĠJO":8428,"Ġanalyzed":8429,"true":8430,"ĠAppro":8431,"Ġwhitepaper":8432,"LD":8433,"ĠAPAC":8434,"Ġrepe":8435,"ĠMetric":8436,"ugin":8437,"Ġtransferred":8438,"Ġcredits":8439,"Ġincorporate":8440,"fit":8441,"nce":8442,"ĠComments":8443,"Ġincred":8444,"execution":8445,"Ġcombines":8446,"compatible":8447,"deployment":8448,"Ġdetermined":8449,"Ġunnecessary":8450,"ĠXML":8451,"Ġaccelerating":8452,"Ġexamine":8453,"ĠEner":8454,"Ġexit":8455,"Ġexpose":8456,"Ġmultim":8457,"Ġraise":8458,"Ġfacing":8459,"Allow":8460,"iff":8461,"Ġsomeone":8462,"Ġportion":8463,"Ġplacement":8464,"Ġinstrument":8465,"ĠRoboMaker":8466,"kdir":8467,"Ġsl":8468,"ĠServ":8469,"ĠDX":8470,"ĠDate":8471,"ĠDemo":8472,"ĠIceberg":8473,"Ġstyle":8474,"emon":8475,"apes":8476,"ĠArt":8477,"exp":8478,"Control":8479,"Ġhappening":8480,"ael":8481,"ership":8482,"ĠLightsail":8483,"ensitive":8484,"appro":8485,"ĠController":8486,"Ġpackaged":8487,"ĠSimilarly":8488,"Ġintroduction":8489,"times":8490,"CC":8491,"Ġfarm":8492,"00000000":8493,"Ġparse":8494,"ĠHyper":8495,"ĠPresident":8496,"link":8497,"option":8498,"rator":8499,"Ġtips":8500,"Ġpour":8501,"Ġremember":8502,"ĠChannel":8503,"Core":8504,"Ġpropri":8505,"ĠHaving":8506,"Ġpackaging":8507,"Ġcertifications":8508,"ĠSynt":8509,"ĠCMK":8510,"Handler":8511,"istribut":8512,"ĠHero":8513,"ttp":8514,"Ġcomputation":8515,"ĠCodeDeploy":8516,"Ġimpacts":8517,"Ġperiods":8518,"Ġrepresented":8519,"Ġsimultaneously":8520,"Ġhavent":8521,"Batch":8522,"QU":8523,"ĠCyber":8524,"Ġconfirmation":8525,"Attributes":8526,"https":8527,"Ġnumerous":8528,"Were":8529,"Ġcfn":8530,"ĠSl":8531,"ĠCF":8532,"ĠRA":8533,"ronic":8534,"liers":8535,"identity":8536,"tty":8537,"ĠAdding":8538,"ĠShield":8539,"Ġcaptures":8540,"Ġparallelism":8541,"top":8542,"ĠAf":8543,"omin":8544,"ami":8545,"ailure":8546,"commit":8547,"mitted":8548,"Ġeducational":8549,"Tier":8550,"ley":8551,"ĠUpd":8552,"Ġpopulation":8553,"MAR":8554,"docker":8555,"ming":8556,"Ġsing":8557,"Ġupfront":8558,"Ġplanned":8559,"ĠOnline":8560,"Ġguarant":8561,"Provide":8562,"ĠEditor":8563,"Customer":8564,"Ġannotation":8565,"Ġburden":8566,"Ġcircuit":8567,"Ġpy":8568,"raining":8569,"Ġtopo":8570,"Ġchance":8571,"Ġintroduces":8572,"Ġio":8573,"review":8574,"Ġbastion":8575,"Ġscans":8576,"Ġenvironmental":8577,"Attribute":8578,"ĠJobs":8579,"Machine":8580,"SION":8581,"ĠTTL":8582,"Ġgrows":8583,"Ġadopted":8584,"Auto":8585,"Ġresolver":8586,"Ġofficial":8587,"private":8588,"Ġdatetime":8589,"ĠGROUP":8590,"Ġseven":8591,"PUT":8592,"erequisite":8593,"Ġmovement":8594,"Integ":8595,"main":8596,"Ġmeasured":8597,"Ġstandalone":8598,"97":8599,"Ġheart":8600,"ĠKer":8601,"profile":8602,"Ġorganis":8603,"Ġrelatively":8604,"ITION":8605,"Ġmodifying":8606,"Ġlib":8607,"ĠRStudio":8608,"Ġtruth":8609,"Subscribe":8610,"Ġiterate":8611,"Ġcal":8612,"ĠSET":8613,"astore":8614,"Ġconversational":8615,"Ġdead":8616,"dapt":8617,"Ġversus":8618,"POINT":8619,"ĠPool":8620,"append":8621,"Schema":8622,"password":8623,"ingress":8624,"str":8625,"ĠGW":8626,"Init":8627,"ponent":8628,"Ġmonitored":8629,"uitive":8630,"Ġevolution":8631,"Ġevaluating":8632,"Ġconcern":8633,"Ġgaming":8634,"acle":8635,"Ġtranscription":8636,"Ġinvolve":8637,"Ġconsidering":8638,"ĠDatabases":8639,"jar":8640,"Ġgrid":8641,"Ġboard":8642,"hood":8643,"ĠBre":8644,"Ġunused":8645,"RESS":8646,"TABLE":8647,"card":8648,"labels":8649,"ĠAV":8650,"ĠDeny":8651,"Ġlistener":8652,"Ġgateways":8653,"ĠChallenge":8654,"Ġemerging":8655,"Node":8656,"params":8657,"à¥":8658,"ĠSend":8659,"ulated":8660,"Ġsup":8661,"oget":8662,"Ġmeets":8663,"Ġengaging":8664,"Ġinitially":8665,"Ġpetabytes":8666,"mits":8667,"Ġlos":8668,"ĠNFS":8669,"ĠQA":8670,"apps":8671,"Ġmaterialized":8672,"Ġsophisticated":8673,"iÃ³n":8674,"Ġlapt":8675,"ĠBlack":8676,"Ġvariant":8677,"Ids":8678,"Ġplot":8679,"Ġbash":8680,"Ġheld":8681,"Ġrelies":8682,"Ġserverside":8683,"Ġprocurement":8684,"MQ":8685,"Ġdraw":8686,"sex":8687,"ĠAlready":8688,"ĠInspector":8689,"ĠÃ©":8690,"Index":8691,"Ġoverl":8692,"Ġunauthorized":8693,"Ġentirely":8694,"Ġdiscovered":8695,"à¹Ī":8696,"inite":8697,"ĠSI":8698,"depend":8699,"ĠDedicated":8700,"ĠPHP":8701,"Ġupcoming":8702,"à¸Ļ":8703,"ROLE":8704,"Ġcollects":8705,"Ġassumed":8706,"your":8707,"unic":8708,"ĠMariaDB":8709,"production":8710,"ĠEU":8711,"ĠIngress":8712,"Ġtimely":8713,"ĠExport":8714,"Spark":8715,"Ġpartnership":8716,"ĠProtection":8717,"ĠGameLift":8718,"Ġrendering":8719,"Ġwidget":8720,"urer":8721,"ĠJuly":8722,"ĠDynamic":8723,"tilization":8724,"Ġproprietary":8725,"Ġdirection":8726,"iced":8727,"irms":8728,"ĠManaging":8729,"Ġmodernizing":8730,"Ġpersonalization":8731,"Ġexperimentation":8732,"Ġeliminate":8733,"ĠExpress":8734,"Location":8735,"Ġtmp":8736,"inue":8737,"ĠDestination":8738,"Ġratio":8739,"ĠGr":8740,"Ġcustomization":8741,"Ġclon":8742,"acu":8743,"à¸ģ":8744,"Ġutilized":8745,"ĠOfficer":8746,"Ã¨":8747,"ĠSci":8748,"ĠRTO":8749,"Ġintermediate":8750,"Ext":8751,"odate":8752,"Ġpostgres":8753,"ĠAccounts":8754,"Scaling":8755,"there":8756,"Ġtight":8757,"Ġinfer":8758,"efits":8759,"Ġexecutive":8760,"Ġstandardized":8761,"Ġpublishes":8762,"Ġscientific":8763,"ĠGovernment":8764,"07":8765,"inds":8766,"Ġfunding":8767,"à¸£":8768,"Ġmodes":8769,"Records":8770,"Ġvarying":8771,"ĠWordPress":8772,"internal":8773,"ĠDatadog":8774,"ĠCOPY":8775,"Ġexpanding":8776,"Ġpopulate":8777,"ĠEnergy":8778,"GET":8779,"organ":8780,"istory":8781,"look":8782,"ĠNAS":8783,"rought":8784,"position":8785,"ĠArchitects":8786,"ĠAttach":8787,"transform":8788,"Mo":8789,"ĠMaster":8790,"ĠWave":8791,"Ġinteger":8792,"ĠResil":8793,"ĠCommon":8794,"phone":8795,"Works":8796,"ĠConfirm":8797,"Ġviol":8798,"assandra":8799,"Ġwhereas":8800,"ĠSeptember":8801,"Ġadvice":8802,"Ġnoncompliant":8803,"ĠSCPs":8804,"ĠAfric":8805,"ĠElect":8806,"DIR":8807,"Ġpieces":8808,"Ref":8809,"heast":8810,"eral":8811,"Ġowned":8812,"ĠPlans":8813,"record":8814,"Tim":8815,"olog":8816,"Ġflu":8817,"artifact":8818,"ĠHospital":8819,"Ġthanks":8820,"ĠAlert":8821,"Ġdrift":8822,"Identifier":8823,"Ġign":8824,"master":8825,"ĠHash":8826,"Ġfilesystem":8827,"ĠLogic":8828,"Ġmissioncritical":8829,"Ġbundle":8830,"gion":8831,"Ġfair":8832,"urt":8833,"idr":8834,"Ġiot":8835,"Ġafford":8836,"Ġmedium":8837,"Ġreject":8838,"otes":8839,"ĠOpenShift":8840,"ĠSA":8841,"ppings":8842,"tech":8843,"Ġmarketplace":8844,"Ġillustrate":8845,"Ġblueprint":8846,"Ġprovisions":8847,"67":8848,"fil":8849,"lose":8850,"Ġstopped":8851,"green":8852,"Ġstudies":8853,"Ġdestinations":8854,"Ġspecializes":8855,"ĠKubeflow":8856,"42":8857,"MM":8858,"Ġreached":8859,"Ġcomputers":8860,"Ġtagged":8861,"Ġwarehouses":8862,"Ġprimarily":8863,"currency":8864,"repos":8865,"enet":8866,"ented":8867,"forming":8868,"Ġrelative":8869,"Ġstrings":8870,"Rest":8871,"eh":8872,"ĠRecord":8873,"Ġcarbon":8874,"Ġtrip":8875,"ogether":8876,"Feature":8877,"car":8878,"Ġceleb":8879,"artment":8880,"Ġscop":8881,"Ġclimate":8882,"Ġenduser":8883,"ĠAppConfig":8884,"Default":8885,"Ġcaused":8886,"Ġvulnerability":8887,"mesh":8888,"ĠTele":8889,"ĠMon":8890,"Ġincidents":8891,"Ġdebugging":8892,"RS":8893,"2022":8894,"Ġsafely":8895,"Ġdecrease":8896,"Ġarguments":8897,"Ġparties":8898,"Ġimpacted":8899,"Ġalerting":8900,"ĠAdvisor":8901,"Credentials":8902,"Ġprinciple":8903,"ĠTrusted":8904,"ĠSnap":8905,"Acc":8906,"Topic":8907,"hy":8908,"Ġwalks":8909,"ĠFabric":8910,"spark":8911,"Ġutilities":8912,"Ġpartitioned":8913,"Ġembedding":8914,"orrect":8915,"docs":8916,"lice":8917,"ocate":8918,"ASH":8919,"Metric":8920,"UD":8921,"urpose":8922,"Ġentered":8923,"Ġdeletes":8924,"ĠDiscovery":8925,"Ġine":8926,"ĠSOC":8927,"olds":8928,"raction":8929,"ĠRuby":8930,"ipe":8931,"haps":8932,"fers":8933,"Ġwra":8934,"ĠTake":8935,"Ġ..":8936,"plain":8937,"udo":8938,"Ġdefect":8939,"222":8940,"Ġregulated":8941,"Ġcells":8942,"Ġobtained":8943,"Ġprioritize":8944,"Hel":8945,"Ġdoll":8946,"Ġassert":8947,"ĠREGION":8948,"Ġtuned":8949,"Ġmovies":8950,"ecs":8951,"Ġshif":8952,"Ġ256":8953,"Ġnotify":8954,"Ġoverride":8955,"Ġcontinuity":8956,"ĠTravel":8957,"TM":8958,"uing":8959,"ĠAb":8960,"ĠSC":8961,"ĠPi":8962,"Ġdecrypt":8963,"ĠSpecific":8964,"ĠToolkit":8965,"Ġopinions":8966,"But":8967,"UES":8968,"Ġgave":8969,"Ġtrading":8970,"Ġprincipals":8971,"ĠOnly":8972,"1000":8973,"47":8974,"Ġentertainment":8975,"ĠToken":8976,"Ġcompleting":8977,"Ġopening":8978,"Ġ20220":8979,"Bytes":8980,"ĠGenerate":8981,"Ġtiers":8982,"ĠEOF":8983,"ĠFlex":8984,"ĠJWT":8985,"Ġinteroper":8986,"Ġviewer":8987,"Ġproactively":8988,"nn":8989,"ĠEND":8990,"Ġlocate":8991,"arness":8992,"Managed":8993,"Ġwaste":8994,"Ġstrict":8995,"Ġplain":8996,"ĠTransformation":8997,"ĠHealthLake":8998,"Ġtack":8999,"Ġcached":9000,"anish":9001,"Ġbrief":9002,"Ġmoves":9003,"rier":9004,"ĠFalse":9005,"Ġtwe":9006,"ĠDesktop":9007,"ĠGetAtt":9008,"IVE":9009,"ĠAugust":9010,"Ġdeny":9011,"sto":9012,"Ġbrought":9013,"Ġvalidates":9014,"ĠDataset":9015,"Ġpayments":9016,"redshift":9017,"ĠFoundation":9018,"Info":9019,"ĠOffice":9020,"Ġyum":9021,"Ġoperates":9022,"ĠArm":9023,"ĠAutomated":9024,"Ġexpanded":9025,"http":9026,"actoring":9027,"Ġcof":9028,"Ġinvestigate":9029,"ĠExperience":9030,"ĠObserv":9031,"More":9032,"Ġproposed":9033,"Ġunless":9034,"ĠStarting":9035,"Replace":9036,"Ġplugins":9037,"Prefix":9038,"luster":9039,"mat":9040,"network":9041,"Ġfleets":9042,"ĠWhether":9043,"Ġeventually":9044,"Ġterminate":9045,"ĠNetApp":9046,"Ġreplay":9047,"ĠRouting":9048,"ĠOUs":9049,"Ġworkshops":9050,"Ġdrives":9051,"Ġcities":9052,"edge":9053,"Ġexclus":9054,"Ġshape":9055,"Ġextends":9056,"Ġcauses":9057,"ĠInternational":9058,"Mode":9059,"essages":9060,"ĠĠĠĠÂłÂł":9061,"Ġproduces":9062,"ĠScale":9063,"Ġparticipate":9064,"dc":9065,"ening":9066,"Ġanim":9067,"ĠOIDC":9068,"Ġaddressing":9069,"ĠDelta":9070,"Ġpoll":9071,"Ġsecuring":9072,"Ġmodular":9073,"ĠLOB":9074,"Ġtradeoff":9075,"Some":9076,"Ġwarm":9077,"Ġdecisionmaking":9078,"ExecutionRole":9079,"Ġuptodate":9080,"Ġusual":9081,"ichael":9082,"ĠSeattle":9083,"Ġpublisher":9084,"Ġexported":9085,"Ġprompts":9086,"bt":9087,"ĠSchedul":9088,"Ġhiking":9089,"ĠEl":9090,"ĠBabelfish":9091,"Ġawscdk":9092,"Ġretrieves":9093,"ĠTopic":9094,"Ins":9095,"ĠWithin":9096,"ĠPlay":9097,"Ġprofit":9098,"Ġlabor":9099,"Ġscanned":9100,"ĠNon":9101,"Ġpromote":9102,"ĠDashboards":9103,"FullAccess":9104,"Ġwarning":9105,"Ġkick":9106,"ĠApple":9107,"Ġassociation":9108,"Password":9109,"ĠBasic":9110,"Ġdescript":9111,"ONE":9112,"Ġlearners":9113,"AND":9114,"ĠAuthorization":9115,"thereum":9116,"92":9117,"Center":9118,"ulations":9119,"3333":9120,"connected":9121,"Ġsynthetic":9122,"52":9123,"DU":9124,"nes":9125,"osh":9126,"ĠContinuous":9127,"username":9128,"ĠEndpoints":9129,"HIR":9130,"upload":9131,"Ġinline":9132,"eta":9133,"Ġreds":9134,"ĠCapacity":9135,"Ġsciences":9136,"ssl":9137,"ĠUbuntu":9138,"Ġinvalid":9139,"Ġdirectories":9140,"Ġrepresenting":9141,"MENT":9142,"running":9143,"Ġboundary":9144,"Ġrestricted":9145,"Ġprobably":9146,"Ġeconomic":9147,"Ġduplicate":9148,"EW":9149,"groups":9150,"ĠSnapshot":9151,"Ġprod":9152,"Ġintuitive":9153,"Ġ48":9154,"Ġminor":9155,"Ġdecade":9156,"Prot":9157,"Ġaccommodate":9158,"FF":9159,"ĠCUR":9160,"Ġchurn":9161,"ĠScan":9162,"Ġediting":9163,"ĠTwo":9164,"ensions":9165,"Ġdesk":9166,"Profile":9167,"Ã©s":9168,"ĠDefine":9169,"Ġgeograph":9170,"Valid":9171,"ulator":9172,"Ġalter":9173,"ĠBank":9174,"ĠĠĠĠĠĠĠĠĠĠĠĠ":9175,"ĠcrossRegion":9176,"Ġcharts":9177,"Tr":9178,"block":9179,"Ġax":9180,"ĠSEC":9181,"Ġstrug":9182,"Ġresid":9183,"Ġfeeds":9184,"Ġgeospatial":9185,"loit":9186,"Ġnoise":9187,"à¸Ń":9188,"Ġdownloads":9189,"Ġlegal":9190,"linux":9191,"Ġwelcome":9192,"ĠBase":9193,"ebru":9194,"ĠSupp":9195,"ĠTermin":9196,"AMPLE":9197,"Ġquotas":9198,"ĠapiVersion":9199,"ĠWavelength":9200,"Ac":9201,"false":9202,"Ġnu":9203,"ocab":9204,"CTION":9205,"Ġbehaviors":9206,"Ġactively":9207,"Ġtunnel":9208,"Ġmatrix":9209,"Ġnewsletter":9210,"Tags":9211,"Uri":9212,"Ġpreparing":9213,"intime":9214,"egment":9215,"emplates":9216,"Ġclassroom":9217,"ĠOrder":9218,"Ġcounts":9219,"Ġupper":9220,"Ġmanip":9221,"ĠIncre":9222,"Ġresulted":9223,"metadata":9224,"Ġpresence":9225,"SecurityGroup":9226,"Ġtransparency":9227,"field":9228,"Ġmir":9229,"Ġkept":9230,"ĠArtifact":9231,"RET":9232,"GetObject":9233,"Ġfrequent":9234,"Ġderive":9235,"ĠEducation":9236,"Ġadvertising":9237,"ba":9238,"Ġcs":9239,"Ġple":9240,"ĠDS":9241,"ruction":9242,"Ġencoded":9243,"Ġsearching":9244,"Introduction":9245,"ĠPractice":9246,"Join":9247,"ebruary":9248,"ym":9249,"ĠEarth":9250,"umps":9251,"Ġrol":9252,"rule":9253,"Ġhello":9254,"Author":9255,"uffer":9256,"Ġbounding":9257,"ĠVALUES":9258,"rd":9259,"ico":9260,"ado":9261,"join":9262,"Ġbroader":9263,"oscaler":9264,"han":9265,"ĠLD":9266,"Ġdiscusses":9267,"ĠMediaConvert":9268,"Ġintroducing":9269,"generation":9270,"gg":9271,"mark":9272,"Ġtorch":9273,"Ġtold":9274,"ĠAWSEC":9275,"econfig":9276,"Ġpreconfigured":9277,"ĠKP":9278,"Ġbeta":9279,"DNS":9280,"RC":9281,"Ġranging":9282,"astic":9283,"identifier":9284,"Ġissued":9285,"partition":9286,"Ġrefers":9287,"ĠMoreover":9288,"dney":9289,"ĠFHIR":9290,"plan":9291,"ĠBud":9292,"ĠKE":9293,"values":9294,"ĠBottlerocket":9295,"idden":9296,"ĠDepartment":9297,"ĠIndustrial":9298,"Health":9299,"reprene":9300,"Ġmedic":9301,"icket":9302,"Ġmeetings":9303,"Login":9304,"Ġconfigurable":9305,"AccountId":9306,"Ġcompetition":9307,"ĠTwin":9308,"Ġsatisfaction":9309,"ĠCL":9310,"ĠInventory":9311,"pool":9312,"Ġclientside":9313,"Ġuploading":9314,"Ġcool":9315,"ĠGremlin":9316,"vention":9317,"Ġcostly":9318,"resources":9319,"Ġdependent":9320,"Eng":9321,"Ġillustrated":9322,"hus":9323,"igit":9324,"ĠFed":9325,"ĠWed":9326,"apture":9327,"reshold":9328,"ĠStackSet":9329,"Ġelev":9330,"CLUSTER":9331,"Level":9332,"ĠACLs":9333,"environ":9334,"enario":9335,"Ġfan":9336,"Ġste":9337,"vir":9338,"ĠKB":9339,"Ġprerequisite":9340,"Ġshowcase":9341,"Ġbillions":9342,"ailored":9343,"Ġweekly":9344,"Ġthreads":9345,"Support":9346,"ĠProvisioned":9347,"Mig":9348,"That":9349,"jpg":9350,"ĠEthereum":9351,"ĠRUN":9352,"prec":9353,"control":9354,"Ġlabs":9355,"Ip":9356,"Ã£":9357,"Ġargs":9358,"Ġpatches":9359,"Ġrecommends":9360,"Ġearn":9361,"LTER":9362,"Pool":9363,"Save":9364,"Ġdu":9365,"ĠCase":9366,"channel":9367,"Ġlag":9368,"Ġalone":9369,"Ġ199":9370,"Ġstats":9371,"ĠUSER":9372,"Ġreliably":9373,"ĠBoto":9374,"inary":9375,"Ġdrug":9376,"Ġ2000":9377,"Ġattend":9378,"ĠPreviously":9379,"ELETE":9380,"Items":9381,"erole":9382,"Ġinmemory":9383,"Ġmaintains":9384,"Ġwalked":9385,"500":9386,"ĠAdapt":9387,"ĠCT":9388,"abc":9389,"beros":9390,"ĠGateways":9391,"Ġopened":9392,"Ġconsideration":9393,"datas":9394,"Ġcutover":9395,"Serve":9396,"Ġnotified":9397,"connection":9398,"Ġremediate":9399,"ĠstsAssumeRole":9400,"email":9401,"ĠProfile":9402,"ĠSpace":9403,"Ġsecured":9404,"ĠDescribe":9405,"Blog":9406,"Block":9407,"plane":9408,"ĠDele":9409,"Ġcontinually":9410,"Ġjoint":9411,"Running":9412,"Ġgeo":9413,"Ġreplaced":9414,"ĠBilling":9415,"ĠQL":9416,"Ġnorm":9417,"Ġnecess":9418,"akers":9419,"Ġautomotive":9420,"Ġretries":9421,"adem":9422,"ĠmultiRegion":9423,"ĠRegional":9424,"Ġreferenced":9425,"Ġprotecting":9426,"Deployment":9427,"cluding":9428,"ĠSydney":9429,"EKS":9430,"param":9431,"Ġwrong":9432,"ĠCAP":9433,"ĠTyp":9434,"ury":9435,"ĠFast":9436,"Ġprem":9437,"Ġseparately":9438,"ĠDetection":9439,"Ġasking":9440,"Ġdisrupt":9441,"ading":9442,"ĠTheres":9443,"Ġentering":9444,"Metadata":9445,"ĠAdministrator":9446,"bash":9447,"Ġnone":9448,"utable":9449,"Ġsuited":9450,"Ġchief":9451,"ĠOh":9452,"enses":9453,"ĠMediaPackage":9454,"Ġappliances":9455,"bits":9456,"park":9457,"ĠCassandra":9458,"ĠNames":9459,"Ġrare":9460,"Ġtape":9461,"ĠTR":9462,"ĠTables":9463,"ĠWhere":9464,"Ġaddon":9465,"Storage":9466,"annot":9467,"Ġimpacting":9468,"Ġthresholds":9469,"Ġdurable":9470,"Ġargument":9471,"Par":9472,"alanced":9473,"egas":9474,"ĠScript":9475,"Ġcounter":9476,"Ġcontinuing":9477,"riction":9478,"fun":9479,"opt":9480,"Ġsandbox":9481,"Ġwindows":9482,"Ġmail":9483,"Ġoffload":9484,"hosted":9485,"Ġtrials":9486,"Tiering":9487,"Ã£o":9488,"dy":9489,"Ġbalancing":9490,"ĠSustain":9491,"Builder":9492,"ĠInitial":9493,"omaly":9494,"Ġwasnt":9495,"Ġoccurred":9496,"Ġepisode":9497,"Dec":9498,"Ġ09":9499,"Ġwriter":9500,"ĠWithout":9501,"Ġrobotics":9502,"augh":9503,"ĠGDP":9504,"ĠUTC":9505,"arnaws":9506,"Ġcontrollers":9507,"Scale":9508,"detail":9509,"Ġcryptographic":9510,"lig":9511,"Ġtailored":9512,"Ġnoc":9513,"Ġvital":9514,"Ġmappings":9515,"Ġwebhook":9516,"ĠSubmit":9517,"Ġbanks":9518,"ĠFiles":9519,"Ġshipping":9520,"ĠExternal":9521,"ĠIntroduction":9522,"Ġrepeatable":9523,"Ġmerge":9524,"holder":9525,"ĠIntelligentTiering":9526,"Ġrolename":9527,"volume":9528,"ĠModify":9529,"Ġdepartments":9530,"Ġrepeated":9531,"OW":9532,"that":9533,"Ġtrail":9534,"ogene":9535,"filter":9536,"uy":9537,"za":9538,"ĠAL":9539,"elling":9540,"ĠAlways":9541,"Training":9542,"ĠStackSets":9543,"Ġcycles":9544,"Ġcontracts":9545,"dynamodb":9546,"Ġpul":9547,"Ġbridge":9548,"enied":9549,"ifferentiated":9550,"NG":9551,"Ġsit":9552,"Ġinhouse":9553,"ĠWITH":9554,"ĠBalancing":9555,"COMPLETE":9556,"à¹ī":9557,"Ġredundant":9558,"Ġredshift":9559,"Private":9560,"cases":9561,"ĠSch":9562,"ĠWAN":9563,"ighb":9564,"atalyst":9565,"Ġpeer":9566,"ĠBelow":9567,"Ġdrill":9568,"ĠQLDB":9569,"Ġtruly":9570,"pons":9571,"Ġ5000":9572,"Ġpredictable":9573,"Product":9574,"Ġutilizes":9575,"Ġcitizens":9576,"ĠKPIs":9577,"this":9578,"Ġopp":9579,"Ġreboot":9580,"ĠTwitch":9581,"Ġhostname":9582,"Ġfounders":9583,"Ġcopying":9584,"Ġeffects":9585,"Ġlistening":9586,"Ġlaptop":9587,"tf":9588,"Ġtree":9589,"Ġbots":9590,"Ġidentification":9591,"Ġsmooth":9592,"ĠProducts":9593,"Ġredirected":9594,"Dep":9595,"bre":9596,"Ġforwarding":9597,"Ġbatches":9598,"Email":9599,"split":9600,"Ġnaming":9601,"Ġgaps":9602,"viders":9603,"Ġvector":9604,"Ġestimator":9605,"br":9606,"dated":9607,"ula":9608,"Ġplays":9609,"ponents":9610,"Ġcontacts":9611,"ĠReplic":9612,"Ġeliminating":9613,"ĠStrategy":9614,"Ġhierarchy":9615,"85":9616,"Ġyes":9617,"asyou":9618,"Ġrating":9619,"Ġsignals":9620,"Ġcameras":9621,"ERVICE":9622,"Ġeuwest":9623,"unately":9624,"ĠNat":9625,"comaws":9626,"Ġefficiencies":9627,"Develop":9628,"ĠISO":9629,"allow":9630,"amps":9631,"istical":9632,"Ġcontained":9633,"Ġstateful":9634,"ĠConnected":9635,"ĠUnderstanding":9636,"Ġpressure":9637,"uid":9638,"wo":9639,"Ġbrowse":9640,"Ġemr":9641,"ĠEnsure":9642,"Ġestablishing":9643,"Ġcoupled":9644,"Ġallocate":9645,"Like":9646,"Ġslight":9647,"ĠCI":9648,"Ġtransfers":9649,"Ġentreprene":9650,"ĠDebug":9651,"Ġconfigures":9652,"Ġinitialize":9653,"Ġconsolidated":9654,"EE":9655,"EST":9656,"Ġcontrast":9657,"Ġenthus":9658,"ĠToky":9659,"Ġexecutes":9660,"Ġdetecting":9661,"ĠCleaning":9662,"Ġwebinar":9663,"JSON":9664,"Ġcomfort":9665,"berry":9666,"Ġextracts":9667,"phas":9668,"Ġrobots":9669,"Ġconstraint":9670,"Ġundifferentiated":9671,"acuum":9672,"rest":9673,"ĠAG":9674,"Ġmkdir":9675,"ĠMG":9676,"Ġunivers":9677,"Backup":9678,"CD":9679,"CM":9680,"options":9681,"Ġrig":9682,"liance":9683,"Ġpasswords":9684,"Project":9685,"Ġnavigating":9686,"Ġcollaborative":9687,"ĠAssist":9688,"Ġsuperv":9689,"ENT":9690,"Ġups":9691,"osys":9692,"Ġorganized":9693,"Ġjoins":9694,"Ġtranslated":9695,"Ġfederal":9696,"Ġeliminates":9697,"Ġrecognized":9698,"Ġinfluence":9699,"limited":9700,"Ġworkstation":9701,"Ġnational":9702,"ĠWizard":9703,"ĠBoot":9704,"Ġhelm":9705,"ATUS":9706,"ĠWorkbench":9707,"Ġpaying":9708,"Ġseverity":9709,"ĠAssess":9710,"ĠCN":9711,"Ġassemb":9712,"Ġhes":9713,"Ġcomplicated":9714,"Ġinvoking":9715,"Ġbreakout":9716,"ĠWorkflows":9717,"Json":9718,"Ġconj":9719,"Ġcomply":9720,"chitecture":9721,"Ġconstant":9722,"ĠPreview":9723,"Ġpresentation":9724,"description":9725,"Ġsampling":9726,"queue":9727,"87":9728,"ABASE":9729,"Ġfacilities":9730,"Ġsummarizes":9731,"KER":9732,"Ġreve":9733,"provider":9734,"Ġrecall":9735,"ĠExplore":9736,"Ġscenes":9737,"Ġ192":9738,"Ġelectric":9739,"compute":9740,"Ġkeynote":9741,"Gate":9742,"Head":9743,"euwest":9744,"ĠSL":9745,"ours":9746,"Ġendusers":9747,"Ġdownloading":9748,"Ġclosed":9749,"ĠAccording":9750,"ĠmacOS":9751,"ĠQuality":9752,"ĠTokyo":9753,"micro":9754,"íķ":9755,"ilies":9756,"ĠRL":9757,"ACCESS":9758,"Ġradio":9759,"ĠCurrently":9760,"Ġë":9761,"ĠHA":9762,"Ġsubt":9763,"Ġattract":9764,"Ġeligible":9765,"ĠModernization":9766,"Ġwild":9767,"Ġlift":9768,"ĠELB":9769,"ĠBlue":9770,"gex":9771,"containers":9772,"Ġgeneric":9773,"Ġlookup":9774,"Ġmater":9775,"Ġinitialization":9776,"ĠLife":9777,"cluded":9778,"loitte":9779,"images":9780,"Ġanalyses":9781,"scale":9782,"Ġpayasyou":9783,"Ġanalyzes":9784,"Ġprevents":9785,"Ġrestored":9786,"Ġrolling":9787,"Ġawareness":9788,"Consider":9789,"Command":9790,"FC":9791,"ando":9792,"ĠSpring":9793,"ÂłÂłÂłÂłÂłÂł":9794,"ORY":9795,"Ġinternational":9796,"Ġcontributed":9797,"events":9798,"Ġsilos":9799,"Ġtopology":9800,"curl":9801,"Ġinperson":9802,"urb":9803,"ĠMode":9804,"ĠBl":9805,"ivot":9806,"Ġkinds":9807,"Ġiteration":9808,"ĠSignOn":9809,"Definition":9810,"Ġenforcement":9811,"tab":9812,"ĠTrain":9813,"Ġmissed":9814,"Ġguided":9815,"ĠVisit":9816,"ĠKeyspaces":9817,"ogeneous":9818,"UID":9819,"uer":9820,"yan":9821,"rote":9822,"ĠTCO":9823,"otnet":9824,"results":9825,"Ġlooked":9826,"Ġauthorizer":9827,"ĠTraffic":9828,"Ġsym":9829,"ashington":9830,"parameter":9831,"Ġhack":9832,"ducer":9833,"prot":9834,"Ġrecon":9835,"Ġgreatly":9836,"allet":9837,"chools":9838,"ĠStringEquals":9839,"RTOS":9840,"ĠREADME":9841,"bar":9842,"ĠEv":9843,"Ġsear":9844,"See":9845,"controller":9846,"Ġintervention":9847,"Ġeffectiveness":9848,"Ġcandidate":9849,"Cert":9850,"ILI":9851,"named":9852,"sim":9853,"Ġvoid":9854,"ĠBGP":9855,"Ġnewest":9856,"lias":9857,"ĠUnit":9858,"Filter":9859,"Ġir":9860,"ionary":9861,"ĠCH":9862,"Ġspikes":9863,"pense":9864,"Ġconflic":9865,"Ġexploration":9866,"cone":9867,"sudo":9868,"estion":9869,"ĠĠĠĠĠĠĠĠĠĠĠĠĠ":9870,"Ġaddressed":9871,"Ġversioning":9872,"ĠASP":9873,"Ġindepth":9874,"ĠPR":9875,"Ġacquis":9876,"Ġcutting":9877,"Ġsatisfy":9878,"ARTITION":9879,"ĠLDAP":9880,"estimator":9881,"erval":9882,"Ġquarter":9883,"pod":9884,"login":9885,"Ġcompile":9886,"111":9887,"Ġpopulated":9888,"False":9889,"aservice":9890,"Ġstability":9891,"Ġ150":9892,"Ġrunbook":9893,"Ġpackets":9894,"center":9895,"ĠCleanup":9896,"Ġsubscribed":9897,"ĠGDPR":9898,"Getting":9899,"Sample":9900,"Ġimager":9901,"ĠAccenture":9902,"ĠMaxim":9903,"Ġfly":9904,"ĠRust":9905,"ĠVice":9906,"Ġdirector":9907,"olumns":9908,"Ġsignin":9909,"ACT":9910,"Ġcollections":9911,"Attach":9912,"Ġwat":9913,"rase":9914,"Ġruntimes":9915,"rides":9916,"Ġarticles":9917,"Ġcovering":9918,"Ġsubscribers":9919,"iest":9920,"mult":9921,"pite":9922,"Ġpd":9923,"ĠOEM":9924,"Ġjump":9925,"ĠApps":9926,"execute":9927,"ĠNov":9928,"Ġsynchronization":9929,"Ġreusable":9930,"Nam":9931,"Site":9932,"ffix":9933,"Ġregression":9934,"ĠComple":9935,"Ġspeaker":9936,"eek":9937,"ĠCSI":9938,"Ġdepic":9939,"itles":9940,"elist":9941,"Ġfamilies":9942,"GER":9943,"Ġbias":9944,"ĠTH":9945,"price":9946,"Ġcontextual":9947,"Ġspeeds":9948,"TYPE":9949,"Ġ250":9950,"acher":9951,"Ġjava":9952,"Ġdispar":9953,"Ġwebpage":9954,"ĠNeo":9955,"ĠOptimization":9956,"Organizations":9957,"grat":9958,"heel":9959,"ĠPattern":9960,"ipher":9961,"Ġpractition":9962,"centric":9963,"Ġbatter":9964,"DATA":9965,"ĠOhio":9966,"fri":9967,"lere":9968,"Ġsyn":9969,"Ġfans":9970,"Ġrelying":9971,"Ġunw":9972,"Ġedition":9973,"Ġbilled":9974,"ĠBenefits":9975,"Ġapt":9976,"ione":9977,"ĠFocus":9978,"illion":9979,"olute":9980,"ĠUN":9981,"Ġnothing":9982,"ichannel":9983,"ĠĠĠĠĠĠĠĠĠĠĠĠĠĠ":9984,"Ġreadiness":9985,"Associ":9986,"oughly":9987,"Ġschedules":9988,"Leave":9989,"semble":9990,"ĠdÃ©":9991,"Ġwon":9992,"Ġleaving":9993,"Ġproducers":9994,"Ġsimulator":9995,"ĠSTRING":9996,"ĠFollowing":9997,"Details":9998,"Ġtimeline":9999,"ĠJOIN":10000,"ĠSynthe":10001,"Balancer":10002,"MC":10003,"eys":10004,"vm":10005,"Ġonetime":10006,"ĠMO":10007,"ĠVault":10008,"integ":10009,"Ġfees":10010,"ĠAnn":10011,"Ġformer":10012,"gestion":10013,"builder":10014,"Ġconvenience":10015,"Ġcoordinates":10016,"Ġthrottling":10017,"Ġinferences":10018,"oms":10019,"del":10020,"Ġusr":10021,"ĠMatt":10022,"Ġcompressed":10023,"Ġdesignated":10024,"Ġcapturing":10025,"Ġputting":10026,"Ġencounter":10027,"arpenter":10028,"ĠGWLB":10029,"Ġconjunction":10030,"Body":10031,"MAN":10032,"Vari":10033,"pe":10034,"repo":10035,"Ġshadow":10036,"Ġtransportation":10037,"OURCE":10038,"NAL":10039,"mysql":10040,"ĠMP":10041,"Ġknew":10042,"Ġapprove":10043,"Ġvariants":10044,"ĠEnabling":10045,"ĠExecute":10046,"Ġpossibilities":10047,"Ġeasytouse":10048,"Ġcontributions":10049,"Ġconverts":10050,"93":10051,"torch":10052,"array":10053,"ĠSoc":10054,"ĠPers":10055,"Ġadhere":10056,"iregion":10057,"oolean":10058,"Ġuns":10059,"score":10060,"athan":10061,"ĠPrimary":10062,"Ġcalculations":10063,"urations":10064,"Ġends":10065,"Ġcustomizable":10066,"ensity":10067,"Ġreplacement":10068,"IMEST":10069,"gp":10070,"ĠChe":10071,"ĠOptions":10072,"created":10073,"lux":10074,"ĠCertifications":10075,"AIL":10076,"Ġelasticity":10077,"ĠGeo":10078,"Ġnonprofits":10079,"Ġmaterials":10080,"51":10081,"Ġvelo":10082,"inity":10083,"Ġdram":10084,"ĠWatch":10085,"ĠGolden":10086,"Ġ38":10087,"properties":10088,"ĠConsumer":10089,"Deploying":10090,"MBER":10091,"ius":10092,"ĠAGE":10093,"ĠWashington":10094,"eller":10095,"Ġmodifications":10096,"Ġlessons":10097,"ĠStacks":10098,"Ġ2008":10099,"Ġtells":10100,"support":10101,"Ġexpressions":10102,"Ġinterpret":10103,"ĠFAQ":10104,"Ra":10105,"Ġdam":10106,"delete":10107,"ĠPK":10108,"Ġexec":10109,"ĠLabel":10110,"Ġintensive":10111,"Ġsho":10112,"ĠAtlas":10113,"Ġclassifier":10114,"Ġtalking":10115,"ĠFrank":10116,"Min":10117,"Ġsa":10118,"ĠSent":10119,"ĠDELETE":10120,"ĠUl":10121,"apers":10122,"ynb":10123,"Condition":10124,"ĠImages":10125,"manifest":10126,"FIG":10127,"entralized":10128,"Look":10129,"Windows":10130,"Ġslots":10131,"amz":10132,"Ġegress":10133,"ĠCIO":10134,"ĠContinue":10135,"Environment":10136,"Ġcarry":10137,"Ġaims":10138,"Ġgenomics":10139,"Ġcompiled":10140,"ĠUPDATE":10141,"Ġfresh":10142,"Ġwrote":10143,"icians":10144,"ĠForm":10145,"ĠLike":10146,"ĠException":10147,"ĠAutomatic":10148,"254":10149,"à¹Ģ":10150,"Ġrestaurant":10151,"ĠAfrica":10152,"Ġpayasyougo":10153,"Zone":10154,"urch":10155,"ĠEvalu":10156,"Ġintr":10157,"ĠNative":10158,"192":10159,"Ġreviewing":10160,"Ġprofiling":10161,"GroupName":10162,"Ġswitching":10163,"Ġfeaturing":10164,"HOST":10165,"sum":10166,"Ġanonym":10167,"asy":10168,"ĠDb":10169,"Ġfacility":10170,"Ġbuildspec":10171,"GINX":10172,"Optim":10173,"aled":10174,"rian":10175,"Ġheight":10176,"ĠInvoke":10177,"Ġidentical":10178,"Ġrouter":10179,"Ġpharma":10180,"Ġbrokers":10181,"Ġfastest":10182,"Ġlayout":10183,"Ġmarked":10184,"ĠChatbot":10185,"IMESTAMP":10186,"aos":10187,"anies":10188,"Ġrepro":10189,"agues":10190,"Ġgas":10191,"ĠNu":10192,"ĠĠĠĠĠĠĠĠĠĠĠĠĠĠĠ":10193,"ĠSpinnaker":10194,"Ġinvesting":10195,"ĠOptional":10196,"Label":10197,"iF":10198,"ij":10199,"ĠTry":10200,"Ġaccident":10201,"Ġbug":10202,"Ġ512":10203,"Ġintervals":10204,"Ġimagery":10205,"ected":10206,"ĠRoom":10207,"ĠLet":10208,"Ġresize":10209,"Ġloy":10210,"ĠForum":10211,"Ġexecutives":10212,"Ġbenefic":10213,"ĠGreen":10214,"Ġhttpss":10215,"ĠCollector":10216,"ìĿ":10217,"Ġhop":10218,"Ġexpon":10219,"ĠLimit":10220,"Ġweights":10221,"Ġagency":10222,"Ġvisuals":10223,"Ġforeign":10224,"Implement":10225,"Ġmounted":10226,"Ġheavily":10227,"Ġhotel":10228,"Cs":10229,"fa":10230,"ension":10231,"Ġinternally":10232,"BucketName":10233,"Ġcleanup":10234,"Ġmanufacturers":10235,"lerevent":10236,"ĠAv":10237,"Ġblack":10238,"architected":10239,"ĠSur":10240,"Ġharness":10241,"Ġlas":10242,"Ġdoz":10243,"Ġgranularity":10244,"CloudFormation":10245,"Ġcron":10246,"urm":10247,"ĠResults":10248,"ĠWorkloads":10249,"ĠAnalyze":10250,"ĠFinSpace":10251,"Ġseparated":10252,"Ġinterests":10253,"Ġcalculation":10254,"device":10255,"secrets":10256,"Ġfinetune":10257,"uffle":10258,"73":10259,"Ġreverse":10260,"ĠPassword":10261,"ĠRoot":10262,"Ġlots":10263,"Ġhowto":10264,"ĠExamples":10265,"ĠTransport":10266,"Ġacceleration":10267,"Ġpodcast":10268,"parallel":10269,"Ġderived":10270,"Ġoppos":10271,"ĠCNAME":10272,"Ġmonet":10273,"Ġmethodology":10274,"Optional":10275,"Ġexcellence":10276,"ILITY":10277,"69":10278,"Ob":10279,"PRE":10280,"Ġur":10281,"ipynb":10282,"Ġengaged":10283,"ĠMetadata":10284,"Ġrestrictions":10285,"Ġprototype":10286,"BA":10287,"XT":10288,"hir":10289,"home":10290,"ĠSaf":10291,"ully":10292,"ulum":10293,"orders":10294,"Ġspecifications":10295,"Ġrefactoring":10296,"Ġrollback":10297,"Ġmonolithic":10298,"ĠKEY":10299,"gth":10300,"henticator":10301,"Ġingesting":10302,"ĠERP":10303,"Ġcreat":10304,"aven":10305,"Ġdesigns":10306,"Ġclassify":10307,"ÂłÂłÂłÂłÂł":10308,"ĠThink":10309,"ĠIntroducing":10310,"Ġupgrading":10311,"ĠFreeRTOS":10312,"HANA":10313,"vari":10314,"Ġprote":10315,"using":10316,"poser":10317,"Ġinitiated":10318,"Ġgeographic":10319,"AAAAAAAA":10320,"AIN":10321,"PATH":10322,"Tube":10323,"null":10324,"aciÃ³n":10325,"Ġpreprocess":10326,"Ġassurance":10327,"Ġinvite":10328,"Ġ1024":10329,"Ã©es":10330,"Ge":10331,"gn":10332,"vin":10333,"itch":10334,"arb":10335,"Ġalthough":10336,"Ġarchitecting":10337,"ĠWorkshop":10338,"Ġbottlenecks":10339,"Well":10340,"ceived":10341,"Ġprescript":10342,"Ġcomplement":10343,"Ġpoor":10344,"ĠAlarm":10345,"NU":10346,"report":10347,"Ġantic":10348,"ulent":10349,"Ġrer":10350,"ubl":10351,"ĠProton":10352,"xxx":10353,"Ġinnovating":10354,"Ġflat":10355,"ĠExtract":10356,"Ġsemantic":10357,"med":10358,"ya":10359,"ĠALTER":10360,"Ġwind":10361,"Ġresides":10362,"Ġimaging":10363,"Ġpreserv":10364,"Ġ34":10365,"201":10366,"appy":10367,"Ġterraform":10368,"Ġindicating":10369,"ĠOperational":10370,"ĠISVs":10371,"81":10372,"section":10373,"ĠPat":10374,"Ġcomposed":10375,"ĠSpe":10376,"Ġsimulated":10377,"Ġarchived":10378,"Contact":10379,"Ġdisease":10380,"82":10381,"PORT":10382,"atever":10383,"Ġvice":10384,"Ġrespect":10385,"loadb":10386,"Ġaudits":10387,"parquet":10388,"Ġhappened":10389,"total":10390,"Ġbooks":10391,"ĠOwn":10392,"Ġordering":10393,"Export":10394,"cloudwatch":10395,"DN":10396,"PACE":10397,"storage":10398,"ĠFebruary":10399,"ĠWalkthrough":10400,"ĠHR":10401,"Ġplayback":10402,"ABILITY":10403,"ĠOtherwise":10404,"Ġuncertain":10405,"HR":10406,"ingu":10407,"Ġfriction":10408,"ĠRD":10409,"Ġ100000":10410,"Ġnumeric":10411,"Ġdemoc":10412,"Ġ600":10413,"LOC":10414,"inference":10415,"Ġssh":10416,"ani":10417,"Ġdealing":10418,"Ġexclude":10419,"ĠRB":10420,"ĠGiven":10421,"ĠYouTube":10422,"ĠMigrating":10423,"ĠAccept":10424,"ĠEuropean":10425,"Ġofficer":10426,"Video":10427,"topic":10428,"ĠDEC":10429,"ĠDDL":10430,"ĠPet":10431,"Ġlogistics":10432,"Ġdistributions":10433,"athon":10434,"Ġscene":10435,"vides":10436,"LOG":10437,"Ġacceptable":10438,"Ġsubscriber":10439,"Availability":10440,"Ne":10441,"itors":10442,"ĠIF":10443,"ĠVegas":10444,"Ġblogs":10445,"à¸ĩ":10446,"Ġaudiences":10447,"Ġbreaking":10448,"Ġpresigned":10449,"Ġfunctionalities":10450,"ĠFranc":10451,"Power":10452,"ĠField":10453,"Ġreadwrite":10454,"folder":10455,"Ġprefixes":10456,"ĠFacebook":10457,"Ġimmutable":10458,"Ġfrag":10459,"Ġsubstant":10460,"Ġsom":10461,"keys":10462,"prod":10463,"ĠWorkspace":10464,"Ġ20200":10465,"ĠKerberos":10466,"nesday":10467,"ZE":10468,"focus":10469,"ĠSK":10470,"ĠTalk":10471,"Ġquicksight":10472,"herent":10473,"Ġaccepts":10474,"ought":10475,"Ġaccelerates":10476,"Catalog":10477,"och":10478,"Ġforget":10479,"ĠEFA":10480,"izers":10481,"Ġleak":10482,"asters":10483,"ĠUDP":10484,"ampaign":10485,"definition":10486,"Metrics":10487,"Snapshot":10488,"Ġstudio":10489,"Ġvocab":10490,"ĠOAuth":10491,"ĠNGINX":10492,"anger":10493,"Ġappropriately":10494,"chmarks":10495,"Ġlightweight":10496,"java":10497,"Ġschools":10498,"ĠDan":10499,"ĠFull":10500,"Ġheter":10501,"Ġspaces":10502,"crete":10503,"credentials":10504,"rowing":10505,"Ġpositions":10506,"RANT":10507,"ĠCRM":10508,"DR":10509,"dom":10510,"download":10511,"vis":10512,"Ġdiversity":10513,"ĠĠÂł":10514,"ĠPUT":10515,"ĠFuture":10516,"ĠStop":10517,"Ġpeers":10518,"Ġmeasurement":10519,"Ġsimplifying":10520,"ĠPortal":10521,"Device":10522,"Ġdepicts":10523,"BR":10524,"Ġpix":10525,"ĠCache":10526,"Ġlate":10527,"Ġappre":10528,"egin":10529,"ĠArn":10530,"ĠAng":10531,"Ġcars":10532,"Ġanticip":10533,"Every":10534,"free":10535,"hub":10536,"Ġpaid":10537,"Ġbread":10538,"ĠSize":10539,"Ġconformance":10540,"ried":10541,"Ġoutdo":10542,"Ġnamespaces":10543,"Ġcorrelation":10544,"Repeat":10545,"ĠMultiple":10546,"Labels":10547,"market":10548,"Ġappoint":10549,"Ġcertified":10550,"ĠAmb":10551,"Ġ12345678":10552,"Dr":10553,"ĠPS":10554,"ĠBo":10555,"acks":10556,"Ġoutage":10557,"Weve":10558,"Ġactivation":10559,"ÂłÂłÂłÂłÂłÂłÂłÂłÂłÂłÂłÂłÂłÂłÂłÂł":10560,"PutObject":10561,"ĠValidate":10562,"Ġenthusi":10563,"Ġvelocity":10564,"63":10565,"Ġtend":10566,"Ġmist":10567,"ĠSLA":10568,"ĠVIF":10569,"Ġ3000":10570,"Ġexpiration":10571,"ĠOrchest":10572,"Ġpgbench":10573,"Ġdollars":10574,"ĠSpecifically":10575,"KMS":10576,"ĠCorpor":10577,"Ġpretty":10578,"Ġvalidating":10579,"Ġexplored":10580,"Ġspecialist":10581,"DEFAULT":10582,"Ġembeddings":10583,"ĠRobot":10584,"Ġbenchmarking":10585,"Ġinterruption":10586,"ĠIncident":10587,"Ġempowers":10588,"Ġinteroperability":10589,"Media":10590,"Ġtar":10591,"esk":10592,"ĠCalcul":10593,"ĠNS":10594,"anches":10595,"onday":10596,"everaging":10597,"Provision":10598,"ĠTypeScript":10599,"irectional":10600,"Ġchildren":10601,"ĠTom":10602,"logical":10603,"uesday":10604,"Ġexpans":10605,"ĠEnv":10606,"Ġstatistical":10607,"Ġconverting":10608,"Success":10609,"Ġslightly":10610,"Field":10611,"wd":10612,"igm":10613,"Ġhook":10614,"abased":10615,"ura":10616,"Ġhelper":10617,"Ġseek":10618,"riving":10619,"Ġqueried":10620,"Ġimporting":10621,"ĠEnabled":10622,"Ġinteracting":10623,"Ġextracting":10624,"FL":10625,"Kinesis":10626,"fe":10627,"Ġsqu":10628,"Ġpending":10629,"ĠCa":10630,"asure":10631,"imal":10632,"ival":10633,"Ġisolate":10634,"aware":10635,"doc":10636,"eal":10637,"tag":10638,"Ġmid":10639,"usage":10640,"Ġdifferenti":10641,"Ġimportantly":10642,"Ġresponsibilities":10643,"Keep":10644,"aspberry":10645,"ĠHospitality":10646,"MIN":10647,"WA":10648,"Ġtf":10649,"ĠGithub":10650,"claim":10651,"Ġclouds":10652,"Ġhands":10653,"Ġcorrel":10654,"Ġflags":10655,"Ġfloat":10656,"ĠDiscover":10657,"________":10658,"ORMAT":10659,"DT":10660,"gr":10661,"Ġbio":10662,"Ġdevi":10663,"ĠDru":10664,"ĠOTT":10665,"ssible":10666,"ĠKore":10667,"ĠSpanish":10668,"Quick":10669,"Ġestimates":10670,"ĠLinked":10671,"024":10672,"fb":10673,"Ġtensor":10674,"ĠPO":10675,"outheast":10676,"ĠHome":10677,"erto":10678,"Ġexports":10679,"Also":10680,"Ġpushing":10681,"hemeral":10682,"016":10683,"alt":10684,"asaservice":10685,"ĠLi":10686,"ireless":10687,"RED":10688,"Ġdelays":10689,"Ġterminated":10690,"Ġputs":10691,"ĠProfiler":10692,"High":10693,"OME":10694,"Ġama":10695,"ĠAverage":10696,"Ġblocked":10697,"Ġtermination":10698,"Ġsuggested":10699,"Two":10700,"Ġneighb":10701,"Ġads":10702,"iented":10703,"henticated":10704,"ricult":10705,"ĠLogging":10706,"ounce":10707,"Ġattachments":10708,"123456789":10709,"Ġdepict":10710,"ĠExecutive":10711,"BU":10712,"ĠTPC":10713,"ĠLas":10714,"ĠBook":10715,"ĠHPO":10716,"points":10717,"Ġedges":10718,"ĠYOUR":10719,"Ġcoh":10720,"Ġbigger":10721,"Alternatively":10722,"Ġiterations":10723,"Ġguests":10724,"abricks":10725,"Ġloyalty":10726,"cache":10727,"la":10728,"Ġdog":10729,"omarket":10730,"Ġdisp":10731,"ĠEnh":10732,"Ġbroken":10733,"Second":10734,"Ġseparation":10735,"Ġdisparate":10736,"ĠSync":10737,"omic":10738,"ĠDont":10739,"Ġship":10740,"ĠIPAM":10741,"ĠADOT":10742,"items":10743,"Ġconducted":10744,"Ġmotiv":10745,"ĠTrend":10746,"ĠFedR":10747,"ĠSustainability":10748,"41":10749,"Most":10750,"Other":10751,"Ġmarg":10752,"ĠGames":10753,"duce":10754,"Ġauthorize":10755,"Ġpriorities":10756,"Ġaccomp":10757,"Ġresolved":10758,"Ġmovie":10759,"rases":10760,"Ġaward":10761,"Invoke":10762,"à¸±":10763,"Ġaccepted":10764,"ĠVMs":10765,"ĠDavid":10766,"friendly":10767,"BC":10768,"ano":10769,"around":10770,"ĠHE":10771,"Stop":10772,"Ġannouncement":10773,"Ġinserted":10774,"Ġclearly":10775,"ĠIniti":10776,"ĠRetrieval":10777,"Ġmath":10778,"anted":10779,"Ġtoolkit":10780,"Any":10781,"erged":10782,"Ġredundancy":10783,"Upd":10784,"but":10785,"dumps":10786,"Ġfounder":10787,"uned":10788,"Ġvacc":10789,"ĠĠĠĠÂł":10790,"Ġseeking":10791,"ĠChain":10792,"ĠPhD":10793,"awssdk":10794,"Ġ0000":10795,"enable":10796,"ĠSCHEMA":10797,"Ġscroll":10798,"ĠResolver":10799,"Ġclassical":10800,"Ġjourneys":10801,"ĠNeuron":10802,"oftheart":10803,"Encryption":10804,"leading":10805,"ĠEDA":10806,"128":10807,"Ġformatted":10808,"Ġprecise":10809,"dig":10810,"ĠALL":10811,"etch":10812,"platform":10813,"Ġacquire":10814,"Ġlatencies":10815,"Ġstreamed":10816,"ĠQuantum":10817,"Ġ900":10818,"Ġminimizing":10819,"Ġcausing":10820,"Ġledger":10821,"orama":10822,"Ġdual":10823,"ĠMonth":10824,"Ġplt":10825,"Ġdefense":10826,"Ġ2015":10827,"ATCH":10828,"ĠTrigger":10829,"Ġexecutions":10830,"DoS":10831,"Ġabsolute":10832,"Off":10833,"ĠWS":10834,"Ġcum":10835,"Ġunpre":10836,"12222":10837,"execut":10838,"Results":10839,"Ġcurve":10840,"20210":10841,"Ġalignment":10842,"title":10843,"Ġturning":10844,"Ġcart":10845,"ĠSchedule":10846,"ĠSegment":10847,"ĠMatch":10848,"elt":10849,"ĠVOD":10850,"Ġ360":10851,"Ġmanifests":10852,"Ġelectronic":10853,"ademic":10854,"Ġreward":10855,"Ġdegra":10856,"cking":10857,"ĠLock":10858,"ĠInstant":10859,"Ġspeaking":10860,"TB":10861,"fc":10862,"range":10863,"iter":10864,"Ġpilot":10865,"Ġreaches":10866,"ĠSit":10867,"ĠMart":10868,"ĠInferent":10869,"ansom":10870,"ĠStat":10871,"echan":10872,"Reduce":10873,"Ġsns":10874,"Ġdecom":10875,"Ġreside":10876,"Ġstreamlined":10877,"Ġmodification":10878,"ĠThanks":10879,"Ġprogrammatic":10880,"Ġobservations":10881,"mpeg":10882,"ĠRecommend":10883,"ĠFedRAMP":10884,"OUT":10885,"edup":10886,"ĠRDF":10887,"Ġoutofthe":10888,"command":10889,"IPS":10890,"ĠSTATUS":10891,"Ġbarriers":10892,"gratulations":10893,"71":10894,"VS":10895,"gem":10896,"ĠSam":10897,"ĠPRI":10898,"Ġincrement":10899,"Ġpointing":10900,"ĠAMP":10901,"ANCE":10902,"ĠMainframe":10903,"rist":10904,"Ġfits":10905,"Ġdoc":10906,"Ġ120":10907,"Ġdecades":10908,"ogniz":10909,"ECS":10910,"Ġrepresentative":10911,"ĠAssign":10912,"Ġ247":10913,"Ġasynchronously":10914,"Ġcandidates":10915,"Current":10916,"Glue":10917,"Walkthrough":10918,"category":10919,"upp":10920,"Ġcle":10921,"lec":10922,"Ġreset":10923,"Ġheard":10924,"olutions":10925,"Ġcomparing":10926,"Ġtwice":10927,"Ġ443":10928,"olumes":10929,"Ġmeasurements":10930,"ĠAuthority":10931,"describe":10932,"generated":10933,"Docs":10934,"MT":10935,"today":10936,"ĠCor":10937,"Ġhiring":10938,"Ġchalk":10939,"ĠHand":10940,"Ġgenerative":10941,"Ġemit":10942,"ĠReports":10943,"ĠADD":10944,"Ġsolid":10945,"apiVersion":10946,"Ġprescriptive":10947,"Send":10948,"Ġemissions":10949,"ĠCredit":10950,"ĠDDoS":10951,"anged":10952,"enges":10953,"eyond":10954,"Ġstateoftheart":10955,"cedented":10956,"Ġ800":10957,"ROR":10958,"Ġstrongly":10959,"ĠDistribution":10960,"Ġexcellent":10961,"Monitoring":10962,"Õ¡":10963,"ĠPCA":10964,"ĠFormat":10965,"ĠLow":10966,"ĠGood":10967,"assad":10968,"Ġfinds":10969,"requent":10970,"ĠSnowcone":10971,"Ġpillars":10972,"Ġstrength":10973,"IL":10974,"Memory":10975,"Utilization":10976,"system":10977,"win":10978,"ĠMem":10979,"Ġ54":10980,"Ġhttpswww":10981,"Ġreplicating":10982,"Ġdetermining":10983,"Ġinitiates":10984,"ĠInstalling":10985,"ĠIVR":10986,"ĠCommunic":10987,"while":10988,"Ġacquisition":10989,"Ab":10990,"she":10991,"player":10992,"Ġclar":10993,"Ġclause":10994,"ĠJira":10995,"ynat":10996,"backup":10997,"ĠInteractive":10998,"Ġuniquely":10999,"Ġcampus":11000,"ĠRealtime":11001,"Ġbreadth":11002,"directory":11003,"ĠRaspberry":11004,"Ġteacher":11005,"ĠJourn":11006,"echo":11007,"ĠNetworks":11008,"Alarm":11009,"medium":11010,"LOAD":11011,"ĠReturn":11012,"Publish":11013,"rr":11014,"ĠBar":11015,"Ġoutline":11016,"Ġapplicationjson":11017,"ablename":11018,"Ġuniversity":11019,"Ġindividually":11020,"ĠAggreg":11021,"ĠBroad":11022,"ĠLanding":11023,"West":11024,"gateway":11025,"package":11026,"esystem":11027,"Ġflight":11028,"omics":11029,"Ġgrown":11030,"ĠFailover":11031,"ĠBalancers":11032,"Ġproud":11033,"ĠApplied":11034,"rape":11035,"ĠChar":11036,"bytes":11037,"Ġenhancing":11038,"ĠDocumentation":11039,"Ġanomalous":11040,"ĠABAC":11041,"ĠRestore":11042,"Guard":11043,"ĠPanorama":11044,"Ġunprecedented":11045,"ior":11046,"Ġmil":11047,"ĠRequire":11048,"ĠawsPrincipal":11049,"Ġlimiting":11050,"509":11051,"autom":11052,"Ġexperimenting":11053,"Ġreaching":11054,"validation":11055,"WORD":11056,"EP":11057,"Http":11058,"Ġstopping":11059,"ĠConstruct":11060,"Ġdesc":11061,"Ġreturning":11062,"tops":11063,"ĠUSD":11064,"Logs":11065,"Ġdelta":11066,"Ġvectors":11067,"jobs":11068,"Ġcostefficient":11069,"Elastic":11070,"dist":11071,"kms":11072,"enn":11073,"Ġdms":11074,"umar":11075,"Ġcommerce":11076,"Ġforwards":11077,"ĠOperator":11078,"Transform":11079,"EXAMPLE":11080,"Ġdeclar":11081,"Confirm":11082,"122223333":11083,"ĠIss":11084,"Ġspons":11085,"yping":11086,"Ġune":11087,"Ġunlimited":11088,"arking":11089,"Ġemphas":11090,"Ġcheckout":11091,"Ġ95":11092,"Ġfullymanaged":11093,"Ġfacilitates":11094,"VENT":11095,"Cleaning":11096,"payload":11097,"Ġparams":11098,"agram":11099,"Ġdatat":11100,"ĠFOR":11101,"Ġ33":11102,"ĠDeloitte":11103,"Ġexecutor":11104,"Ġforwarded":11105,"Predict":11106,"Ġinvestigation":11107,"ĠPoints":11108,"ĠSkills":11109,"focused":11110,"bone":11111,"Ã¼":11112,"Ġrm":11113,"ĠLambd":11114,"Ġclos":11115,"Ġvisiting":11116,"ĠResilience":11117,"coded":11118,"Ġfaces":11119,"Ġpivot":11120,"loat":11121,"ĠHer":11122,"ĠHar":11123,"tenant":11124,"à¸¥":11125,"ĠMethod":11126,"Ġcrawlers":11127,"Ens":11128,"tx":11129,"iny":11130,"Ġsnow":11131,"enty":11132,"urring":11133,"ota":11134,"ĠME":11135,"Ġperhaps":11136,"Ġ01":11137,"ĠResult":11138,"Ġgraphics":11139,"ursday":11140,"Ġfulfillment":11141,"ĠServers":11142,"Tailor":11143,"Ġfirms":11144,"ategor":11145,"Ġls":11146,"eml":11147,"Ġintents":11148,"ĠBERT":11149,"ĠJVM":11150,"Ġchecked":11151,"Ġfiltered":11152,"Ġcontributing":11153,"ĠDistributed":11154,"ui":11155,"Ġwider":11156,"ervations":11157,"Ġresume":11158,"endesk":11159,"odo":11160,"ĠHybrid":11161,"ĠInferentia":11162,"GR":11163,"wer":11164,"Ġwa":11165,"RES":11166,"ĠWorkload":11167,"Ġskilled":11168,"Ġtackle":11169,"ynatrace":11170,"Ġnight":11171,"ĠWOR":11172,"istor":11173,"ares":11174,"Ġfee":11175,"Ġrack":11176,"ĠThose":11177,"ĠSTS":11178,"Ġmembership":11179,"Ġfraudulent":11180,"Ġrotate":11181,"Ġfloor":11182,"Ġidentifiers":11183,"initely":11184,"Ġdemocrat":11185,"Ġamazing":11186,"83":11187,"column":11188,"gment":11189,"ĠCraw":11190,"asc":11191,"ĠDuration":11192,"endar":11193,"Ġoriginally":11194,"Ġexplan":11195,"Ġrefres":11196,"Ġaggregates":11197,"USE":11198,"Ġparticipating":11199,"ĠContentType":11200,"Ġspeakers":11201,"Ġpractitioners":11202,"Vpc":11203,"Ġsizing":11204,"Ġsleep":11205,"etype":11206,"ĠCV":11207,"ĠCOR":11208,"Ġshot":11209,"Ġsubmission":11210,"tto":11211,"ĠGitLab":11212,"Complete":11213,"306":11214,"ITR":11215,"Ġsentence":11216,"ĠPrepare":11217,"Ġcarefully":11218,"Ġeducators":11219,"Permissions":11220,"Ġfsx":11221,"bi":11222,"monitor":11223,"etter":11224,"Ġdeprec":11225,"Ġgl":11226,"ĠPass":11227,"Ġworkgroup":11228,"Ġdoor":11229,"encrypted":11230,"Ġunknown":11231,"iov":11232,"Ġmatched":11233,"ĠACCOUNT":11234,"Enabled":11235,"Ġmitigation":11236,"Total":11237,"layer":11238,"ĠPal":11239,"employ":11240,"ĠBund":11241,"ften":11242,"RoleArn":11243,"Ġtreatment":11244,"furt":11245,"abil":11246,"ppers":11247,"unks":11248,"Ġcompress":11249,"Within":11250,"rieve":11251,"ĠRemember":11252,"Ġ00":11253,"Ġthre":11254,"ĠCisco":11255,"Ġhood":11256,"Ġathena":11257,"Ġarrive":11258,"tex":11259,"Ġmultiregion":11260,"Ġwebbased":11261,"ĠConnectivity":11262,"à¸§":11263,"Resources":11264,"Ġcombinations":11265,"Ġincorrect":11266,"Ġretrieving":11267,"Ġgained":11268,"Ġpurchases":11269,"ĠSPICE":11270,"ĠValidation":11271,"Ġcofounder":11272,"Ġoutofthebox":11273,"Ġyield":11274,"Ġstops":11275,"Ġunint":11276,"Ġdemos":11277,"ĠSuch":11278,"Ġalternate":11279,"straction":11280,"ĠLOG":11281,"Ġblank":11282,"Ġpillar":11283,"ĠObservability":11284,"ulary":11285,"ĠrÃ©":11286,"Ġsuffix":11287,"2018":11288,"Ġwellarchitected":11289,"Ġpointintime":11290,"Ġonpremise":11291,"Ġquantity":11292,"Generate":11293,"SECRET":11294,"ansomware":11295,"imeter":11296,"ĠEp":11297,"ĠBay":11298,"ĠHuman":11299,"Ġtruck":11300,"Ġkit":11301,"Ġanalytic":11302,"Ġparad":11303,"ductor":11304,"Ġperiodic":11305,"........":11306,"Duration":11307,"Further":11308,"ea":11309,"Ġpowers":11310,"ĠAudio":11311,"Ġwave":11312,"ĠAWSS":11313,"ĠBring":11314,"Ġinstantly":11315,"Ġbugs":11316,"iceberg":11317,"Ġunable":11318,"Ġ2014":11319,"riton":11320,"Ġminds":11321,"Clone":11322,"Ġbattery":11323,"62":11324,"sys":11325,"Ġsil":11326,"ĠAvi":11327,"emr":11328,"Ġwhatever":11329,"ĠNIST":11330,"hisper":11331,"Ġdifferently":11332,"Ġinstalls":11333,"ĠImpact":11334,"Properties":11335,"ĠThus":11336,"ki":11337,"mig":11338,"tally":11339,"Ġant":11340,"Ġfuel":11341,"stat":11342,"ĠHot":11343,"Ġmoderation":11344,"Ġassessments":11345,"ĠTableau":11346,"ĠLeader":11347,"Specify":11348,"Automation":11349,"written":11350,"Ġfreed":11351,"Ġnearrealtime":11352,"DD":11353,"JS":11354,"los":11355,"Ġgoods":11356,"Ġcancer":11357,"Ġlose":11358,"Ġaccounting":11359,"hered":11360,"Ġlowcost":11361,"Ġescal":11362,"Ġpurchased":11363,"Ġpurchasing":11364,"ĠSpecialty":11365,"ĠPySpark":11366,"tags":11367,"uzz":11368,"Ġau":11369,"Ġchem":11370,"stage":11371,"utter":11372,"Ġprospect":11373,"Ġdates":11374,"Ġ37":11375,"erts":11376,"Ġacademic":11377,"Ġgrouping":11378,"Ġcouldnt":11379,"Ġcontribution":11380,"details":11381,"Ġtickets":11382,"Ġaugmented":11383,"Ġagreement":11384,"normal":11385,"Ġdenied":11386,"Ġnar":11387,"Ġenric":11388,"ssh":11389,"ĠHandler":11390,"Ġaccessibility":11391,"ĠWorkDocs":11392,"URI":11393,"Testing":11394,"ĠRemove":11395,"Ġbusy":11396,"Following":11397,"Ġpredicting":11398,"Ġmandatory":11399,"ĠSciences":11400,"environment":11401,"Ġprops":11402,"ĠBE":11403,"Ġunpredict":11404,"Ġcompete":11405,"ĠDATABASE":11406,"Ġconfidential":11407,"ĠGermany":11408,"Catalyst":11409,"OB":11410,"viding":11411,"ĠMag":11412,"Ġloan":11413,"postgres":11414,"predictor":11415,"Ġcolleagues":11416,"ĠLoRa":11417,"MARY":11418,"Find":11419,"mor":11420,"Ġmolec":11421,"ĠVend":11422,"pop":11423,"Ġbackbone":11424,"ĠPresto":11425,"learning":11426,"Method":11427,"Define":11428,"ĠÂłĠÂłĠÂłĠÂłĠÂłĠÂłĠÂłĠÂł":11429,"Ġcloned":11430,"repository":11431,"gmt":11432,"ese":11433,"Ġmature":11434,"Ġprove":11435,"ĠHC":11436,"Ġ39":11437,"ĠDead":11438,"Ġindexing":11439,"Ġhttpsdocs":11440,"Register":11441,"Ġtutorials":11442,"handlerevent":11443,"ĠBreak":11444,"Ġsearches":11445,"UTO":11446,"Ġunavailable":11447,"communic":11448,"Ġutter":11449,"Ġauthority":11450,"ĠAsset":11451,"ĠFrankfurt":11452,"Ġappreci":11453,"right":11454,"Ġinher":11455,"Ġrevision":11456,"ĠGold":11457,"Ġperman":11458,"Ġeasiest":11459,"Ġdesignation":11460,"ĠAcadem":11461,"Compatible":11462,"capacity":11463,"fire":11464,"lived":11465,"Ġfluent":11466,"show":11467,"ĠRelease":11468,"Ġstateless":11469,"ĠPrefix":11470,"ĠMediaTailor":11471,"Ġcareers":11472,"Ġpreventing":11473,"SSM":11474,"cloudformation":11475,"Ġ172":11476,"PEG":11477,"Ġinterruptions":11478,"ĠGovernance":11479,"Ġqualified":11480,"ĠDetective":11481,"aul":11482,"balance":11483,"sa":11484,"tom":11485,"asets":11486,"ĠMiddle":11487,"ĠBer":11488,"Ġshop":11489,"Ġabstraction":11490,"uperv":11491,"tains":11492,"Ġencaps":11493,"ĠMigrate":11494,"ĠModels":11495,"Ġbooth":11496,"VERSION":11497,"Ġsourced":11498,"Ġunwanted":11499,"ECT":11500,"Line":11501,"paced":11502,"Ġwhite":11503,"ĠCloudShell":11504,"Ġqui":11505,"forcement":11506,"rench":11507,"Ġexceeds":11508,"graphql":11509,"AST":11510,"parameters":11511,"ras":11512,"Ġclip":11513,"share":11514,"ERVER":11515,"ĠCodeArtifact":11516,"Ġtracker":11517,"Ġtalked":11518,"Pass":11519,"ĠTasks":11520,"ĠMaven":11521,"ĠNVM":11522,"creen":11523,"ARGET":11524,"Ġ1100":11525,"Ġarchiving":11526,"FIX":11527,"Ġbuying":11528,"KEN":11529,"Market":11530,"vp":11531,"Ġeye":11532,"ĠTor":11533,"ĠEUC":11534,"ablish":11535,"Ġfeatured":11536,"enger":11537,"Ġaccelerators":11538,"Ġscreenshots":11539,"Ġpresident":11540,"Ġconcurrently":11541,"ENDPOINT":11542,"Ġhypot":11543,"ASSWORD":11544,"Ap":11545,"hash":11546,"ĠAnt":11547,"sters":11548,"ĠFIS":11549,"ĠLLM":11550,"ysical":11551,"Ġdocumented":11552,"gorithm":11553,"2222":11554,"ĠEntity":11555,"Processing":11556,"ĠAmbassad":11557,"Ġenthusiast":11558,"Graph":11559,"ev":11560,"ntil":11561,"Ġsusp":11562,"ĠGreat":11563,"ĠKnow":11564,"coms":11565,"Ġrequesting":11566,"Ġpersonnel":11567,"Ġhyper":11568,"ĠActivate":11569,"Starting":11570,"Ġgranting":11571,"Ġdropped":11572,"ĠSmith":11573,"ĠESG":11574,"Ġemergency":11575,"driver":11576,"lining":11577,"xl":11578,"itation":11579,"Ġawsamplify":11580,"Ġcollector":11581,"ĠNews":11582,"datetime":11583,"Ġholistic":11584,"ĠEXTER":11585,"Ġuncover":11586,"Ġaffordable":11587,"fast":11588,"Ġcards":11589,"Ġcreater":11590,"ĠUt":11591,"LES":11592,"Ġsignon":11593,"ĠContribut":11594,"ROP":11595,"ĠFinance":11596,"auto":11597,"ALL":11598,"ĠOptimized":11599,"11111111":11600,"ĠSMBs":11601,"HTTP":11602,"ref":11603,"Ġcash":11604,"plus":11605,"Ġfunds":11606,"ĠPartition":11607,"Ġgrouped":11608,"Ġconsumes":11609,"ettings":11610,"Ġbootstra":11611,"ĠHosted":11612,"Ġephemeral":11613,"Optionally":11614,"Settings":11615,"Typ":11616,"tables":11617,"eth":11618,"img":11619,"Ġgat":11620,"ĠRDP":11621,"umed":11622,"Ġseed":11623,"thand":11624,"Ġuserdefined":11625,"Ġencoder":11626,"APP":11627,"Ġbenchmarks":11628,"ĠDefender":11629,"Ġpushes":11630,"Ġcoordinate":11631,"replication":11632,"61":11633,"Ġforth":11634,"Ġkubernetes":11635,"Ġtabular":11636,"Ġdrag":11637,"Ġdictionary":11638,"Ġpleased":11639,"ĠGoldenGate":11640,"Ġexpansion":11641,"RY":11642,"ham":11643,"Ġswit":11644,"ago":11645,"Ġdelight":11646,"ĠDSS":11647,"Ġviewed":11648,"Ġfounded":11649,"Ġtriggering":11650,"ĠCredentials":11651,"ĠSubscribe":11652,"Ġgrep":11653,"Share":11654,"Ġheterogeneous":11655,"91":11656,"BOL":11657,"Found":11658,"dt":11659,"ĠDu":11660,"ĠDES":11661,"ĠPatch":11662,"ĠJul":11663,"Ġtheme":11664,"Ġoptimizer":11665,"ĠZero":11666,"ĠClusters":11667,"Lastly":11668,"Multi":11669,"ognizant":11670,"Business":11671,"HD":11672,"Services":11673,"ii":11674,"lt":11675,"sam":11676,"tol":11677,"Ġaps":11678,"Ġfraction":11679,"Ġbra":11680,"Ġbalancers":11681,"ĠreStart":11682,"Ġhidden":11683,"ĠLAT":11684,"Ġspike":11685,"Ġtechnological":11686,"Ġquicker":11687,"ĠClar":11688,"Ġterabytes":11689,"Ġlineage":11690,"ĠEdTech":11691,"ĠMediaConnect":11692,"ĠOperating":11693,"Consumer":11694,"Ġaccomplished":11695,"Ġmutation":11696,"Systems":11697,"ĠCAPABILITY":11698,"ĠFrancisco":11699,"ien":11700,"Ġomn":11701,"Ġ111":11702,"acon":11703,"Ġspatial":11704,"Incre":11705,"avy":11706,"Ġtranscoding":11707,"lix":11708,"Ġgenerator":11709,"engine":11710,"ĠScenario":11711,"Ġforest":11712,"Ġcompares":11713,"Repository":11714,"ĠTeams":11715,"ĠTypically":11716,"iFi":11717,"World":11718,"Ã¤":11719,"Ġliv":11720,"ĠMedic":11721,"Ġpostprocessing":11722,"Ġroutine":11723,"Ġnextgeneration":11724,"Ġconsisting":11725,"Ġsuppliers":11726,"Ġpersonalize":11727,"Ġsubmitting":11728,"Ġrecipient":11729,"hemat":11730,"Ġexceptions":11731,"Similarly":11732,"oss":11733,"Ġaux":11734,"Ġbes":11735,"ĠPackage":11736,"Ġimper":11737,"ĠBluepr":11738,"Ġoutages":11739,"Ġselector":11740,"Ġtargeting":11741,"Spot":11742,"Ġdiscussions":11743,"Ġrefine":11744,"ServiceRole":11745,"UTH":11746,"Ġmotion":11747,"Ġhierarchical":11748,"Ġrestaurants":11749,"dependent":11750,"Take":11751,"bc":11752,"mes":11753,"Ġdiv":11754,"ĠColumn":11755,"Ġhon":11756,"ĠMiss":11757,"ĠRisk":11758,"usive":11759,"ĠGO":11760,"possible":11761,"proxy":11762,"Ġlongrunning":11763,"ĠEntertainment":11764,"ehicle":11765,"Whisper":11766,"ĠTenant":11767,"esting":11768,"ĠUDF":11769,"Ġsoft":11770,"Ġoffices":11771,"ĠClone":11772,"Redshift":11773,"ĠAmerican":11774,"writing":11775,"ĠDATA":11776,"ĠWednesday":11777,"NC":11778,"hive":11779,"ja":11780,"png":11781,"Ġtravers":11782,"à¸¢":11783,"Ġphrases":11784,"backend":11785,"ĠCPUs":11786,"collect":11787,"ĠBenchmark":11788,"ĠAcademy":11789,"Heres":11790,"eros":11791,"oriented":11792,"alice":11793,"ĠDJ":11794,"ĠRT":11795,"ĠBob":11796,"ĠHouse":11797,"ĠStage":11798,"dbc":11799,"Ġavoiding":11800,"ĠDefinition":11801,"ĠInfosys":11802,"Thanks":11803,"seconds":11804,"HS":11805,"Limit":11806,"SAP":11807,"ĠTriton":11808,"ĠReli":11809,"ĠConvers":11810,"rategy":11811,"Ġtracked":11812,"Ġcollaborating":11813,"parse":11814,"Ġcorresponds":11815,"ĠAccelerate":11816,"ĠHelp":11817,"straint":11818,"Ġmillisecond":11819,"ĠFederated":11820,"PLACE":11821,"features":11822,"Ġincredibly":11823,"Ġdesktops":11824,"Local":11825,"Ġê":11826,"ĠCMS":11827,"associ":11828,"ĠTypes":11829,"ott":11830,"Ġspans":11831,"Ġproducing":11832,"Ġ1200":11833,"169":11834,"Ġexpects":11835,"Ġassuming":11836,"Origin":11837,"Ġdisruptions":11838,"ĠMemoryDB":11839,"ĠLastly":11840,"ĠEquipment":11841,"ĠMaximum":11842,"Ġwel":11843,"Ġreput":11844,"ĠSchool":11845,"Ġhous":11846,"Ġcomma":11847,"ĠWill":11848,"Ġqubits":11849,"ĠManufact":11850,"Ġenterpris":11851,"nostics":11852,"Both":11853,"Ġhumans":11854,"ĠCLUSTER":11855,"ĠLinkedIn":11856,"Ġgathered":11857,"WE":11858,"ened":11859,"Ġstruct":11860,"Ġgolden":11861,"ĠPing":11862,"ĠGUI":11863,"Ġimagine":11864,"Ġcli":11865,"Ġunlike":11866,"Ġnovel":11867,"Ġbasics":11868,"Ġchains":11869,"Order":11870,"ĠSPAR":11871,"Ġunpredictable":11872,"CU":11873,"pol":11874,"whel":11875,"mach":11876,"ĠDrop":11877,"ĠRI":11878,"Ġappend":11879,"Ġreservation":11880,"ĠNY":11881,"Ġspectrum":11882,"Ġtwop":11883,"Ġvisually":11884,"prises":11885,"LED":11886,"ĠSimilar":11887,"Ġ96":11888,"Ġtemp":11889,"Athena":11890,"ĠPhil":11891,"Ġeconomy":11892,"ĠEmbed":11893,"ĠDEFAULT":11894,"Ġbottleneck":11895,"week":11896,"Ġaid":11897,"reach":11898,"Ġparam":11899,"ala":11900,"Ġyelb":11901,"debug":11902,"ourced":11903,"Ġkeyword":11904,"ĠComb":11905,"Ġgraphical":11906,"Channel":11907,"Ġshifting":11908,"Max":11909,"dns":11910,"ply":11911,"Ġexch":11912,"ĠMichael":11913,"ĠFn":11914,"ĠNA":11915,"Ġteaching":11916,"Ġoutlines":11917,"Ġselects":11918,"Ġknowing":11919,"itlements":11920,"Ġconsolidate":11921,"healthy":11922,"ĠNVMe":11923,"ĠPush":11924,"Ġagricult":11925,"Ġextending":11926,"à¸µ":11927,"SecOps":11928,"ĠLeave":11929,"Ġfirewalls":11930,"cpu":11931,"Ġmiddleware":11932,"Ġtolerance":11933,"Prom":11934,"SL":11935,"ĠSil":11936,"ĠSYS":11937,"ĠPL":11938,"ĠVpc":11939,"Ġmostly":11940,"Ġtimest":11941,"ĠZendesk":11942,"Additional":11943,"ĠColor":11944,"Return":11945,"Expression":11946,"Ġhorizontal":11947,"Ġexposure":11948,"Ġdepicted":11949,"Sm":11950,"inet":11951,"loop":11952,"imag":11953,"Ġproport":11954,"ĠMonday":11955,"Ġpreference":11956,"ĠConcurrency":11957,"Ġviable":11958,"Ġstudios":11959,"ĠSharing":11960,"Ġpopup":11961,"Setup":11962,"Timeout":11963,"inputs":11964,"Ġsecretsmanager":11965,"Ġbudgets":11966,"Ġbelie":11967,"ĠArtificial":11968,"Lat":11969,"VI":11970,"Ġsal":11971,"uracy":11972,"Ġgam":11973,"ĠMir":11974,"ĠLight":11975,"ĠLong":11976,"ĠVol":11977,"Ġmetal":11978,"Ġsellers":11979,"Ġcooking":11980,"Ġfinetuning":11981,"aught":11982,"Ġwonder":11983,"Dashboard":11984,"Est":11985,"SG":11986,"wait":11987,"Ġwed":11988,"roc":11989,"ĠTogether":11990,"Ġhoc":11991,"Ġmock":11992,"Ġscoring":11993,"Ġsport":11994,"Ġoverwhel":11995,"Ġresponds":11996,"ometimes":11997,"Ġhomeec":11998,"Ġcookie":11999,"gthen":12000,"Ġdozens":12001,"Ensure":12002,"GPU":12003,"URE":12004,"Ġpen":12005,"ropdown":12006,"ĠCare":12007,"Ġjud":12008,"Ġtheyve":12009,"Ġrestric":12010,"Ġmatters":12011,"ĠIdentify":12012,"Ġpersonas":12013,"Ġexperiencing":12014,"ĠROSA":12015,"Ġmixed":12016,"None":12017,"Oracle":12018,"cn":12019,"drop":12020,"ĠCit":12021,"Ġlens":12022,"hern":12023,"ĠExcell":12024,"REAM":12025,"à¸ļ":12026,"Ġsimilarity":12027,"Ġkubesystem":12028,"ĠLatency":12029,"ĠLATAM":12030,"NAM":12031,"Types":12032,"roring":12033,"Ġencode":12034,"ĠWorks":12035,"Ġcentralize":12036,"Ġtried":12037,"Ġevolved":12038,"Ġworkstations":12039,"Whisperer":12040,"iQL":12041,"lif":12042,"press":12043,"Ġwww":12044,"cean":12045,"Ġgithub":12046,"Ġbackwards":12047,"Ġvariations":12048,"Ġexecutable":12049,"Ġdecentralized":12050,"INE":12051,"Ġartists":12052,"configure":12053,"Ġcleaning":12054,"Ġinspired":12055,"Dataset":12056,"Ġleaderboard":12057,"orretto":12058,"Ġgenomic":12059,"Aurora":12060,"SAML":12061,"rele":12062,"Ġca":12063,"oul":12064,"ceut":12065,"ĠTorch":12066,"ensus":12067,"ogram":12068,"RENT":12069,"Ġevaluates":12070,"ĠCompetencies":12071,"ĠFeatures":12072,"ĠProvisioning":12073,"ĠDebugger":12074,"Ġclosest":12075,"Micro":12076,"Pattern":12077,"QUE":12078,"sd":12079,"scrib":12080,"Ġoil":12081,"ĠIR":12082,"Ġstar":12083,"Ġvot":12084,"ĠInclude":12085,"ĠJAR":12086,"ĠChris":12087,"ceutical":12088,"Grant":12089,"Vir":12090,"Ġpandas":12091,"Ġdan":12092,"loss":12093,"Ġstead":12094,"ĠDue":12095,"Ġexposes":12096,"Ġproductive":12097,"Ġoptimizes":12098,"APN":12099,"Ġtimet":12100,"ometry":12101,"Ġturns":12102,"255":12103,"Ġparticipant":12104,"Ġthoughts":12105,"namespace":12106,"Ġcomfortable":12107,"ĠChef":12108,"Ġsomew":12109,"ran":12110,"ĠCNI":12111,"ĠMah":12112,"ĠGRANT":12113,"plot":12114,"Ġplant":12115,"ĠProviders":12116,"Ġcoll":12117,"Ġinvoice":12118,"Ġcheckbox":12119,"central":12120,"Ġresponsive":12121,"ĠCreation":12122,"ĠDoD":12123,"ĠSupply":12124,"ĠSynthetics":12125,"Ġbeneficial":12126,"dim":12127,"Ġfost":12128,"Ġinherent":12129,"Ġbare":12130,"ĠSha":12131,"ĠWA":12132,"Ġbusinesscritical":12133,"ĠAutodes":12134,"DEL":12135,"Impro":12136,"ilitary":12137,"ĠDeliver":12138,"Ġresolvers":12139,"ĠPractition":12140,"Ġcsv":12141,"Deli":12142,"Ġgig":12143,"ria":12144,"placement":12145,"Ġreceiver":12146,"Property":12147,"erializer":12148,"Ġassignment":12149,"Ġcpu":12150,"Ġwaits":12151,"nels":12152,"orship":12153,"iones":12154,"arse":12155,"ĠMD":12156,"Ġtransitions":12157,"Ġdisks":12158,"ĠUSA":12159,"ĠCompany":12160,"Ġdaytoday":12161,"Ġactivated":12162,"ĠSumo":12163,"Performance":12164,"Ġfixes":12165,"Outputs":12166,"USTOM":12167,"ĠOpsWorks":12168,"typeml":12169,"Ms":12170,"Root":12171,"inv":12172,"Ġstress":12173,"ĠDynatrace":12174,"ĠPRE":12175,"Ġcreators":12176,"Ġtransformer":12177,"September":12178,"Ġbreakdown":12179,"Ġcompromised":12180,"Ġspanning":12181,"ĠBudgets":12182,"Ġnormally":12183,"ena":12184,"Ġwget":12185,"std":12186,"Ġmar":12187,"ĠEST":12188,"ĠMechan":12189,"ĠRight":12190,"logging":12191,"à¸¡":12192,"ĠScore":12193,"Ġpossibility":12194,"Ġindicators":12195,"Ġpolling":12196,"ĠChallenges":12197,"Available":12198,"nginx":12199,"vie":12200,"ĠDataFrame":12201,"ĠChoosing":12202,"ACL":12203,"Ġpresentations":12204,"ĠAutomate":12205,"Statement":12206,"Below":12207,"ĠFederation":12208,"ĠPeople":12209,"MI":12210,"Ġnine":12211,"ceive":12212,"Ġrecurs":12213,"Ġreadily":12214,"Ġprotects":12215,"Ġmeasuring":12216,"ĠAssumeRole":12217,"ĠOptimizer":12218,"risis":12219,"ĠInitiative":12220,"Ġsuspicious":12221,"YPE":12222,"gb":12223,"gent":12224,"Ġdans":12225,"uris":12226,"rome":12227,"Ġcomputed":12228,"rowd":12229,"Composer":12230,"ĠACK":12231,"ĠWorkSpace":12232,"Ġiterative":12233,"Ġseller":12234,"Ġsummarize":12235,"Ġconsultant":12236,"Ġblueprints":12237,"Ġverticals":12238,"ĠAssistant":12239,"ĠRBAC":12240,"Ġomnichannel":12241,"Main":12242,"PER":12243,"itÃ©":12244,"Ġroughly":12245,"Ġsud":12246,"Ġimg":12247,"yname":12248,"argu":12249,"Ġvirtualization":12250,"Ġcategorical":12251,"eperformance":12252,"Ġdramatically":12253,"Directory":12254,"RF":12255,"rust":12256,"ĠTuesday":12257,"ĠMer":12258,"egu":12259,"Ġcallers":12260,"Ġlatitude":12261,"attice":12262,"Ġgrad":12263,"etoSite":12264,"Ġmasking":12265,"Ġaxis":12266,"Ġuncertainty":12267,"lambd":12268,"ĠSeries":12269,"ĠCC":12270,"ĠOf":12271,"Ġarm":12272,"loaded":12273,"Ġdifferentiate":12274,"full":12275,"Ġresponding":12276,"Ġamb":12277,"Ġdivided":12278,"afe":12279,"Ġincent":12280,"Ġanswering":12281,"Ġbinaries":12282,"Ġsequencing":12283,"abyte":12284,"ĠLeadership":12285,"ĠWorldwide":12286,"ĠROI":12287,"Ġcomprised":12288,"LICY":12289,"Ġopposed":12290,"ĠEnvoy":12291,"BE":12292,"Book":12293,"toc":12294,"Ġpause":12295,"ĠClear":12296,"agraph":12297,"ĠIIS":12298,"ulating":12299,"Ġcustomizations":12300,"clip":12301,"Async":12302,"haust":12303,"Ġinvolving":12304,"Ġarchival":12305,"Permission":12306,"ĠColle":12307,"Ġfootball":12308,"à¸²à¸£":12309,"Thats":12310,"cb":12311,"alog":12312,"ĠSessions":12313,"amount":12314,"Ġlaw":12315,"otional":12316,"ĠMAP":12317,"Ġoverlay":12318,"ĠAnomaly":12319,"Ġpersonally":12320,"Ġtightly":12321,"According":12322,"Ġdefects":12323,"Day":12324,"TF":12325,"iety":12326,"rity":12327,"Ġwallet":12328,"utils":12329,"Ġconditional":12330,"Ġpromet":12331,"Ġexpense":12332,"Ġransomware":12333,"ĠLI":12334,"idad":12335,"logger":12336,"ĠGitOps":12337,"Ġupgraded":12338,"Ġsequences":12339,"Ġbooking":12340,"Ġfriendly":12341,"ĠOptionally":12342,"ĠNamespace":12343,"Õ¡Õ":12344,"ĠExcellence":12345,"SN":12346,"cut":12347,"Ġovers":12348,"outs":12349,"Ġresp":12350,"periment":12351,"Ġ140":12352,"ĠStock":12353,"Ġcloudwatch":12354,"workflow":12355,"ĠstatusCode":12356,"Ġparser":12357,"Configuring":12358,"Ġtimeseries":12359,"Ġgains":12360,"ABLED":12361,"Perform":12362,"ĠFederal":12363,"Ġreinvent":12364,"sy":12365,"ctu":12366,"istructured":12367,"ĠHam":12368,"Ġsubdomain":12369,"Ġprevention":12370,"Ġmerch":12371,"Ġnumerical":12372,"Ġcompilation":12373,"Ġdaemon":12374,"Evalu":12375,"Tables":12376,"random":12377,"Ġtries":12378,"Ġclock":12379,"style":12380,"ĠDriver":12381,"ĠPARTITION":12382,"Ġimpossible":12383,"ipro":12384,"ĠCodeCatalyst":12385,"DataSource":12386,"ĠPlus":12387,"ĠApi":12388,"Ġcurric":12389,"Ġgeof":12390,"Ġsidecar":12391,"Ġcontrolling":12392,"video":12393,"Ġtradeoffs":12394,"ĠMGN":12395,"Os":12396,"Ġaccum":12397,"Ġexpire":12398,"ĠConnecting":12399,"Ġrightclick":12400,"ĠLeague":12401,"runtime":12402,"Ġgrew":12403,"ĠAdministration":12404,"Ġsectors":12405,"Partition":12406,"Ġengagements":12407,"Ġempowering":12408,"ĠTwinMaker":12409,"frames":12410,"sl":12411,"Ġturb":12412,"Ġske":12413,"orov":12414,"iform":12415,"pres":12416,"Ġwherever":12417,"Ġenablement":12418,"Ġlongitude":12419,"ĠDeepComposer":12420,"Ġbrowsers":12421,"objects":12422,"ĠSDWAN":12423,"operator":12424,"ĠImplementing":12425,"Ġstrengthen":12426,"Hello":12427,"Ġsudden":12428,"VAL":12429,"Ġwast":12430,"ĠSk":12431,"ĠSol":12432,"ĠEss":12433,"Ġrb":12434,"ĠLarge":12435,"Ġredis":12436,"Ġspecializing":12437,"Ġarchives":12438,"Replication":12439,"Ġinserts":12440,"Ġspreadshe":12441,"Ġinjection":12442,"Ġpremium":12443,"ĠSitetoSite":12444,"POS":12445,"find":12446,"ford":12447,"Ġrewrite":12448,"otas":12449,"ĠLOC":12450,"Ġracing":12451,"Ġexperimental":12452,"cloudfront":12453,"Ġmalware":12454,"abcdef":12455,"Ġtapes":12456,"ĠRaj":12457,"ĠRMAN":12458,"Ġshuffle":12459,"arest":12460,"Ġfilename":12461,"boost":12462,"Ġfinishes":12463,"Ġdistingu":12464,"Ġindexed":12465,"ĠPrograms":12466,"Org":12467,"Modify":12468,"Ġwidgets":12469,"AE":12470,"Aws":12471,"Gre":12472,"Ġcast":12473,"Ġconferences":12474,"ĠDIS":12475,"irth":12476,"Ġpermit":12477,"Ġmaturity":12478,"ĠSuite":12479,"Ġdescribing":12480,"Cache":12481,"Global":12482,"Rate":12483,"mask":12484,"learn":12485,"ĠPill":12486,"ĠHour":12487,"ĠWeek":12488,"Ġinstaller":12489,"riday":12490,"Ġfailing":12491,"ĠClaim":12492,"Ġcontributors":12493,"Keys":12494,"Amplify":12495,"Ġguarantee":12496,"ĠAssessment":12497,"gemini":12498,"JECT":12499,"Ġera":12500,"itative":12501,"Ġrenamed":12502,"agin":12503,"Ġrise":12504,"eless":12505,"illed":12506,"Ġacquired":12507,"Ġshowc":12508,"Ġcomplexities":12509,"ĠASE":12510,"Ġpriceperformance":12511,"Ġgaining":12512,"Ġchaincode":12513,"Ġcookies":12514,"Ġepochs":12515,"Factory":12516,"IQ":12517,"menu":12518,"Ã¶":12519,"ĠGE":12520,"ĠValues":12521,"ĠTransaction":12522,"Comput":12523,"CODE":12524,"ĠPerform":12525,"Ġsolved":12526,"subnet":12527,"Ġgathering":12528,"availability":12529,"istributed":12530,"Box":12531,"send":12532,"Ġtablename":12533,"Ġcipher":12534,"ĠAud":12535,"ĠACT":12536,"ĠTape":12537,"unc":12538,"ĠRSA":12539,"Ġperimeter":12540,"Youre":12541,"cipl":12542,"ĠCOL":12543,"ĠSubscription":12544,"Ġtranslates":12545,"ĠReviewer":12546,"Ġdatadropdown":12547,"Cleanup":12548,"cludes":12549,"Depending":12550,"Ġnarrow":12551,"ĠPractitioner":12552,"Ind":12553,"aten":12554,"Ġpsql":12555,"Ġdedup":12556,"Ġnice":12557,"ĠCU":12558,"ĠLattice":12559,"provided":12560,"Ġtwin":12561,"Ġ65":12562,"Ġinvestors":12563,"Ġequally":12564,"Ġsupplied":12565,"ĠCanad":12566,"folios":12567,"Ġairline":12568,"Fire":12569,"Match":12570,"cope":12571,"note":12572,"oracle":12573,"Ġincons":12574,"urally":12575,"ados":12576,"ĠHard":12577,"Ġarbit":12578,"Ġrecreate":12579,"ĠSuper":12580,"ĠMediaStore":12581,"Ġequity":12582,"Ġterminology":12583,"ĠInsight":12584,"attribute":12585,"Ġbluegreen":12586,"à¹Ģà¸":12587,"VA":12588,"equ":12589,"gw":12590,"vance":12591,"origin":12592,"ĠCour":12593,"Ġconform":12594,"ĠNICE":12595,"bert":12596,"Tools":12597,"ĠChanges":12598,"Ġ72":12599,"ĠCOBOL":12600,"Logging":12601,"Ġsurvi":12602,"Ġmobility":12603,"ĠAgain":12604,"Ġgrace":12605,"Ġincredible":12606,"Ġentrepreneurs":12607,"ĠCorporation":12608,"Ben":12609,"OK":12610,"Python":12611,"Rob":12612,"ĠSERVICE":12613,"seq":12614,"ĠFrench":12615,"ĠHorizon":12616,"Ġwilling":12617,"ĠKarpenter":12618,"iber":12619,"Ġdesire":12620,"Props":12621,"ĠThursday":12622,"ĠStartups":12623,"Ġredact":12624,"clients":12625,"Ġpulls":12626,"provisioning":12627,"Ġexclusive":12628,"Validate":12629,"QuickSight":12630,"Ġparadigm":12631,"pk":12632,"purpose":12633,"rary":12634,"yg":12635,"erner":12636,"athena":12637,"itter":12638,"Ġdump":12639,"ĠDive":12640,"ĠPOS":12641,"ĠRow":12642,"artner":12643,"alls":12644,"Ġrecurring":12645,"STANCE":12646,"exe":12647,"Ġannouncing":12648,"909":12649,"DEX":12650,"Ġinstruction":12651,"ĠCapital":12652,"Timestamp":12653,"Ġvocabulary":12654,"120":12655,"BO":12656,"Fore":12657,"Jeff":12658,"bur":12659,"ĠSys":12660,"ifts":12661,"ĠMike":12662,"ĠSpeed":12663,"Ġindustryleading":12664,"accountid":12665,"Ġphysically":12666,"ĠSTG":12667,"Score":12668,"ãĥ¼":12669,"ĠLooking":12670,"Ġrevolution":12671,"Ġenrichment":12672,"Ġfairly":12673,"Ġscoped":12674,"Ġtied":12675,"enes":12676,"Ġexcess":12677,"ĠMal":12678,"ĠFe":12679,"Ġchunk":12680,"lihood":12681,"Ġbackward":12682,"afk":12683,"Ġraised":12684,"ĠDevSecOps":12685,"ĠProtect":12686,"ĠBYOL":12687,"Ġrecipients":12688,"Ġfragment":12689,"ĠEXTERNAL":12690,"volution":12691,"ĠSem":12692,"Ġns":12693,"ĠCP":12694,"agon":12695,"older":12696,"ĠTYPE":12697,"ersive":12698,"eles":12699,"Ġchunks":12700,"ĠHall":12701,"obe":12702,"Ġbackoff":12703,"Ġ85":12704,"Ġinteracts":12705,"Refer":12706,"Runtime":12707,"Ġuptime":12708,"Ġdescriptions":12709,"ĠSocial":12710,"rical":12711,"atches":12712,"utes":12713,"Ġretraining":12714,"Ġconstruction":12715,"axi":12716,"Ġsymb":12717,"Ġpersisted":12718,"Ġairport":12719,"Ġsynchronized":12720,"Initial":12721,"Ġmilest":12722,"400":12723,"Fig":12724,"ae":12725,"fold":12726,"vacuum":12727,"ĠCCP":12728,"ĠTex":12729,"ĠDI":12730,"ircle":12731,"Ġresident":12732,"ĠSteve":12733,"roles":12734,"Ġclassified":12735,"Sphere":12736,"ĠARNs":12737,"Prepare":12738,"Ġreplatform":12739,"Ġessentially":12740,"analytics":12741,"Phone":12742,"flix":12743,"itivity":12744,"stood":12745,"dec":12746,"ĠMaking":12747,"Ġavg":12748,"ĠAlarms":12749,"ĠRespons":12750,"Ġsigns":12751,"steps":12752,"Ġcomposite":12753,"Ġrigor":12754,"ĠLoRaWAN":12755,"Whether":12756,"eech":12757,"Ġpione":12758,"alpha":12759,"Ġconsequ":12760,"otion":12761,"Ġexhaust":12762,"ĠNum":12763,"Ġcompiler":12764,"Ġdirected":12765,"Proxy":12766,"parent":12767,"Ġsorted":12768,"authorization":12769,"Remove":12770,"ĠSharePoint":12771,"ĠImprove":12772,"Certificate":12773,"executeapi":12774,"Ġprotein":12775,"Ma":12776,"VR":12777,"rout":12778,"ĉĉ":12779,"itled":12780,"Ġvaries":12781,"Ġqubit":12782,"ĠKy":12783,"Ġlatter":12784,"ledger":12785,"Usage":12786,"Ġvert":12787,"usercontent":12788,"Ġdemanding":12789,"Ġindicated":12790,"functional":12791,"Ġssl":12792,"Ġcohort":12793,"GROUP":12794,"Ġhooks":12795,"Ġasks":12796,"loworld":12797,"ĠLeg":12798,"ĠNort":12799,"ruit":12800,"obuf":12801,"extract":12802,"Ġadvis":12803,"Ġeth":12804,"Ġbranches":12805,"ĠOperation":12806,"ãģ®":12807,"Ġrooms":12808,"initial":12809,"ĠTurk":12810,"ĠDLQ":12811,"ĠSLAs":12812,"urchase":12813,"Ġprometheus":12814,"di":12815,"dr":12816,"kinesis":12817,"yard":12818,"ĠIIoT":12819,"Ġstation":12820,"Ġcomplain":12821,"Ġven":12822,"odal":12823,"Ġcompelling":12824,"Ġ46":12825,"Ġowns":12826,"ĠScope":12827,"Ġknows":12828,"Ġlifetime":12829,"ĠASG":12830,"ĠNotice":12831,"ĠSupported":12832,"xxxxxxxxxxxxxxxx":12833,"Plan":12834,"Ġsynchronize":12835,"which":12836,"Visual":12837,"Engine":12838,"rocery":12839,"Feder":12840,"GRESS":12841,"bd":12842,"cm":12843,"inal":12844,"atter":12845,"rays":12846,"Ġsees":12847,"Inv":12848,"Ġ47":12849,"ĠArc":12850,"ĠExcel":12851,"Ġhttpsconsole":12852,"Ġinsertion":12853,"ĠBraz":12854,"ologies":12855,"Ġfreedom":12856,"Have":12857,"Layer":12858,"Team":12859,"beat":12860,"vals":12861,"Ġreq":12862,"ĠPage":12863,"ĠPandas":12864,"ĠRU":12865,"ĠRay":12866,"ĠOUT":12867,"fficiency":12868,"ERS":12869,"301":12870,"Ġexplores":12871,"ĠCreated":12872,"Ġconfirmed":12873,"Ġadaptive":12874,"Ġsemistructured":12875,"Ġrecordings":12876,"Ġphoto":12877,"Ġembra":12878,"dynamic":12879,"Ġenforced":12880,"Ġorganisations":12881,"Ġoutdoors":12882,"atrix":12883,"Ġthor":12884,"ĠCFO":12885,"ĠAWSLambda":12886,"ĠMT":12887,"Ġteach":12888,"ĠUpon":12889,"ĠConnections":12890,"Ġwouldnt":12891,"Ġclassic":12892,"works":12893,"ĠSSE":12894,"ĠLogin":12895,"ĠCompanies":12896,"ĠWhich":12897,"Ġarnawsiamaws":12898,"Ġbitrate":12899,"Ġwinning":12900,"Ġenriched":12901,"ĠAutodesk":12902,"Can":12903,"TLS":12904,"rink":12905,"uis":12906,"ioned":12907,"Ġwer":12908,"ĠSi":12909,"ĠMAC":12910,"ĠGPS":12911,"Youll":12912,"ivas":12913,"ĠRequired":12914,"ĠCodeWhisperer":12915,"Ġcaches":12916,"Ġaccompany":12917,"nÃ©es":12918,"Ġ000000":12919,"ĠSon":12920,"ĠSun":12921,"imble":12922,"Ġonsite":12923,"ĠFact":12924,"Ġtrains":12925,"Ġtransmission":12926,"Ġ2048":12927,"Prod":12928,"Administr":12929,"CONFIG":12930,"orovod":12931,"beta":12932,"Ġcrisis":12933,"Ġmv":12934,"Ġmen":12935,"Ġsty":12936,"ĠPAR":12937,"ĠGive":12938,"ĠGSI":12939,"ĠOften":12940,"plocal":12941,"Ġ56":12942,"Ġexpenses":12943,"ĠExisting":12944,"à¸Ĺ":12945,"Ġparagraph":12946,"ĠUnreal":12947,"Ġingests":12948,"145":12949,"Ġexams":12950,"Ġdecoupled":12951,"prometheus":12952,"Ġignore":12953,"supported":12954,"Ġdamage":12955,"Master":12956,"hadoop":12957,"route":12958,"Ġwar":12959,"Ġnor":12960,"elated":12961,"ĠHBase":12962,"Ġpartial":12963,"Ġscheme":12964,"ĠWorker":12965,"Ġbackends":12966,"githubusercontent":12967,"ĠHosts":12968,"Ġdigitally":12969,"ĠCORS":12970,"110":12971,"CLI":12972,"Linux":12973,"WR":12974,"har":12975,"Ġer":12976,"Ġdebt":12977,"ĠRather":12978,"idity":12979,"ega":12980,"ĠPartiQL":12981,"ĠAutoscaler":12982,"ĠUsed":12983,"Ġcollaborated":12984,"Apply":12985,"Ġequipped":12986,"ĠAllowed":12987,"Ġmental":12988,"Ġseems":12989,"Ġresidency":12990,"cur":12991,"pan":12992,"Ġmining":12993,"road":12994,"ĠSN":12995,"ĠAWSServerless":12996,"ĠMedi":12997,"ĠConvert":12998,"They":12999,"ĠPrime":13000,"requency":13001,"secure":13002,"Ġdbms":13003,"Ġsequential":13004,"Ġretained":13005,"Ġmacro":13006,"Destination":13007,"Ut":13008,"avi":13009,"nis":13010,"zes":13011,"ĠCur":13012,"unch":13013,"ĠFailed":13014,"Ġarg":13015,"Ġlearnings":13016,"Ġdiagnostic":13017,"Ġblocking":13018,"1723":13019,"ĠNotebooks":13020,"Ġetcd":13021,"Ġsnippets":13022,"ĠMoving":13023,"Analytics":13024,"Give":13025,"lands":13026,"pip":13027,"tl":13028,"Ġtomor":13029,"Ġmilitary":13030,"ille":13031,"Ġprox":13032,"Ġintention":13033,"Ġleaves":13034,"Ġpreserve":13035,"Ġshouldnt":13036,"Ġexped":13037,"Ġlargely":13038,"ĠDatasets":13039,"Ġregistering":13040,"ĠBuilders":13041,"ĠParameterKey":13042,"detection":13043,"Unit":13044,"Ġrecipes":13045,"ĠOrganizational":13046,"Ġmsg":13047,"ParameterValue":13048,"ĠFortune":13049,"functions":13050,"ĠTexas":13051,"Pop":13052,"aired":13053,"match":13054,"mos":13055,"Ġmerged":13056,"Ġyoung":13057,"Ġglass":13058,"ccer":13059,"ĠConversion":13060,"ĠQU":13061,"method":13062,"Ġcorrelate":13063,"ĠAttributes":13064,"Ġprivileged":13065,"Ġcircum":13066,"Ġagreements":13067,"ĠSPARQL":13068,"Having":13069,"Language":13070,"Ste":13071,"Ġfict":13072,"ĠAES":13073,"ĠSelf":13074,"ampl":13075,"ĠIC":13076,"ĠPC":13077,"ĠPerson":13078,"Ġaddons":13079,"Ġobvious":13080,"scal":13081,"Ġdemonstrating":13082,"header":13083,"ĠAutoML":13084,"iCorp":13085,"ĠENIs":13086,"Ġarrives":13087,"Ġbidirectional":13088,"Ġassertion":13089,"Ġpulled":13090,"ĠTHEN":13091,"Ġrerun":13092,"SDK":13093,"evalu":13094,"Ġsale":13095,"ctx":13096,"vec":13097,"ĠTIMESTAMP":13098,"Ġtraditionally":13099,"ĠKnowledge":13100,"ĠKumar":13101,"Ġkeywords":13102,"à¸Ķ":13103,"Ġvisualizing":13104,"Ġreleasing":13105,"Ġplayed":13106,"Ġmissions":13107,"Ġcrossregion":13108,"groupname":13109,"ĠParis":13110,"Ġpersistence":13111,"ĠBroker":13112,"Ġcalendar":13113,"Ġreconc":13114,"Ġsubstantial":13115,"Ġreputation":13116,"ĠMechanical":13117,"Cross":13118,"Fl":13119,"Gluon":13120,"Ġcogn":13121,"Ġsqs":13122,"oug":13123,"Ġfed":13124,"Ġpron":13125,"ĠSMP":13126,"sey":13127,"Ġfork":13128,"ĠGA":13129,"epro":13130,"enda":13131,"Ġclustering":13132,"nowled":13133,"Ġcoff":13134,"ĠFinding":13135,"Registry":13136,"Ġoccas":13137,"ĠBuilt":13138,"runner":13139,"Ġsolves":13140,"Ġuniversities":13141,"Ġteachers":13142,"BP":13143,"dro":13144,"nc":13145,"Ġtact":13146,"eds":13147,"aggreg":13148,"ĠTri":13149,"ĠTCS":13150,"Ġliving":13151,"ĠPI":13152,"Ġalb":13153,"Ġsus":13154,"ido":13155,"Ġchmod":13156,"claves":13157,"Ġoperated":13158,"Ġ2013":13159,"Ġpublication":13160,"CreateLog":13161,"Adding":13162,"Ġcommunicating":13163,"ĠFinish":13164,"Ġattaching":13165,"Ġembrace":13166,"Ġbelongs":13167,"ĠFIFO":13168,"Ġdiagnosis":13169,"Ġstrugg":13170,"ĠPersistent":13171,"Ġtimestamps":13172,"Ġcurriculum":13173,"FX":13174,"pat":13175,"Ġtcp":13176,"isation":13177,"icip":13178,"Ġreused":13179,"utation":13180,"Ġgg":13181,"ĠJam":13182,"Ġinfrastructures":13183,"Ġsignup":13184,"Ġverifies":13185,"Ġassumptions":13186,"Ġshorter":13187,"ĠNotifications":13188,"utorial":13189,"Ġairlines":13190,"Ġrandomly":13191,"Ġalternatives":13192,"Ġconsultants":13193,"ĠHDFS":13194,"Ġrenewable":13195,"TIME":13196,"YOUR":13197,"covery":13198,"uits":13199,"asi":13200,"Ġfeas":13201,"Ġuna":13202,"ĠAdam":13203,"Ġexpires":13204,"Ġphrase":13205,"Ġtransferring":13206,"Ġfourth":13207,"onomy":13208,"Notification":13209,"analysis":13210,"ĠdonnÃ©es":13211,"ĠInvest":13212,"plocalhost":13213,"._":13214,"cv":13215,"inding":13216,"ĠAge":13217,"iry":13218,"ĠOwner":13219,"Ġunhealthy":13220,"ĠComponents":13221,"ĠArgo":13222,"ĠQuest":13223,"trail":13224,"Created":13225,"imensions":13226,"formatics":13227,"Ġwarehousing":13228,"Ġdiscounts":13229,"ĠTracking":13230,"Ġmultipart":13231,"Ġstruggle":13232,"bf":13233,"cover":13234,"craft":13235,"gboost":13236,"mics":13237,"ĠAMS":13238,"Ġinner":13239,"deep":13240,"oston":13241,"erverless":13242,"Ġharder":13243,"ĠRefactor":13244,"Ġaffecting":13245,"Ġnecessarily":13246,"Ġunintended":13247,"launch":13248,"ĠDen":13249,"ĠWrit":13250,"Ġsole":13251,"Ġkids":13252,"Ġlikelihood":13253,"ĠRelic":13254,"Ġmainly":13255,"Ġconstitu":13256,"Ġposit":13257,"rolepolicy":13258,"ĠMBs":13259,"Ġhospitals":13260,"Column":13261,"RU":13262,"global":13263,"Ġdotnet":13264,"agen":13265,"Ġconvent":13266,"plevel":13267,"ĠLeveraging":13268,"ĠBeyond":13269,"Ġspends":13270,"thread":13271,"Ġentitlements":13272,"Ġ50000":13273,"tters":13274,"ĠQuant":13275,"Ġexecutors":13276,"Ġstandardize":13277,"ĠREPLACE":13278,"Ġrollout":13279,"Ġcomprehend":13280,"ĠNetflix":13281,"Ġworrying":13282,"Ġsiloed":13283,"Guest":13284,"ĠConsiderations":13285,"Ġidentifiable":13286,"ĠJourney":13287,"band":13288,"iled":13289,"ĠIst":13290,"Ġstick":13291,"urable":13292,"Ġdelet":13293,"ĠImagine":13294,"ĠUnlike":13295,"Ġcatalogs":13296,"Controller":13297,"Ġgenome":13298,"ĠMean":13299,"ĠMeet":13300,"Ġdelegate":13301,"Ġradius":13302,"Ġmutual":13303,"Ġcitizen":13304,"ĠSlurm":13305,"executor":13306,"ĠBrazil":13307,"Mapping":13308,"ĠEconom":13309,"ĠODBC":13310,"ĠManual":13311,"Ġkinesis":13312,"undle":13313,"Traffic":13314,"Ġslower":13315,"Ġincorporating":13316,"ĠPods":13317,"installed":13318,"Ġchatbots":13319,"Collection":13320,"Ġhorizontally":13321,"Integration":13322,"Even":13323,"Game":13324,"Prior":13325,"etable":13326,"ĠCorretto":13327,"ĠHistory":13328,"complete":13329,"ACS":13330,"insert":13331,"rollers":13332,"Ġreplicates":13333,"ĠBeing":13334,"LOW":13335,"roubleshooting":13336,"ĠMSPs":13337,"Embed":13338,"oratory":13339,"Ġmys":13340,"Ġgone":13341,"ĠDO":13342,"Ġlex":13343,"Ġnoticed":13344,"Ġtransient":13345,"Ġdeeply":13346,"ĠInstanceType":13347,"Ġverifying":13348,"Ġprintf":13349,"ĠDoing":13350,"apsed":13351,"Ġaligns":13352,"ĠStrategic":13353,"Collect":13354,"ĠRecommendations":13355,"ĠCollege":13356,"mill":13357,"Ġsold":13358,"sts":13359,"ĠSO":13360,"Ġpropos":13361,"ĠMount":13362,"ĠMIT":13363,"ida":13364,"Ġ110":13365,"ssm":13366,"spot":13367,"ĠlogsCreateLog":13368,"Ġmathemat":13369,"ITE":13370,"Ġaggregator":13371,"ĠSubnets":13372,"attributes":13373,"Ġsimplest":13374,"ĠPhone":13375,"Ġreasonable":13376,"stringify":13377,"BUG":13378,"Ġmindset":13379,"Ġhypothe":13380,"hudi":13381,"pa":13382,"ëĭ":13383,"Ġcow":13384,"ĠCopilot":13385,"verno":13386,"idel":13387,"osition":13388,"inker":13389,"Ġsoftwareasaservice":13390,"ĠCSR":13391,"Ġliter":13392,"caller":13393,"Ġmulticast":13394,"ĠScheduler":13395,"Ġcoffee":13396,"MG":13397,"eration":13398,"Ġspo":13399,"ĠATO":13400,"Ġinvent":13401,"igateway":13402,"ĠAmazonS":13403,"ĠLos":13404,"illing":13405,"Ġtransmit":13406,"Ġunus":13407,"Ġrecap":13408,"Ġdecryption":13409,"à¸´":13410,"ampions":13411,"Ġorigins":13412,"Report":13413,"imensional":13414,"Ġhighlighting":13415,"ircuit":13416,"ĠConfluent":13417,"Ġmoments":13418,"Ġupskill":13419,"Ġexponential":13420,"temp":13421,"zy":13422,"ĠSUC":13423,"ummy":13424,"ĠVehicle":13425,"ĠDataStore":13426,"Ġactors":13427,"Ġassigning":13428,"Ġpacks":13429,"Ġproductionready":13430,"Execute":13431,"Ġdiagrams":13432,"ĠRepeat":13433,"ĠPlayer":13434,"Ġgoverned":13435,"Ġnonproduction":13436,"Ġpopularity":13437,"guard":13438,"ĠSignature":13439,"Ġfinetuned":13440,"certificate":13441,"reviews":13442,"Ġcuttingedge":13443,"Ġ1234567890":13444,"machine":13445,"BI":13446,"Basic":13447,"Kubernetes":13448,"audit":13449,"cu":13450,"sible":13451,"rot":13452,"lica":13453,"ĠFarm":13454,"Ġenters":13455,"eread":13456,"ĠRedu":13457,"Ġrepet":13458,"ĠSSMS":13459,"Ġserious":13460,"requently":13461,"Ġdelimit":13462,"Ġletting":13463,"Ġshel":13464,"compressed":13465,"Ġsmarter":13466,"Ġ8080":13467,"profit":13468,"ĠHosting":13469,"Ġrdsdb":13470,"Ġimmersive":13471,"fortunately":13472,"ĠDXC":13473,"Ġelevated":13474,"Ġappointment":13475,"hu":13476,"how":13477,"mx":13478,"entity":13479,"ĠSME":13480,"ĠEHR":13481,"ĠLaun":13482,"ĠGPT":13483,"Ġseat":13484,"Ġhearing":13485,"clave":13486,"ĠKong":13487,"ĠCompose":13488,"Ġundergo":13489,"Ġcommandline":13490,"Ġtiming":13491,"ĠZeal":13492,"Ġshortterm":13493,"Ġbinlog":13494,"Ġrolled":13495,"Ġcultural":13496,"cheduler":13497,"YYYY":13498,"Ġrarely":13499,"ln":13500,"icago":13501,"ĠCrypt":13502,"char":13503,"Ġgate":13504,"ĠRad":13505,"ayers":13506,"else":13507,"ancer":13508,"ĠQue":13509,"taining":13510,"Ġresourcebased":13511,"Ġcorp":13512,"Ġsender":13513,"IND":13514,"Ġlocalhost":13515,"ĠPrice":13516,"ismic":13517,"Ġdisplaying":13518,"Period":13519,"Ġhundred":13520,"Ġaffects":13521,"xxxxxxxxxxxx":13522,"PROGRESS":13523,"360":13524,"GA":13525,"HOME":13526,"QDN":13527,"RPC":13528,"gate":13529,"wal":13530,"Ġpure":13531,"Ġband":13532,"ĠEar":13533,"quence":13534,"ĠRyan":13535,"ĠBlu":13536,"Ġinclusive":13537,"ĠArchitecting":13538,"ÂłÂłÂłÂłÂłÂłÂł":13539,"ĠARM":13540,"Ġobservation":13541,"ĠClassification":13542,"Ġcompromise":13543,"Ġaptget":13544,"bus":13545,"rig":13546,"uj":13547,"ĠDH":13548,"ĠLa":13549,"empor":13550,"ĠJames":13551,"Ġunzip":13552,"Ġended":13553,"Ġmultis":13554,"Ġobj":13555,"Ġ55":13556,"Ġ49":13557,"ĠThom":13558,"Ġminimizes":13559,"headers":13560,"accounts":13561,"Ġretailer":13562,"ĠAssociation":13563,"yyyy":13564,"Ġexposing":13565,"RouteTable":13566,"arnawsiam":13567,"loadbalancer":13568,"Ġrecursive":13569,"Ġaccompanying":13570,"Ġmor":13571,"ĠFix":13572,"Ġarise":13573,"Ġinclusion":13574,"archive":13575,"ARD":13576,"Ġplaceholder":13577,"Ġinvested":13578,"Ġholding":13579,"ĠBIG":13580,"ISTS":13581,"Ġpromotion":13582,"Operator":13583,"CloudFront":13584,"Ġneighbor":13585,"Apache":13586,"ĠManufacturing":13587,"Bus":13588,"GC":13589,"rt":13590,"essaging":13591,"Ġvoices":13592,"Ġusecases":13593,"ronics":13594,"resolution":13595,"track":13596,"Ġsurround":13597,"ĠAgile":13598,"ĠTimeout":13599,"Ġfetches":13600,"20200":13601,"UILD":13602,"Ġphotos":13603,"ĠNatural":13604,"Ġassembly":13605,"Ġtwopart":13606,"TV":13607,"Ġbits":13608,"ĠSY":13609,"sevent":13610,"ĠAWSIAM":13611,"ĠDiff":13612,"ĠMiB":13613,"Ġintend":13614,"plugin":13615,"yspark":13616,"Architecture":13617,"Program":13618,"TOKEN":13619,"ĠVerified":13620,"Ġvulnerable":13621,"Ġcomparable":13622,"ĠEmploy":13623,"ĠROLE":13624,"ĠArea":13625,"Ġenforcing":13626,"artifacts":13627,"Ġlivestream":13628,"Ġimperative":13629,"Ġpositives":13630,"Are":13631,"Car":13632,"tensor":13633,"Ġtap":13634,"icing":13635,"Ġconvention":13636,"emy":13637,"ooses":13638,"ĠChart":13639,"Ġrestoring":13640,"ASK":13641,"authenticated":13642,"Ġsynthes":13643,"ĠOptimize":13644,"IMAGE":13645,"ĠImplementation":13646,"ĠScalable":13647,"Latency":13648,"Ġbalanced":13649,"Ġefs":13650,"Ġconcent":13651,"Ġoutof":13652,"team":13653,"ĠAlliance":13654,"Ġimpress":13655,"Ġdescribest":13656,"umberyard":13657,"ĠCDP":13658,"Editor":13659,"Ġselling":13660,"Ġfilled":13661,"ĠJapanese":13662,"Ġcomprises":13663,"Ġtranscripts":13664,"Active":13665,"virtual":13666,"Ġexplanation":13667,"toler":13668,"Ġdiving":13669,"agec":13670,"agger":13671,"ĠMPI":13672,"Ġlean":13673,"ĠStation":13674,"acceler":13675,"apid":13676,"owner":13677,"efs":13678,"ĠSSLT":13679,"ĠÂłĠÂłĠ":13680,"Ġillustration":13681,"Ġbreaks":13682,"Ġadapted":13683,"Ġproceeding":13684,"ĠGenomics":13685,"ĠLatin":13686,"ĠHyperledger":13687,"Del":13688,"Pack":13689,"dl":13690,"Ġrend":13691,"imum":13692,"Ġloops":13693,"ĠCompare":13694,"Ġ42":13695,"Ġrepair":13696,"ĠResNet":13697,"Ġcolumnar":13698,"Ġbigint":13699,"Ġcommitments":13700,"ĠVisualize":13701,"modules":13702,"subscribe":13703,"Detect":13704,"Alias":13705,"IX":13706,"Ãº":13707,"anner":13708,"Ġfelt":13709,"ĠDATE":13710,"Ġbyte":13711,"Ġhence":13712,"terraform":13713,"Ġaccesses":13714,"property":13715,"Ġ2011":13716,"metal":13717,"ĠEdStart":13718,"processed":13719,"ADD":13720,"Ġencouraged":13721,"Ġexceeded":13722,"ĠPlanning":13723,"ĠItems":13724,"à¸ģà¸²à¸£":13725,"ĠBEGIN":13726,"ĠSid":13727,"Ġharm":13728,"abet":13729,"ĠDifferent":13730,"ĠPHI":13731,"ĠRC":13732,"ĠFront":13733,"ĠGartner":13734,"ĠBoston":13735,"ruption":13736,"Ġmakers":13737,"pectives":13738,"Ġinitialized":13739,"Ġenhances":13740,"ĠINTE":13741,"ĠREADY":13742,"ti":13743,"alom":13744,"ĠSW":13745,"Ġchooses":13746,"ĠBio":13747,"ĠBah":13748,"ssql":13749,"Ġworkspaces":13750,"Ġourselves":13751,"ĠYoure":13752,"Ġimports":13753,"ĠAdobe":13754,"Ġexpressed":13755,"122":13756,"worker":13757,"Ġportfolios":13758,"ifactor":13759,"Ġpresenting":13760,"à¤°":13761,"Working":13762,"CSI":13763,"Ġcomposition":13764,"Ġmagn":13765,"Ġincrementally":13766,"Ġce":13767,"eslig":13768,"ĠAugment":13769,"Ġdie":13770,"segment":13771,"ĠLE":13772,"ĠConference":13773,"Ġbacking":13774,"ĠCommit":13775,"ĠSpaces":13776,"Ġoffset":13777,"à¸°":13778,"ĠCOUNT":13779,"Ġaggregations":13780,"iconductor":13781,"Ġdereg":13782,"Ġbroadcasters":13783,"Ġwinners":13784,"Ġlocked":13785,"Ġadvertise":13786,"Visit":13787,"communications":13788,"ĠZealand":13789,"Hand":13790,"Hash":13791,"Length":13792,"including":13793,"Ġpinpoint":13794,"loom":13795,"Ġrent":13796,"amper":13797,"Ġstays":13798,"epoch":13799,"Ġlosing":13800,"ĠBi":13801,"intech":13802,"compliance":13803,"ĠComponent":13804,"ĠSever":13805,"forma":13806,"Ġissuing":13807,"privile":13808,"Ġsatisfied":13809,"Ġfirmware":13810,"istribution":13811,"TCP":13812,"growing":13813,"ipt":13814,"ucentral":13815,"yes":13816,"Ġtu":13817,"Ġrear":13818,"ĠSqu":13819,"oway":13820,"ĠDrive":13821,"ĠEV":13822,"ĠVS":13823,"ĠVert":13824,"Congratulations":13825,"Ġformal":13826,"naire":13827,"ĠAgency":13828,"Ġrowlevel":13829,"ĠEXISTS":13830,"ĠRequests":13831,"Ġsemant":13832,"Alex":13833,"TRA":13834,"night":13835,"tre":13836,"wa":13837,"iche":13838,"entials":13839,"Ġdatastore":13840,"empts":13841,"interval":13842,"Ġjav":13843,"Strategy":13844,"Ġpose":13845,"apped":13846,"ĠChalk":13847,"ĠQuotas":13848,"Ġadmins":13849,"ĠUSE":13850,"ĠARC":13851,"Secure":13852,"KeyId":13853,"Ġsafegu":13854,"à¹ģ":13855,"Ġannotated":13856,"Ġsaying":13857,"Ġaimed":13858,"Ġencountered":13859,"provisioned":13860,"Ġwrapper":13861,"Looking":13862,"clipse":13863,"PRI":13864,"hr":13865,"reed":13866,"Ġcust":13867,"entry":13868,"ĠSTE":13869,"ĠProd":13870,"ĠConfigMap":13871,"ĠPermission":13872,"fsx":13873,"ĠProjects":13874,"Detection":13875,"Ġreflected":13876,"Expand":13877,"ĠEstimator":13878,"rban":13879,"Ġdegrad":13880,"ĠSSLTLS":13881,"Gra":13882,"mend":13883,"Ġapart":13884,"ona":13885,"Ġwrap":13886,"ali":13887,"qua":13888,"Ġroler":13889,"Ġcompound":13890,"ĠAsk":13891,"Ġsearchable":13892,"ĠThree":13893,"ĠDisplay":13894,"Ġcompetitors":13895,"ĠWHEN":13896,"ĠOptimizing":13897,"Modern":13898,"Ġweighted":13899,"Ġfluctu":13900,"enetian":13901,"ĠTPCDS":13902,"ĠDeadline":13903,"BY":13904,"Driver":13905,"Title":13906,"onto":13907,"ĠTiB":13908,"Ġdatash":13909,"ĠMill":13910,"ĠGluon":13911,"encryption":13912,"lla":13913,"Ġunderstood":13914,"apply":13915,"ĠĠĠĠĠĠĠĠĠĠĠĠĠĠĠĠĠĠĠ":13916,"Real":13917,"Ġsurve":13918,"Ġtunnels":13919,"Ġchecksum":13920,"UNCTION":13921,
[...]
