#version: 0.2 - Trained by `huggingface/tokenizers`
Ġ t
Ġ a
i n
o n
h e
e r
a t
r e
Ġt he
Ġ c
Ġ s
e s
o r
e n
o u
i on
i t
in g
a n
Ġa n
Ġ f
Ġ p
Ġt o
Ġ A
Ġ d
e d
i s
Ġ w
i c
Ġ in
l e
č Ċ
a l
Ġan d
s t
Ġ m
Ġ o
Ġ b
r o
c t
a r
en t
l o
e t
Ġ re
at ion
Ġ S
o m
Ġ u
Ġo f
a m
Ġt h
i l
s e
Ġ y
Ġ e
Ġy ou
Ġ n
Ġ C
c e
u t
c h
W S
Ġ Ġ
Ġf or
at e
i g
a g
o l
v e
a s
Ġ T
i m
Ġ h
ĠA WS
Ġ I
Ġc on
a b
it h
d e
er s
Ġ is
Ġs t
Ġ on
es s
l y
m a
Ġp ro
Ġw ith
Ġd e
p p
e ct
Ġd at
i f
m ent
z on
Ġ l
u r
o w
v er
r a
Ġ g
Ġu s
u re
u st
v i
ma zon
u n
Ġth at
e c
u l
ag e
ĠA mazon
Ġc an
c k
Ġ D
o t
a d
Ġ E
Ġ P
q u
Ġa s
it y
ou r
Ġe x
Ġ M
Ġm o
Ġc om
lo w
Ġa l
es t
r i
Ġdat a
Ġ R
Ġyou r
n t
Ġ en
c c
Ġb e
Ġ or
er v
p le
ion s
or m
Ġ .
l ic
p t
Ġn e
Ġ F
i z
or k
a y
Ġ v
Ġ r
Ġth is
k e
ou t
e l
ar t
ro m
erv ic
Ġ L
or t
Ġa pp
Ġa re
Ġs u
i r
e m
i d
ou d
o st
Ġ W
l oud
is t
Ġf rom
Ġ it
f orm
am e
ĠT he
Ġin t
u s
Ġ G
Ġw e
a in
Â ł
Ġc h
Ġc re
ation s
an ce
u m
an d
e p
Ġa cc
ab le
i es
Ġre s
i ve
at ed
ust om
p er
Ġ lo
il l
Ġu se
p l
Ġ O
s o
Ġb y
Ġcon t
in e
Ġa d
Ġ im
c es
Ġ B
Ġw h
Ġ 1
Ġs c
Ġs e
i re
Ġ le
o o
a ck
r ou
ul t
Ġ N
Ġin st
n d
Ġs h
ct ion
s s
Ġc ustom
a se
o re
an t
Ġ he
ĠĠ ĠĠ
Ġ H
Ġa t
d u
ou nt
al l
Ġb u
he r
a ve
Ġus ing
ig h
Ġw ork
o de
en d
Ġf ol
Ġm a
Ġ 2
Ġu p
u b
Ġm an
a il
i le
Ġapp lic
a re
Ġs ervic
0 0
u e
f er
im e
h is
Ġfol low
f ig
t er
ĠI n
a st
Ġp er
Ġc l
g e
ĠC loud
Ġt e
ol ut
Ġ V
p lo
p ut
an s
Ġ qu
p s
Ġh ave
Ġ U
p o
Ġne w
Ġt r
d ing
he n
ĠS t
al ly
a c
Ġp re
ĠC on
Ġmo re
Ġw ill
Ġs ec
Ġfollow ing
Ġs p
Ġpro vi
e w
in t
Ġre qu
Ġa b
v ent
Ġr un
o c
T he
plo y
c l
l d
a ch
Ġmo de
ar d
t h
Ġt ra
a ct
i p
Ġthe ir
Ġn ot
n ing
f f
e g
ĠT his
Y ou
Ġad d
Ġa ut
igh t
if ic
en ce
Ġne ed
our ce
am ple
Ġmode l
r on
Ġh ow
o d
lo g
y p
it ion
Ġ j
c ess
i al
ic h
i v
il ity
Ġde ploy
n ect
I n
Ġs et
oo se
Ġbu il
x t
at a
le ct
Ġs olut
Ġp l
Ġ our
j ect
Ġ K
Ġa r
g h
a k
Ġcre ate
y st
Ġcon fig
p ort
i b
Ġwh ich
Ġf un
Ġacc ess
Ġ ro
d a
et w
i ent
ment s
A M
Ġ vi
r u
Ġcom p
am b
c om
a ce
or y
w s
Ġ out
Ġcom m
u d
Ġal l
Ġal so
Ġacc ount
lo ad
ur ity
Ġapplic ation
Ġpro cess
Ġhe l
t her
ig n
en s
at es
a p
amb da
yst em
ri b
ic s
Ġt ime
Ġcustom ers
Ġh as
Ġp ost
pp ort
ou ld
o g
as s
at ing
er ver
ĠA P
ab l
as ed
o p
Ġc loud
o b
if y
ch it
chit ect
ve lo
ĠS ervic
at ch
r y
Ġv al
our ces
Ġ You
ou s
pt ion
Ġ ke
a v
d er
rou gh
Ġ J
Ġtr ans
l i
ĠM an
Ġservic es
Ġint o
iz e
al y
form ation
ĠE C
ic al
ĠW e
y n
t e
ĠL ambda
Ġrequ ire
Ġinst ance
d s
Ġf e
Ġs o
ck et
ust er
ar y
ab ase
el l
Ġp art
Ġex ample
Ġde f
Ġservic e
n o
ow n
i de
ĠF or
Ġint er
an g
Ġc ode
k s
ver y
iz ation
ĠAP I
b er
Ġd es
Ġa v
Ġst ep
Ġpro du
ol ic
Ġm et
ru ct
Ġlo g
Ġfun ction
Ġd et
at ure
Ġd o
ar g
Ġle ar
Ġab out
Ġper form
u p
Ġf ile
yp e
e ar
Ġst art
velo p
en c
u al
Ġ 3
re ss
Ġus er
p ro
Ġsu pport
Ġ ent
Ġcon nect
er t
Ġsolut ion
Ġa c
Ġin cl
Ġch oose
Ġo ver
Ġse e
Ġprovi d
in d
re am
Ġc ost
ic e
Ġhel p
o s
Ġth rough
Ġthe se
Ġw hen
Ġu n
Ġen d
Ġus ed
vi ron
Ġres ources
Ġe vent
a ke
Ġaut om
Q L
Ġex per
in ess
etw ork
re ate
ar k
Ġsp ec
Ġcon s
Ġsu ch
Ġre c
Ġm e
l l
Ġal low
et s
Ġsec urity
Ġo per
Ġn ame
s h
Ġd is
us iness
Ġs ystem
nd er
g an
p on
Ġo ther
ab ility
so le
Ġke y
po int
or s
age ment
Ġapplic ations
m is
Ġdat abase
f t
Ġ2 0
er e
t ing
Ġav ail
Ġit s
r ation
Ġan y
en er
r it
Ġen viron
Ġin formation
Ġde velop
Ġthe y
Ġte ch
an ces
i ke
Ġre g
he re
S t
Ġs im
Ġm ult
Ġon e
Ġte am
Ġ if
ĠD ata
Ġa g
t s
ag es
ire ct
e f
ri v
ur ation
ĠT o
ĠP ro
Ġcom ple
in ing
ic k
Ġcre ated
Ġcont ain
Ġd if
Ġt est
ar i
om e
Ġ k
Ġg et
or age
Ġcl uster
ĠĠ Ġ
Ġan aly
rou p
Ġqu er
cc ess
Ġb usiness
Ġfe ature
Ġw as
Ġe ach
Ġc ol
n er
n et
Ġbuil d
Ġthe n
ĠServic e
Ġo b
ro ss
ar am
P C
ra ct
p en
id ent
w are
ig ure
w ay
rib ut
Ġp r
Ġse lect
ak er
ĠCloud F
it ies
Ġb ack
Ġl ike
Ġp olic
Ġsu b
r ate
p re
ruct ure
Ġsh ow
vi ew
Ġp o
Ġre t
on e
ag ed
Ġar chitect
ĠC om
Ġdif fer
an c
Ġbu cket
ĠĠĠĠ ĠĠĠĠ
r am
Ġo pt
in es
Ġj ob
ers ion
Ġthe m
i a
iz ed
as es
i ence
M aker
c on
ĠD e
ff ic
aram et
oc u
Ġm on
D B
Ġ 5
ect ion
C on
c he
ir st
Ġlo c
o k
ro l
ĠI AM
Ġor gan
l ess
Ġs ource
Ġa ct
abl es
Ġn um
Ġf il
age Maker
on g
Ġg o
u se
an ge
Ġavail able
ve l
Ġcustom er
em pl
orm ation
Ġn etwork
F or
Ġrequ est
Âł Âł
Ġst ore
Ġb ut
Ġc all
u es
ag er
e xt
Ġre ad
Ġu nder
c re
Ġw here
Ġt w
a ws
Ġenviron ment
m in
Ġdiffer ent
Ġincl u
Ġcon sole
ĠV PC
Ġus ers
at ive
a ult
Ġg ener
Ġas s
ĠS ageMaker
Ġh igh
ĠA pp
ĠP art
it or
b o
no log
ic ally
Ġres ult
Ġp at
enc y
Ġint eg
Ġt able
r ing
i o
f ter
Ġc ap
Ġinst ances
ib le
Ġw ant
Ġon ly
ac he
Ġup d
a un
Ġin d
ic t
Ġprovid es
ip el
or d
Ġprodu ct
Ġ Q
Ġb ot
Ġmult i
Ġs erver
Ġp ub
is ion
ent s
ĠR eg
ur ing
t t
re e
Ġarchitect ure
yn am
Ġin f
po s
a le
E R
Ġto ol
Ġwork load
f ul
Ġim port
if t
Ġapp ro
Ġ 4
Ġac ross
ĠI f
T o
if i
Ġro le
Ġat t
ĠCloudF ormation
Ġcomm and
ra p
Ġconfig uration
Ġn ow
he ck
ter n
ra st
Ġma ke
ou nd
Ġperform ance
ĠR e
Ġin s
n ame
Ġ 0
is e
Ġend point
Ġrun ning
ic es
Ġin v
Ġ ident
Ġtw o
Ġconfig ure
ĠS p
at form
Ġstep s
m s
as h
ocu ment
Ġsh ould
ec ut
Ġm ig
l er
mis s
O N
Ġres pon
h oose
ĠC reate
Ġprovi de
f low
Ġquer y
Ġb ased
A WS
Ġt empl
it s
rast ructure
Ġe as
Ġob ject
ri pt
ĠA d
Ġmulti ple
Ġnum ber
Ġs ame
Ġadd ition
Ġcom put
ĠA r
Ġst orage
ĠI t
ate way
in ed
y s
it e
Ġval ue
ar ch
d ent
Ġf in
ĠM L
F igure
Ġf irst
Ġth an
Ġv is
Ġl at
Ġde m
Ġlear ning
Ġst ack
Ġsolut ions
Ġent er
ĠS ec
oo k
Ġdat as
Ġtech nolog
O n
c rib
Ġb ec
D S
Ġv ari
Ġl ist
a use
ple ment
ess ion
Ġm in
Ġen g
Ġex p
2 0
Ġst ream
Ġd irect
ow er
l ast
Ġmet r
Ġma ch
Ġtra ining
Ġw ay
ur n
Ġdet ail
Ġe v
ation al
Ġch ang
re s
ar ge
ĠMan ager
ur re
t ime
ĠA n
Ġcl ient
ct ions
Ġw ell
t ain
Ġwe b
Ġinf rastructure
Ġex t
ĠA ut
at or
ĠR ed
Ġpro ject
Ġim pro
arg et
Ġt as
lic ation
Ġpolic y
Ġwith in
Ġde v
Ġsc al
en g
ot e
c i
w n
Ġde li
Ġg roup
o T
Ġex ist
Ġlear n
e en
in k
riv ate
Ġcont rol
ĠS erver
Ġm ain
p r
Ġexper ience
ipel ine
A T
e y
iz ations
n ow
o se
Ġf ul
Ġt ype
etw een
W atch
Ġim plement
u il
Ġs ome
Ġbe en
Ġb log
nt er
Ġpl atform
Ġl aun
com m
T his
Ġb etween
I D
ĠT r
Ġe m
ft ware
Ġre p
Ġst ate
Ġcont ent
t ics
Ġim age
Ġsh are
Ġallow s
Ġdef ault
Ġman agement
ĠO n
Ġd own
Ġp aramet
Ġin cre
ĠH e
ifi ed
it al
ark et
ĠU s
Ġwh at
Ġc ase
fer ence
on d
Ġus es
Ġre al
Ġw ere
Ġsc ale
Ġinst all
S T
Ġc heck
1 2
Ġdeploy ment
Ġout put
al th
Ġmach ine
Ġm ust
N ame
ight s
ĠI oT
ĠE n
a pp
Ġspec ific
Ġfil es
Ġre du
Ġthe re
ff ect
Ġmodel s
D K
in u
Ġm ess
ĠCloud Watch
Ġn o
Ġtempl ate
last ic
ing le
ĠE x
Ġen c
o DB
lo b
Ġopt im
Ġre m
Ġm ay
Ġdes ign
ĠA s
c ed
b ased
C hoose
Ġb est
Ġadd ress
Ġo wn
Ġa ws
ĠA l
Ġcomp an
t en
ĠC h
h ot
o ver
x x
i e
f ore
ĠS QL
is h
ĠQ u
Ġsc he
re ad
Ġwork flow
ag ing
Ġv ersion
g ram
M S
Ġautom at
ĠR DS
L I
l ue
bo ard
c le
Ġper miss
om ain
Ġst at
i x
A P
N S
Ġlo ok
rap h
ific ation
Ġworkload s
Ġto p
ĠServic es
Ġma k
r ame
Ġfor m
Ġp ass
L E
ol um
Ġof f
Ġ ed
ĠI D
Ġw rit
Ġrequire d
Ġh ost
S QL
Ġd ist
g re
ĠS olut
cc ount
l es
urre nt
1 0
Ġex ecut
Ġde c
sh ift
Ġt yp
Ġman aged
Ġvi ew
d ition
Ġexist ing
Ġmon itor
Ġd ocument
ĠCon nect
Ġfeature s
Ġcomple te
i er
Ġp age
Ġbot h
d ict
Ġinclu ding
Ġpub lic
ĠS e
Ġc ent
Ġ1 0
ĠD ynam
g et
ing s
Ġt ake
Ġmo st
Ġwith out
Ġman y
i el
Ġdis c
Ġs ection
v ision
ul ar
Ġs ingle
Ġt arget
h or
W e
ĠRed shift
il ities
Ġp ract
R E
al k
e x
ab el
Ġm y
Ġde le
il y
Ġlo ad
l ine
Ġres ource
oc us
Ġmetr ics
Ġg u
Ġh and
ĠIn st
Ġchang es
ĠR es
Ġwh ile
Ġ 6
v ed
Ġy ear
lo ck
n ers
Ġc ert
ĠH ow
ĠAr chitect
ĠPart ner
Ġs ign
ĠG ateway
Ġshow s
Ġo pen
ĠCon t
ĠW ith
ĠDynam oDB
K S
Ġw ould
ĠE lastic
ind ow
Ġso ftware
ĠI P
Ġsu ccess
comm end
A mazon
Ġman age
o le
Ġpo int
Ġtool s
Ġaccount s
rou nd
Ġm em
ĠReg ion
ic ro
Ġaddition al
ash board
Ġsec ure
P U
Ġre commend
Ġad v
Ġevent s
ĠA t
Ġre l
Ġresult s
s on
Ġcontain er
p end
Ġe very
Ġcl ass
e ver
ay s
it ory
Ġcomm un
à ¸
Ġdatas et
Ġdevelop ment
Ġch ange
Ġvi de
t o
Ġa m
Ġf ocus
ĠMan agement
Ġpro t
iv es
Ġch all
pl i
or ld
Ġvi a
Ġtechnolog y
e b
I d
Ġneed s
Ġimpro ve
Ġ Y
Ġbuil ding
Ġeng ine
Ġb en
Ġautomat ically
an n
ul es
am es
w ork
no v
Ġsystem s
o ve
lob al
so ci
Ġdetail s
lic k
u g
pl ace
Ġp ipeline
A R
ub er
Ġc or
Ġre pos
. .
ron t
Ġsc ript
Ġ Âł
Ġqu ick
Ġtra ffic
Ġen s
al ity
uber net
er r
Ġle ad
Ġen able
Ġset ting
Ġcons um
og n
ĠE KS
I f
ubernet es
ĠC ode
nt ic
st and
on t
g er
Ġcomp on
Ġre st
he ntic
f or
e ch
Ġind ust
Ġ 8
Ġprocess ing
al s
Ġd i
ri d
Ġis s
av ig
Ġc ould
v ing
ig ital
Ġr out
Ġt im
le ase
ud io
id er
Ġcost s
ĠSt ep
Ġs end
Ġhel ps
Ġre port
Ġne xt
ed ia
ĠTr ans
s p
re at
I N
Ġp ers
f ile
ĠSec urity
Ġdeli ver
Ġpermiss ions
Ġbec ause
vi ous
ĠWe b
u le
00 00
ĠW hen
Ġdist ribut
Ġd omain
Ġo ption
and ard
Ġdo es
e ad
Ġorgan ization
at al
Ġin it
1 9
Ġc ases
b le
rate g
Ġbuil t
ĠO pen
Ġp ack
Ġpro gram
ĠC LI
ma il
t ual
ib ility
ro w
Ġbe fore
Ġ low
h at
de x
ab ilities
pl ify
Ġab le
Ġret urn
s is
am a
Ġval id
Ġin put
Ġlaun ch
A s
Ġs ample
Ġp h
Ġreg ion
w ard
rou ps
Ġor der
Ġanaly tics
en ces
iv ity
Ġrequire ments
ĠCon fig
Ġpre dict
ast er
Ġvide o
1 1
b ack
Ġorgan izations
Ġs m
Ġin nov
Ġt ag
Ġteam s
Ġ Z
s c
Ġle vel
Ġincl ud
E T
r al
Ġf ind
ode l
ri ption
ĠG lue
Ġj ust
Ġp ort
Ġrespon se
Ġl ong
Ġac ce
Ġstart ed
Ġrepos itory
Ġlog s
Ġen abl
Ġc urrent
Ġens ure
y th
n a
s ent
Ġdeploy ed
at h
ĠThe se
ĠS c
C reate
t ed
ĠW ork
ĠG it
m it
i qu
u cket
v al
ay er
Ġre ce
ĠA I
Ġhe alth
Ġval ues
Ġth ose
im it
Ġb ro
ĠS im
Ġv olum
yth on
Ġd ashboard
Ġoper ations
Ġp rivate
Ġ err
Ġwh o
ĠS S
Ġpl an
atal og
Ġh tt
Ġcon st
Ġte xt
Ġpro vision
R O
Ġappro ach
Ġfun ctions
Ġtech n
mis es
Ġmig ration
Ġs erv
ĠC ustom
Ġk now
Ġre view
Ġunder stand
Ġloc al
Ġprodu ction
Ġu t
a pt
r ic
f ace
ĠK ubernetes
Ġ20 2
Ġcre ating
ac ity
Ġs ure
Ġtas k
ial s
g or
le x
Ġs er
or ds
Ġf ew
Ġben ef
h od
ama zon
Ġform at
Ġp e
pli ance
us ion
Ġvis ual
g ing
Ġpre vious
od es
ĠI m
Ġupd ate
Ġas soci
Ġ 7
o ck
Ġmo d
l ed
Ġneed ed
Ġf iel
Ġf ail
Ġt ak
Ġserver less
pl es
o ot
ou gh
yn c
A r
Ġd uring
Ġth ree
Ġim p
Ġsec ond
ĠS ystem
ang u
Ġst rateg
Ġa fter
a ces
Ġ 9
Ġtyp es
ĠQu ick
Ġb et
N T
a f
or a
Ġl arge
Ġenc ry
Ġmin ut
Ġpat tern
iz ing
ad ata
ĠC l
Ġrequest s
Ġinclu de
Ġbe low
R L
crib e
Ġsc re
Ġcap abilities
indow s
Ġad min
Ġstat us
Ġt ables
u ally
Ġ i
ol d
Ġimport ant
Ġaut hentic
Ġt er
A C
Ġon pre
T T
P ro
Ġquick ly
Ġsh own
er ing
ĠE vent
ĠSolut ions
ot her
Ġen ables
Ġan n
Ġpolic ies
o very
ed i
U s
p ect
00 0
in ation
rame work
Ġwork ing
Ġcons ider
v es
c ast
read y
hen a
Ġof fer
Ġd igital
ĠE M
Ġvi r
ervic e
Ġparamet ers
Ġp ower
ĠD at
p d
Ġstore d
Ġde pend
Ġle ver
Ġopt ions
Ġme et
Ġinteg r
ch ie
re t
Ġcomput e
ĠA ccess
Ġp ay
Ġsuccess ful
n s
Ġf low
Ġinteg ration
ig in
Ġe ffic
Ġchall eng
Ġpract ices
Ġbet ter
Ġcomple x
ac y
de m
Ġtrans form
it es
Ġf ound
ur ora
Ġd ont
Ġr ight
ep lo
Ġs ession
Ġim ages
Ġ ver
Ġanaly sis
Ġp ur
H ub
Ġmet hod
per t
ĠA M
Ġnot eb
Ġonpre mises
Ġprovid ed
ĠS DK
eplo y
Ġr ule
Ġtr ig
pr ise
Ġconnect ion
Ġhe re
oo d
Ġbe ing
Ġw orld
ĠSt orage
am p
Ġev en
Ġa chie
C T
Ġdi ag
Ġst andard
ĠN ext
cl usion
ann el
on st
anc ed
m an
Ġe mail
Ġdevelop ers
Ġmak es
ĠA m
Ġdev ice
Ġident ify
ĠO r
Ġpo ss
ur ther
W hen
Ġconfigure d
Ġp ar
Ġse arch
a S
Ġful l
Ġtra ck
uil d
Ġcomm on
Ġmess age
in s
Ġcol um
Ġl abel
h a
Ġquer ies
ĠD irect
ĠP ost
Ġpro ble
dent ials
lo c
Ġ ra
ĠA urora
Ġeas y
Ġag ain
Ġg roups
Ġcom pliance
op y
ĠU n
Ġins ights
olic y
Ġcon f
Ġn avig
Ġre fer
Ġaut hor
Ġr ules
ĠW indows
Ġyear s
ÂłÂł ÂłÂł
Ġ ing
Ġjob s
ines is
A n
Ġminut es
ĠU S
Ġa ction
Ġdem onst
Ġqu est
p art
Ġ X
us s
Ġproduct s
ab ases
S ight
Ġpat h
d ay
Ġup load
Ġs ize
C l
Ġl if
Ġar t
ĠAt hena
he d
R es
Ġs k
S e
l u
che d
W ith
Ġdet ect
Ġtas ks
Ġimp act
ib r
ĠO ut
Ġcert ific
Ġn ode
ĠGit Hub
ĠL og
du ct
Ġke ep
Ġcompon ents
Ġcap acity
a ction
Ġinclud es
Ġdirect ly
il ar
Ġmonitor ing
Ġl angu
Ġc ount
Ġc o
Ġg lobal
Ġcont inu
am ples
Ġindust ry
i lo
ĠEC S
Ġmo der
Ġal ready
al es
Ġinter act
ĠR un
g ra
N ow
S p
Ġl imit
Ġmain tain
Ġsp e
Ġobject s
c ing
at ors
Ġ est
ĠM arket
Ġanaly z
Ġm ight
av ing
ra cle
Ġe ar
Ġvir tual
I ON
Ġredu ce
ut ure
Ġful ly
ĠM y
ĠQuick Sight
S ON
ĠL ear
it ions
it ive
v en
C om
Ġ1 2
Ġdele te
o ice
Ġapp ly
re d
Ġit em
I C
le an
ĠP r
ro ll
Con fig
E S
ĠT h
Ġdisc uss
Ġg reat
x im
ĠN etwork
Ġsim ple
Ġm at
ĠI nter
Ġyou re
Ġse ver
ĠDe v
ĠP ython
ĠU RL
ate ly
iqu e
Ġsupport s
ro du
ĠCon sole
ĠI nt
Ġacce ler
Ġin dex
al anc
c ription
ust ers
Ġmet adata
Ġcont act
A N
ent ly
ĠB y
Ġreg ist
Ġatt ribut
Ġcom b
Ġloc ation
ĠI dent
ĠT ech
Ġqu e
ou n
Ġh is
ĠSim ple
Ġp ri
Ġparamet er
Ġh our
Ġpart ic
ĠO racle
Ġc lick
in c
ĠSt art
qu is
ul l
Ġwork s
Ġpers on
Ã ©
Ġut il
Ġab ility
ĠUs ing
E x
Ġb lock
1 6
ĠHow ever
ĠEM R
ĠI T
X X
ĠF un
Ġh ad
Ġmon th
Ġin c
ĠAd d
al le
Ġpub l
Ġdiag ram
Ġp an
Ġdocument ation
Ġor igin
Ġhtt ps
ist s
ver n
Ġan other
Ġle ts
Ġm arket
en se
ri e
Ġdat abases
Ġcompan y
Ġr is
1 7
Ġdown load
v ers
ĠAn aly
R ole
Ġdev ices
Ġl ine
Ġtechn ical
ce pt
Ġreal time
ĠEn g
Ġposs ible
Ġoper ational
is s
Ġde ep
w ord
a it
Ġt ab
ffect ive
ĠAPI s
Ġg r
Ġeas ily
Ġst ud
Ġenviron ments
A d
us er
Ġsc en
Ġre le
ist r
im ary
ĠR ep
Ġmoder n
Ġus age
D ata
i vi
A fter
Ġnoteb ook
ĠP l
Ġgo vern
O R
Ġa ud
Ġe c
ear ch
ĠK inesis
Ġrep lic
ĠĠĠĠĠĠĠĠ ĠĠĠĠĠĠĠĠ
Ġcre ates
Ġback up
Ġavail ability
O ps
gor ith
ĠJ SON
5 6
Ġset up
m et
Ġg row
ĠS AP
as k
rit ical
Ġassoci ated
Ġf uture
ar m
er y
gre SQL
et ting
Ġn odes
na ps
Ġshare d
Ġa round
and s
ĠA p
Ġiss ues
ell ig
in ce
Ġin ference
c ent
3 0
ect or
naps hot
o id
ent ion
ĠThe re
con fig
Ġcompan ies
enc ies
p are
ĠS h
Ġrespon s
3 4
se l
l ab
Ġchalleng es
our n
g in
Ġh ard
Ġcre dentials
iv ers
Ġfe ed
Ġj o
Ġvari ous
Ġg raph
ĠPost greSQL
velo per
se arch
le ction
Ġserv ers
F S
it her
ock er
Ġro les
E C
Ġsever al
Ġlat ency
Ġcommun ic
inc ip
Ġmem ory
Ġtest ing
inu x
ĠPart ners
al ing
Ġex pl
re qu
k er
Ġcol lect
ĠApp lication
Ġe l
du le
Ġw alk
Ġing est
ĠD B
R e
Ġsm all
un e
1 8
Ġof ten
un d
ere quis
AM E
ir d
ri es
ire d
ĠT ra
im ent
Ġl ibr
a aS
u ps
ec ess
j son
I T
ĠS u
ĠSe lect
Ġn ames
Ġsetting s
Ġcl usters
ol ve
on s
q l
Ġcont in
ĠÂł ĠÂł
p ri
ĠCom put
Ġcall ed
el f
Ġpl ace
Ġcontain s
ĠF igure
ivi du
tern al
h ip
al u
Ġenabl ed
ĠG u
ent ial
d k
Ġal gorith
Ġprocess es
Ġrec ord
ure s
Ġpl ay
T ype
Ġm ill
Ġdes crib
Ġlat est
d ata
Ġf urther
Ġmin im
Se lect
Ġf ramework
st ance
Ġgener ate
re ts
Ġrequire s
ens hot
Ġauthentic ation
Ġadd ed
Ġspec ify
ĠM icro
Ġch annel
m l
Ġwrit e
o ad
2 2
Ġoff ers
ĠIdent ity
for ce
re sh
ĠSystem s
A S
Ġn on
ĠAp ache
y cle
Ġb o
Ġl ive
Ġe ither
Ġrep lication
o ple
t es
i ally
ĠMarket place
Ġtrig ger
Ġscal ing
Ġs ens
Ġdeli very
Ġacc ur
AT E
v ail
p or
t on
Ġre pre
Ġind ividu
ĠSt udio
TT P
l arge
Ġtra in
ĠThe y
Ġtim es
ĠN ame
iz es
iv en
alle l
Ġp od
Ġdef ine
Ġpr imary
Ġal ong
gre g
Ġerr or
Ġab ove
Ġb ase
s ide
ant s
Ġvolum e
Ġf lex
pt ed
Ġscre enshot
ur al
ĠCloudF ront
Ġd est
Ġtop ic
ĠS AM
Ġscal able
i od
Ġexp ect
ar ing
Ġfiel d
ĠN ew
u ch
Ġl ast
ĠS o
Ġsche ma
Ġinv est
Ġma de
Ġdirect ory
Ġfil ter
pp ing
e le
Ġre f
Ġsim ilar
B S
O S
er m
9 9
Ġscen ari
Ġautom ated
Ġo p
ĠS NS
j o
Ġev alu
Ġmak ing
A B
en i
le vel
Ġachie ve
Ġcent ral
Ġs ent
b out
de f
Ġun ique
Ġincre ase
Ġ1 00
on ds
b ject
Ġmess ages
Ġcre ation
5 0
ĠP re
res pon
ĠE d
a w
Ġmo ve
Ġinter face
ep ar
Ġstream ing
Ġser ies
ecess ary
d b
Ġstrateg y
Ġf ore
Ġprovi ding
Ġp op
T ra
Ġact ions
erequis ites
xx xx
Ġsk ill
C O
Ġh ig
ĠR E
ub lic
ĠP rivate
che s
Ġst ring
is hed
Ġrec ords
ĠA fter
it ed
Ġexecut ion
ĠF in
Ġad o
Ġautom ation
lab or
Ġinst ruct
ĠC O
Ġquest ions
rid ge
ĠH TTP
Ġbenef its
incip al
ĠT ype
Ġs elf
Ġdatas ets
ĠReg ions
Ġf ree
Ġag ent
ou se
Ġpe ople
ĠDat abase
po se
Ġj ourn
Ġhigh ly
Ġc ore
a ut
pport un
t ra
ĠA S
ĠC DK
ĠC ent
Ġmig r
Ġcor re
or ing
ĠE nter
Ġth ird
at her
a ir
ĠA D
ĠA R
ĠMan aged
Ġt en
Ġd ri
ĠCom p
ĠS aaS
A L
k en
Ġc apt
Ġ very
Ġret rie
6 4
N AME
M L
S ec
Ġs epar
an k
b ers
Ġpart ners
Ġupd ated
Ġann oun
Ġf aster
C loud
Ġtechnolog ies
ĠUs er
Ġme ans
ir m
Ġm icro
Ġb ring
Ġcont ext
tain er
Ġendpoint s
ĠAP N
ĠA ccount
way s
Ġpro f
so ft
Ġs ources
ĠU se
Ġb atch
Ġprovi der
Ġex port
et y
Ġam ount
ĠM edia
end ing
ĠD ocker
Ġlangu age
ro p
w it
pert ies
ĠServer less
Ġadmin istr
if act
al ue
ĠCom m
Ġc are
Ġf ac
Ġrun s
ĠL inux
Ġtr y
Ġsupport ed
Ġinter est
Ġgener ated
Ġc ritical
Ġupd ates
t ype
Ġadv ant
Ġh y
Ġext ract
Ġo pportun
Ġl ess
Ġd ay
a x
Ġl ayer
Ġm uch
Ġst ill
Ġkey s
ĠW hat
ĠEng ine
led ge
Ġst ructure
us h
ĠD es
Ġread y
Ġc opy
Ġcall s
Ġtrans formation
Ġdef ined
ff ort
Ġ et
amazon aws
Ġm iss
g ress
Ġris k
ar ies
ĠF ire
St ep
Ġint rodu
Ġd ynam
ĠSolut ion
Ġqu ality
Ġc lo
ĠD NS
l ight
Ġav oid
Ġagain st
Ġtak es
Ġcol labor
Ġcons ist
Ġsim ul
Ġcommand s
Ġre li
pl ay
Ġpre sent
Ġm atch
Ġe ffort
A pp
f ix
I P
ĠA vail
ol s
Ġent ire
Ġc over
Ġr ange
1 5
ar n
Ġper iod
ĠSp ark
Ġf act
ĠSp ot
Ġs av
ĠAm plify
Ġtr ue
Ġs napshot
Ġident ity
Ġeffic ient
dition al
s erv
ĠC atalog
Ġencry ption
ess ions
Ġhe ad
ver t
Ġcon c
L og
ĠF S
Ġfin ding
Ġ x
t al
ĠP er
Ġn ecessary
ĠJ av
Ġinit ial
Ġman aging
Ġl arg
Ġway s
Ġcolum n
Ġl ake
ĠCont rol
ed ic
Ġdesign ed
B y
ĠA ct
anc ial
x large
Ġp ot
aramet er
b ot
Ġl ic
li er
Ġar n
un ction
St ream
Ġinstruct ions
K ey
l ing
Ġworkflow s
w est
b y
Ġass um
Ġhelp ing
Ġinter n
Ġfeed back
S ync
2 4
i k
Ġtr ust
eni or
as ing
Ġback end
Ġe qu
Ġprot ect
le ment
op e
Ġf am
Ġjourn ey
ĠC ore
o f
ĠCon clusion
ĠMicro soft
c ript
Ġcontinu ous
ĠN e
Ġpattern s
i ency
Ġexper i
Ġem ploy
Ġto day
u c
ĠCon s
or ding
Ġto get
ĠA nd
Ġtoget her
Ġtrans fer
he ther
Ġs ur
L S
Ġcertific ate
A A
Ġappro pri
alanc er
Ġb ig
ocu ments
Ġcontain ers
Ġd one
Ġme as
Ġl ink
om et
ec ycle
I S
ĠAM I
Ġde l
Ġpro m
Ġsign ific
at us
Ġenter prise
ĠD eploy
ĠK ey
ĠV ir
Ġex plo
ific ations
Ġwe e
R eg
Ġex ternal
Ġ1 5
Ġdem and
Ġgu id
Ġre d
s et
ĠI ts
Ġanalyz e
Ġag greg
ĠC hoose
Ġen h
E LE
ĠL oad
ĠW h
ĠOr gan
al c
ĠC ert
ke y
1 4
Ġm edia
ĠE BS
Ġpack age
ĠOpen S
ĠFun ctions
B ridge
Ġweb s
ĠO ver
Ġv ers
Ġmetr ic
Ġcommun ity
riv en
Ġsignific ant
Ġb ill
Ġal ert
Ġcomput ing
ach ine
Ġimplement ation
Ġpri or
Ġclient s
aun ch
ĠSp ec
ra w
Ġover view
Ġint ellig
Ġpr ic
an a
Ġcontin ue
Ġdet ection
Ġh app
Ġmo b
Ġsuccessful ly
Ġconfig ur
ipel ines
Ġrece ive
ĠK MS
Ġproject s
Ġb r
Ġpart ition
V ersion
_ _
am ed
ĠG et
it o
p y
Ġh aving
out e
sel f
ĠMy SQL
A l
ĠDe ep
Ġrout e
Ġfol der
Ġrem ote
ĠC PU
Ġdeploy ing
ĠR ec
m edi
9 0
p ec
Ġ ide
Ġtag s
e e
he ad
ĠRes ource
S et
ha vi
c are
ĠA C
r ates
Ġdoes nt
Ġdistribut ed
Ġf ast
ĠAl low
qu est
Ġspec ial
Ġh ist
Ġoper ation
Ġb as
Ġspe ed
Ġ id
Ġg ame
I t
ĠG ra
yn ch
E n
am l
Ġ3 0
Ġarn aws
Ġen jo
b ucket
Ġdet erm
Ġn ative
in ition
r ans
um an
Ġma xim
ache d
Ġlat er
Ġed ge
ĠSt ream
g o
Ġdistribut ion
en ge
arg ate
Ġque ue
ĠC S
Ġhig her
7 8
age ma
Ġg ateway
ĠRe ad
Ġc ross
ĠAnaly tics
Ġmig rate
N ET
Ġpass word
Ġext ens
ynch ron
is ions
il es
Ġd ocuments
Ġgu ide
Ġcomp are
re g
Ġsu pp
Ġto tal
st ream
Ġter min
Ġop ens
Ġsub net
Ġvis it
Ġoptim ize
ed er
3 3
Ġlook ing
olut ion
p ost
Ġadvant age
x y
Ġs essions
Ġinnov ation
Ġact iv
Ġlaun ched
N ote
Ġcent er
ĠC re
ĠA g
T E
r ict
ĠEvent Bridge
Ġcontrol s
Ġ ill
is m
w all
ĠSt ate
Ġinit i
Ġappropri ate
ĠM ig
Ġhour s
Ġaud it
Ġrepre sent
form ance
iv ed
er n
te xt
D E
Ġs ave
Ġal ways
al se
Ġsec ret
th rough
ĠH ub
ogn ito
ĠAvail ability
A ut
Ġp ut
Ġpat ient
Ġindividu al
Ġrun time
ĠN ote
vi d
Ġg ood
Ġear lier
v ant
he s
alc ul
ervic es
Ġup gra
Ġexpl ain
er g
ign ed
Ġsu m
s w
ce ed
p ace
ĠB ack
ĠSt ack
Ġon line
p ar
if ies
ĠS ub
ĠOn ce
u f
Ġe ffective
M E
on es
Ġperson al
ĠA ll
ch an
ĠM S
Ġrel ated
Ġbe havi
Ġdest ination
Ġact ive
ĠDe velop
Ġk ub
C P
Ġill ust
ĠV M
T L
Ġsche d
St art
Ġinter net
Ġb re
Ġpartic ular
Ġoper ating
Ġtempl ates
en u
Ġapp li
Ġro ot
In vent
Ġmob ile
Ġf our
Ġme chan
i an
A bout
ogn ition
Ġmicro s
ĠN ow
Ġrec overy
M an
Ġpro file
Ġeas ier
Ġfor ward
k t
pro cess
ĠSe e
ĠOn e
g est
ĠAut om
Ġsp ace
Ar n
Ġ ve
a ccount
oo ks
ĠW ell
Ġc our
ĠInst ance
Ġskill s
Ġd ays
ĠD is
d at
agema ker
b ed
Ġre ference
ĠV P
c s
ĠG PU
Ġg iven
rit e
dition ally
ĠAut o
Ġwork ed
Ġcorre ct
ĠAR N
ĠFS x
ly ing
ĠĠĠĠ Ġ
ĠDev Ops
i ps
ĠThe n
Ġto ken
pd ate
Ġcapt ure
Ġspec ified
Ġconnect ivity
Ġass ess
L B
Ġ z
Ġbro ad
Ġthrough put
ĠG re
Ġgo ing
Ġpric ing
Ġ1 1
Ġproble m
Ġconnect ions
Ġinteg rate
Ġc ate
ĠA c
ĠLear ning
On ce
ic le
part y
ELE CT
o ke
Ġver ify
ĠD MS
pt im
E N
ĠM odel
Ġ2 00
Ġinst ead
ĠY our
Ġbo x
8 0
ers on
Ġp os
ef ore
Ġproble ms
Ġt em
ĠS et
ĠIn s
Ġd ate
Ġfore cast
ĠComput e
ec ause
RO M
R un
at t
Ġinstall ed
Ġsec onds
Ġlever age
Ġpre vent
ĠS enior
Ġconfigur ations
ĠTech nolog
Ġhost ed
Ġvolum es
Ġc ur
Ġtrans action
Ġper cent
G et
he ll
Ġautom ate
Ġmod ify
Ġle ft
p c
A D
A t
ect l
Ġre Invent
Ġsh ort
ĠM achine
Ġfunction ality
V ID
Ġpr int
ri al
Ġpar allel
P S
ro le
ĠF argate
Ġ20 20
m odel
Ġo cc
ĠM et
cl ient
Ġcompon ent
ress ion
Ġrem o
bo x
h ing
Ġitem s
st er
Ġsc ient
Ġhard ware
Ġex amples
Ġlibr ary
ĠG roup
Ġre search
Q S
nd point
Ġprovid ers
Ġexper t
Ġres il
ĠF ile
ĠD et
aramet ers
Ġp ush
Ġknow ledge
Ġ es
v ersion
Ġhand le
Ġlog ic
Ġcomm it
I m
ar ding
p ath
Ġw hether
Ġconnect ed
ĠĠĠĠ ĠĠ
m ary
es h
c ode
s ing
a id
y aml
Ġde veloper
Ġpoint s
Ġth ink
T O
Ġbro ws
che ma
Ġexper iment
A G
ifi er
Ġd ue
ĠB e
ĠPro duct
ĠN ot
Ġfin ancial
che st
Ġpan e
t est
ĠD ocument
Ġlow er
Ġre lease
ĠN o
Ġenabl ing
ĠDirect ory
Ġc ar
Ġsim p
Ġengine ering
Ġse g
ĠComp et
se c
Ġsepar ate
Ġre ma
Ġr ate
ĠOpenS earch
Ġsub s
3 2
ĠD ef
ĠHe alth
a ilo
g roup
Ġpot ential
Ġp lease
Ġlog ging
ĠP ublic
Ġrele vant
Ġed uc
Ġlif ecycle
j or
Ġt urn
Ġs ales
Ġattribut es
Ġc ache
end ed
Ġph ys
b ound
Ġthird party
s er
Ġg ive
ĠT est
C H
Ġover all
Ġh uman
Ġsched ul
S S
oc ation
Ġg e
ĠE ach
Ġind ic
ĠA ction
edic ated
Ġnavig ation
Ġg ives
on itor
Ġrecommend ations
Ġw ait
ĠE FS
Ġpre fer
Ġfollow s
it u
Ġgr ant
Ġle g
ĠG lobal
ch o
pect ive
Ġorigin al
Ġg ain
is es
Ġnavig ate
P O
Ġdescrib ed
ĠG o
Ġexperi ences
N ext
ĠC ost
oc ol
Ġconsum er
Ġsim pl
Ġbucket s
Ġbec ome
Ġlong er
G roup
ol low
n ets
Ġn amed
ĠL ake
iv ing
ĠAct ive
Ġst age
ĠC ognito
Ġacceler ate
Ġfin al
Ġad ding
Ġ1 6
ens or
Ġbut ton
Ġan sw
Ġfiel ds
Ġvers ions
Ġyou ll
ĠS now
Ġwebs ite
h ors
Ġselect ed
le et
Ġatt ach
Ġiss ue
Ġch arg
Ġs ince
as on
Ġu nt
Ġth ings
Ġs omet
os p
um ber
Ġest abl
Ġf l
Ġstore s
Ġsc ore
C h
Ġ zon
Ġs af
Ġaddress es
Ġvalid ation
Ġm enu
c y
ĠAd v
B ucket
Ġtra vel
Us er
pp ed
act ions
Ġdem o
Ġenjo ys
ĠJav a
Ġallow ing
Ġchall enge
od y
if est
i am
Ġp ast
O bject
ĠP ar
Ġpre pare
th ing
p h
h ouse
Ġinv ol
ĠB uil
ĠF ROM
ĠSec rets
Ġbehavi or
Ġtrans l
Ġregist er
Ġflex ibility
Ġex c
2 5
Ġc alcul
ĠCent er
Ġprogram m
b ook
r ated
est amp
Ġintegr ated
Ġcol lection
ig ning
Ġqu ant
Res ource
Ġintern al
E M
Ġle t
Ġp ipelines
Ġcon cept
Reg ion
b uil
ĠSt ring
Ġne ar
Ġt un
Ġdis play
ĠC an
it ut
Ġd id
Ġma jor
Ġbenef it
Ġbe gin
ĠCon tainer
Ġle ast
D eploy
Tra il
Ġf requ
ap e
ten ance
abl ed
U R
Ġre ach
Ġtest s
Ġas k
B uild
Ġoptim ization
Ġadv anced
Ġ20 19
Ġcurrent ly
ĠS T
Ġcont ribut
4 0
ad d
Ġhealth care
1 3
Ġpart ner
Ġaccur acy
U S
od ay
ĠInst ances
k a
ĠEC R
Ġpermiss ion
he nd
ĠR oute
Ġrest ore
T ime
ĠS QS
Ġcor respon
Ġlead ers
n own
og raph
Ġd riv
Ġexplo re
Ġar ch
j s
Ġdeterm ine
o int
t im
Ġpract ice
AB LE
ĠU I
Ġman ually
O T
Ġman ual
Ġpubl ish
Ġintellig ence
Ġalgorith m
Ġmeas ure
ĠLear n
Ġuse ast
Ġdri ve
Ġc atalog
ĠS um
Ġc lean
el i
Ġreg ul
Ġob serv
Ġreport s
dem and
ver age
Ġme an
Ġch ar
Ġre place
ess age
Ġnot e
Ġopens ource
Ġch ain
ĠO per
ĠI nd
ĠIn f
Ġprovision ing
ra ud
ĠVP N
Ġvari ety
r ass
Ġbe h
Ġguid ance
ĠTrans it
ĠT er
Ġconf irm
Ġan om
use ast
.. .
j ob
loc ation
ĠCompet ency
or ch
Ġs olve
Ġsub mit
Ġprovision ed
ĠL e
Ġf ront
own load
id th
Ġdec isions
Ġstart ing
A tt
i ew
Ġdetail ed
ry pt
Ġbusiness es
empl ate
ĠMig ration
Ġt re
A ccess
Ġf ive
Ġass ets
ĠA ss
Ġw are
In stance
cl uster
ĠPro gram
Ġs ide
ĠB atch
Ġprevious ly
Ġvari ables
ĠSc aling
ust ain
Ġerr ors
ĠH ere
ĠO ur
er c
Ġb in
ith ub
Ġbrows er
Ġsub sc
C ustom
Ġon ce
m e
Ġuse ful
6 0
Ġset s
Con clusion
pt une
Ġdemonst rate
ĠEnter prise
s es
Ġch oice
Ġ202 1
Ġs y
le ar
ĠI O
Ġrem ove
avig ate
Ġcert ain
ivers ity
eng rass
Ġth ous
ĠCloud Trail
ĠSu pport
eng th
Ġincre asing
L O
iz er
Ġcap ability
wit ch
ĠR ef
ĠOver view
Ġw indow
g ed
ĠC IC
U se
ens ive
Ġret ail
Ġor chest
Ġrespons ible
ĠPr incipal
ĠC D
Ad d
d o
con t
Ġinv ok
Ġdashboard s
ĠCl uster
Ġout com
M P
Ġmain tenance
Ġbre ak
e ature
Ġpo ol
he us
Ġcolum ns
Ġin de
plo ad
n ot
Ġsh aring
Ġact ivity
P r
pt ions
Ġh ome
D es
Ġd ro
c o
Ġsche dule
Ġten ant
Ġcont roll
ĠT ower
ĠM ult
P olicy
ed ical
val ue
ĠGu ide
Ġattribut e
er o
ra y
Ġre po
Ġdef inition
ĠPro f
Ġ5 0
Ġwrit ten
r un
a im
ĠSo ftware
Ġ rap
f ol
Ġreg ions
ce ler
l ack
uf act
Ġs ays
Ġpre fix
Ġmaxim um
ĠDevelop ment
ar s
il i
Ġdeploy ments
ĠSt ore
Ġexp and
ĠB ut
Ġnetwork ing
Ġvalid ate
2 1
Ġdes ired
Ġplatform s
Ġstud ents
Ġch at
Ġrout ing
ĠAut hor
Ġunt il
ĠZ one
Ġmill ion
F low
ĠL aunch
IN G
S ub
ession al
Ġcom es
A ccount
um p
Ġins ide
ĠConfig ure
ache s
S c
Ġrap id
ĠTechnolog y
Ġart ifact
Ġcomple ted
ailo ver
Ġcomput er
Ġt alk
ĠI d
Ġcommunic ation
Q u
em ory
E vent
in st
re ds
Ġscenari o
Ġlo t
ĠE TL
A F
com ing
Ġpur pose
F rom
Ġexecut e
O pen
R ep
Ġscre en
Ġsecure ly
ch m
Ġcheck s
Ġcost e
Ġscript s
r ics
ur s
Ġest im
Ġwee k
le te
th ough
Ġjo in
Ġare as
Ġsim plify
L T
d ate
n cy
Ġmem ber
Ġpl ug
Ġthous ands
Ġdepend encies
ĠOut post
Ġma p
Ġallow ed
Ġdec ision
c er
ĠC heck
Ġchar act
Ġrel ations
ĠBack up
ĠArchitect ure
ĠCont act
Ġalgorith ms
Ġis ol
Ġ1 4
Ġkub ectl
Ġnot ification
Ġ5 3
vent ory
Ġmo ving
L ambda
Ġdevelop ed
RE ATE
Ġd b
Ġdisc over
at er
Ġarchitecture s
Ġsimp ly
ĠP rom
am less
Ġsub nets
con nect
Ġcomp et
ynchron ous
T h
vi der
Ġeffic iency
in stance
U nder
an e
ĠG raph
ist ics
Ġem bed
b rid
pre hend
Ġd edicated
Ġfail ure
Ġpop ular
12 34
p i
re l
e es
chitect ed
Ġretrie ve
end s
Ġgovern ance
ĠIns ights
d es
act ive
ĠF rom
Ġvis ibility
ĠV is
Ġve h
l ist
Con nect
sp ace
ĠOrgan izations
Ġs ol
Ġdif f
to end
Ġunder lying
Ġw ide
ver se
Us ing
5 5
Ġnot ifications
Ġsens itive
Ġfinding s
n ess
Cl ient
ĠLog s
Ġclo se
Ġpartic ip
L ist
ch ange
ĠVir tual
orm al
Ġappli ed
Ġg re
ĠWork Sp
k ognition
e at
Con t
Ġs ector
ch ain
Ġscal ability
V alue
h ost
Ġincre ased
Ġengine ers
Ġa udio
f rame
Ġphys ical
and om
Ġ202 2
C ode
Ġscenari os
Ġwalk through
Ġgo al
C re
Ġpass ion
Ġmicros ervices
ecut ion
Ġexpect ed
ĠD R
Ġinteract ive
ce ption
Ġexpert ise
Ġlead ing
at ic
Ġtyp ically
Ġannoun ce
Ġ1 9
ĠSAM L
im ens
Ġunderstand ing
Ġcon vers
Ġstat ic
ĠCIC D
Ġmethod s
ĠC A
ĠRe view
S ervice
ĠB uild
Ġse amless
8 6
ã ģ
d ers
Ġgener al
Ġse qu
ĠVPC s
Ġopportun ities
ĠT hat
Ġinclud ed
Ġapp s
Ġa w
iel d
it le
ĠNe ptune
ĠL ets
D e
et heus
Ġdes cription
Ġth resh
R I
f l
Ġwh y
Ġvari able
ĠB ecause
g ers
Ġf eder
ĠG ener
O ut
em ber
ra form
ĠB usiness
Ġcom ments
Ġrecommend ed
Ġend toend
ĠIm age
s ervice
Ġpro gress
per p
Ġtrans actions
ative ly
pl it
Ġpredict ions
Ġprocess ed
XX XX
Ġreturn s
ĠCustom er
ĠB ot
ĠJ o
af ka
Ġstart s
ag s
ron g
Ġtra ditional
Ġpr ice
P re
1 00
g le
Ġdynam ic
P ipeline
Ġnew s
lement al
L ets
ĠG B
Ġcomplex ity
Ġal arm
Ġbec om
Ġcorrespon ding
N D
Ġlever aging
Ġbuilt in
Cl uster
r l
à ¹
m p
c ount
ĠR et
pert y
Ġadministr ator
ĠI S
Ġupgra de
Ġenh ance
Ġgrow th
Ġtra ined
Ġ2 4
Ġget ting
Ġman ifest
The re
ĠP M
Ġpur ch
Ġcom e
ĠCustom ers
ĠApp Stream
r or
ĠL ex
ĠZ ones
Ġwe ve
Ġfocus ed
oo sing
ĠGre engrass
ĠQu ery
Ġcour se
en ame
ĠCre ating
Ġconsist ent
Ġmonth s
f ana
Ġenter pr
P er
Ġins ert
Ġclass ification
Ġcharg es
In st
Ġnetwork s
Ġwrit ing
Ġutil ization
F in
Ġro ws
vi le
ĠS ource
ĠAd ditionally
Ġmem bers
Ġex am
ĠComm and
ĠI N
Ġp g
Ġf ix
Ġback ups
Ġloc ations
ĠSpec ial
ist ic
Ġs aid
Ġl a
pt s
Ġdes cribe
Ġs oc
e vent
Ġplan ning
ar ms
il d
Ġet c
F A
Ġim medi
w here
Ġimplement ed
ĠS ELECT
c her
Ġon demand
ĠF irst
Ġprot ection
Ġb ound
ĠP y
o ps
Ġacc ording
miss ions
Ġcan t
Ġit er
i ed
at ory
Ġnew ly
f rom
ĠD o
St ack
ck er
Ġnames pace
Ġs he
Ġsomet hing
Re quest
Ġa verage
Ġo ld
Ġdeliver ed
Ġsc an
ĠB alancer
Ġautomat ic
or ies
Ġauthor ization
ĠF l
Ġstream s
Ġp ull
Ġado ption
U C
ĠCom prehend
E nter
Ġconst ruct
Ġpod s
buil t
U T
ic ult
M B
int s
ĠS etting
Ġman ufact
Ġcollabor ation
Ġent ry
pos es
man aged
il it
id ence
ail y
G ION
Ġs agemaker
g ory
Ġp air
Ġro w
ĠA tt
Ġpre s
Ġhelp ed
Ġma ster
R ec
Ġwork er
b ug
ult ing
ĠVM ware
Ġs ustain
com p
Ġser ve
Ġstart up
ok en
Ġs ite
On e
in put
ĠC ol
Ġillust rates
ĠWh ile
Ġb oot
Ġlibr aries
ĠB log
Ġpre ced
t ers
Ġrest rict
m b
Ġlimit ed
Ġcompare d
m ber
Ġt ri
Ġacc om
ĠRe kognition
in ks
Ġzon e
Ġf alse
out put
2 3
M et
H ow
t ion
Ġactiv ities
l ish
n ew
ĠReg ist
Ġpro ced
Ġ20 12
O r
a us
Ġmechan ism
j ust
ĠInter face
Ġdiff icult
Ġed it
ĠS ave
Ġ2 5
ĠWorkSp aces
Ġsm art
C I
Ġdo ing
ĠP ower
ĠE lemental
Ġsav ings
d ed
d itions
ĠP h
l at
Ġatt ached
al id
Ġh und
E D
h ose
Ġpay load
ĠAc celer
Ġopportun ity
g round
up y
ward s
Ġl ambda
Ġlic ens
Ġleg acy
log y
miss ion
in f
b all
ĠV alue
Ġother s
Ġact ual
Ġlic ense
Ġoptim ized
Ġn at
Ġlabel s
Ġth ough
Ġmigr ating
Ġma x
Ġoper ate
ĠJ ob
Ġmiss ion
Ġencry pted
ĠPl atform
pec ially
it em
reg ion
ir ing
ĠSS O
Ġpubl ished
D ele
Ġthat s
Ġscient ists
Ġrec ent
t able
T able
i ous
S ource
Ġbot o
b it
Ġaccess ible
Ġread ing
ĠPro cess
Ġl ay
Ġsc ience
er ial
Ġis nt
Ġra w
a h
Ġc amp
Ġreport ing
Ġcomb ination
S M
e ff
ĠT ext
U NT
Ġredu cing
D F
Ġpack ages
t y
ard s
g es
Ġare a
ĠDe veloper
ĠApp Sync
à ¤
Ġc raw
Ġpers ist
Ġst op
Ġgovern ment
is ed
Ġf it
ĠM od
Ġcentral ized
N et
Ġimplement ing
z ip
ĠCO VID
im in
Ġass et
Ġf ailover
ap i
56 78
d f
l ines
Ġl and
Ġsp end
Ġemploy ees
cs v
Ar chitected
Ġprogram s
Ġgener ation
Ġsupp ly
Ġpreced ing
ut h
ĠCl ient
Ġv end
Ġaut o
Ġdevelop ing
Ġg lob
ĠInt eg
Ġse en
Ġsend s
Ġsecond ary
ĠR ole
Ġinde pend
p olicy
Ġle ave
Ġext ra
ĠF ramework
Ġ8 0
7 0
ĠEd ge
Ġseg ment
w ith
at ible
Ġ1 3
Ġsubsc ription
Ġlarg er
ĠDe lete
ut or
ĠS r
g ithub
Ġh ol
Ġ _
Ġk nown
Ġingest ion
erson al
p ower
Ġpro perties
arg ets
Ġchang ing
Ġpredict ion
Ġtem por
osp ital
a ign
Ġcate gor
form at
Ġsec rets
F I
n e
ER T
upy ter
Ġcre d
Ġvisual ize
ĠB lock
ĠS he
ĠWell Architected
Ġf ire
Ġen erg
It em
ĠL ab
Ġvisual ization
F unction
Ġro ll
ĠĠĠĠ ĠĠĠ
Ġstate ment
Ġes pecially
c loud
Ġf igure
Ġb ar
I nt
Ġtak ing
Ġmarket ing
z ure
Ġhtt p
Ġado pt
ĠDocument DB
ĠMult i
Ġtrig gers
Com mit
Ġpop ul
ĠGra fana
ĠH el
ĠPro t
Ġm ention
i as
ĠN ode
g u
Ġfam ily
Ġst and
Ġro bot
Ġinv oke
Ġcoste ffective
Ġg ra
ĠTra ining
ĠK e
Ġent ity
Ġcontain ing
chm ark
a ff
ĠM onitor
Ġconsum ers
Ġ4 0
ab ly
Ġto o
Ġr ather
Ġass ign
4 4
ĠD eli
Ġc op
end ra
Ġout side
viron ment
ĠRE ST
ĠAdv anced
ĠT able
w idth
Ġtop ics
Ġass ist
Ġapp ear
Ġflex ible
Ġhy brid
Ġj son
Ġlevel s
Ġshow ed
er ce
Ġcloud based
ĠGu ard
ĠT LS
Ġrec ently
Ġminim um
urre ncy
Ġph one
p m
Ġpower ful
met ry
ĠF ollow
Ġad apt
o ff
ĠSt andard
pd own
ĠCS V
Ġgo als
Ġe ks
Ġter ms
u rop
Ġprot ocol
Ġware house
ĠA lex
Ġann ot
Ġbot t
ur l
Ġhe r
R A
Ġchannel s
ach ing
ffic ient
Ġhapp en
ĠP olicy
se qu
Ġv oice
K E
N I
Ġenerg y
Ġtre nd
L L
Ġi am
Ġres pective
Ġhist or
Ġre ally
L ink
Ġc lear
Ġma pping
Ġimpro ved
ĠEngine er
ĠE ndpoint
Ġear ly
ail s
cl ass
Ġreg ular
Ġdepend ing
Ġe le
ĠE ffect
Ġv ision
Ġsc ope
Ġexc ited
ct l
a per
er ic
process ing
Ġansw er
Ġoutcom es
ĠK afka
Ġel se
Ġassum e
8 8
ĠL ine
Ġannoun ced
W h
Ġenterpr ises
ĠFire wall
Ġs n
Ġstart ups
Ġinnov ative
ĠState ment
kt op
Ġw atch
Ġexper ts
im its
Ġpro per
Ġown ers
Ġreli able
n ative
st art
oc al
id d
Ġlearn ed
am er
m ar
Ġsupport ing
at ives
0 1
m y
Ġs ort
e am
ort h
Ġpr erequisites
ĠM ake
a u
ur ance
Ġa ffect
Ġpri vile
Ġf leet
Ġhund reds
g s
Ġre pl
ĠT ime
Ġad just
Ġdiscuss ed
ĠOut put
Ġestabl ish
el s
ĠFire hose
w ide
Ġcon ditions
ĠProm etheus
Ġbuil ds
Ġhost ing
ĠT ensor
ĠD igital
Ġen ough
ĠAd min
Ġch oosing
Ġ1 7
Ġindust ries
respon se
Ġbas ic
ĠU pdate
Ġdri ver
Ġhy perp
fol io
a ps
Ġa ir
def ined
S h
Ġlif e
D P
s m
Ġit self
Ġlangu ages
ĠCode Build
Ġthresh old
Ġstrateg ies
ĠB Y
Ġpassion ate
ĠA Z
ĠJ upyter
Ġf raud
ĠE urop
Ġperform ed
os c
St ring
T P
Ġch art
Ġsu g
P ath
Ġconfig uring
Ġrem edi
ur u
Ġevery thing
Ġrece ived
ide o
ĠAn y
ĠA zure
Ġin ventory
Ġ1 000
ĠAI ML
al f
pli ant
ili ar
Ġoption al
Ġacce pt
il s
ĠF ormation
Ġte le
ĠM ore
Ġsend ing
Ġquant um
I A
N N
E nd
Ġc y
com e
Ġag ility
Ġoffer ing
Ġcertific ates
ĠW AF
Ġt ier
ĠO bject
ĠOutpost s
Ġevalu ate
Ġl ab
is ing
Ġconst ra
ut y
Ġalert s
Ġeduc ation
Ġint erv
Ġs ect
ĠPr erequisites
ĠInst all
E d
Ġlog in
D em
Ġg it
Ġsoc ial
go ing
ĠInter net
Ġd uration
Ġsug gest
d ir
r ating
Ġd aily
c reate
i C
Ġ1 8
Ġm ount
Ġe ffect
ĠV er
pr int
R ead
Ġt ell
Ġsy nt
ĠD ist
ĠSS H
Ġquest ion
vi de
ter m
et ime
pon se
l ac
re n
ĠCode Commit
r ue
Ġm ark
Ġcon ver
Ġg en
Ġman ager
O C
ĠUn iversity
Dele te
Ġ6 0
i os
Ġreplic a
Ġ20 18
pos ed
Ġag ents
Ġover head
Ġmaintain ing
Ġc ell
ĠPro perties
Ġnat ural
as et
T est
Ġk ind
Ġartifact s
ĠR el
Ġchang ed
F O
ĠCode Pipeline
qu et
o ks
Ġhigh light
Ġeng agement
ĠP lease
iqu es
dem ic
a z
lo t
um e
Ġdis k
Ġun it
ic on
ac ed
l ace
c ustom
Ġcan not
Ġpur poses
W ork
ak es
Ġefficient ly
S erver
Ġd ive
Ġgreat er
ĠEurop e
v it
ĠB I
ĠEvent s
ĠAg ent
ĠV iew
Ġcharact er
b les
t le
Ġcon dition
op ic
10 17
ĠFun ction
ĠS ign
ĠO R
Ġs witch
ific ate
Ġcomp re
Ġstandard s
P E
Ġimpro ving
ĠVis ual
D ef
J ob
Ġlo ss
Ġlo oks
D I
r ang
sh op
Ġmach ines
ĠU nder
t ic
Ġinc ident
w ner
ĠW H
olum e
Ġyou ve
lic ations
ĠG etting
im age
Ġpro xy
Ġupload ed
y ond
Ġbe yond
Ġn ormal
ĠStream s
G B
Ġc ou
end point
Ġinstall ation
or por
ĠS ales
3 6
h ift
od b
ĠM ac
abel s
Ġl imits
Ġredu ces
ĠC o
ĠAut hors
Ġpro b
ol l
ĠC lean
Ġmention ed
Ġent ities
Ġdis aster
ĠÂłĠÂł ĠÂłĠÂł
ip ment
Ġloc ally
T rans
ac ing
in point
ific ial
S hell
ĠB efore
Ġt utor
Ġc ause
Ġr andom
ĠRed is
na w
Ġob tain
ĠGraph QL
A I
Ġconnect or
Ġl inks
al ent
Ġhe av
de v
Ġdo cker
Ġcent ers
ĠDes cription
Ġtermin al
Ġd r
ĠR em
and width
ot al
ore d
N avigate
Ġst rong
ER E
b log
A ll
ĠS m
r ror
an ch
Ġredu ced
AR N
A Z
ab y
Ġtrack ing
Ġhist ory
C E
Ġ ess
ĠK endra
Ġdeliver ing
Ġplug in
Ġpower ed
f s
ribut e
F irst
ĠO S
Ġins p
Ġtempor ary
w w
Ġs ay
V M
Ġre ason
Ġextens ion
ow nt
Ġv ar
du c
C L
Ġed itor
Ġcontinuous ly
ĠP ort
Ġcl one
in ci
Ġmeet ing
Ġph ase
ent ially
ĠP arameter
t a
Ġcont ract
Ġnum bers
Ġoutput s
lu ent
Ġres ol
8 4
Ġgrow ing
C S
act ory
Ġin form
Ġinc ur
t he
al yst
Ġcustom ize
Ġinvol ved
lac ier
C heck
Ġintrodu ced
Ġaccess ed
Ġpost s
Ġgener ates
ĠA ir
Ġm edical
ĠConfig uration
CO UNT
h oot
hen s
I dent
ĠP ersonal
ĠIP v
Ġtim estamp
ĠDeli very
U P
rou bles
ĠBuil ding
Ġdis ru
ap acity
Ġdemonst rated
ĠC REATE
Ġinterest ed
S o
Ġd imens
Ġmo dule
ĠAl so
Ġsimul ation
and ler
w e
ul ner
pro f
Ġre se
ĠS ince
ĠB ucket
Ġret ention
Ġl ines
Ġwant ed
ID R
ÂłÂłÂłÂł ÂłÂłÂłÂł
ĠC E
Ġal tern
Ġal arms
ĠM B
ĠN AM
roubles hoot
ĠS ector
Ġas pect
ĠO ptim
Ġimprove ments
f unction
ĠCh ime
Ġfac ilit
Ġtrigger ed
de ploy
Âł Ġ
cl u
RE GION
t ical
Ġ2012 1017
ĠSpecial ist
Ġlabel ing
d riven
Ġtak en
C PU
Ġdro pdown
Ġident ified
ĠV ersion
ĠJ eff
Ġassess ment
Ġdomain s
w rite
Ġth reat
Ġconf idence
Ġsu do
ilo t
Ġfam iliar
ort s
Ġtechn iques
ĠA ctions
b in
Ġconsum ption
Ġadd s
Ġel imin
ĠMS K
d et
t xt
Ġcl in
f n
ĠR ob
L ear
Ġy et
ĠProf essional
ĠInt ellig
Ġmill ions
Ġaccur ate
Ġe lastic
Ġcamp aign
ĠG lacier
ven ue
ĠFin ally
Ġpl ayer
Ġselect ing
Ġdisc overy
Ġst ay
Ġsnapshot s
h ips
Ġperform ing
s erver
s ql
Out put
ĠThere fore
Ġstack s
Ġreturn ed
Ġback ground
Ġc ut
ĠAutom ation
Ġc dk
Ġth ing
ak ing
Ġlike ly
Ġpro perty
Ġimmedi ately
ĠS ome
sp ec
ĠS P
5 3
Ġcl aim
n ical
oo p
Ġrec ogn
ĠEn able
Ġeffective ly
U n
D uty
Ġbu d
ĠData Sync
re c
Ġpatient s
V E
ud i
Sec urity
in dex
Ġs at
AM P
Ġbeh ind
Ġs am
Ġrec ip
St ate
Ġrespon d
B efore
U pdate
f aces
Ġst oring
ma p
it ig
ĠD ep
Ġsubs crib
s ize
2 9
Ġclass es
al ance
Ġpart s
sec urity
Ġhistor ical
Ġc d
Ġchalleng ing
he l
il ter
Ġar naw
ĠElastic search
im es
Ġbecom es
2 6
c ale
Ġp atch
ĠE ast
Fin ally
in a
con om
r ant
Ġex act
Ġmean ing
r c
l ate
Ġpl ans
Ġc aus
ass word
on ly
Ġd er
Ġtrans ition
m od
ĠL ead
ĠAlex a
st ra
ĠT ABLE
are d
ue ue
I AM
S ession
ĠH ost
Ġsaf e
ĠG ame
The se
ry ption
Ġthrough out
f ront
or n
ĠC lick
1234 5678
y ml
St atus
Ġinput s
aw ss
Ġport folio
i B
Ġg ets
id es
Ġl it
xxxx xxxx
st ack
ve y
ĠD ashboard
s ub
Ġam ong
um er
ex ample
ĠTer raform
2 7
ir c
ac ific
w ise
Ġin coming
erv ed
Ġperform s
t rans
Ġas ynchronous
Ġext end
Ġatt em
ack age
ion al
Ġconnect ing
an y
ĠL ist
ĠN et
ĠNAM ER
lic it
du ction
riv acy
Ġappro aches
4 5
er es
C lick
M odel
Ġenc our
Ġveh icle
A ction
Ġinst itut
Ġconsider ations
Ġfront end
Ġfire wall
Ġf ace
ĠT arget
Ġv ulner
Ġarnaws iam
Ġal loc
Ġplan e
Ġuser name
Ġprogramm ing
Ġ9 0
i pp
pt h
Ġqu ot
Ġhow ever
ĠF ore
Ġe ver
Ġwee ks
Ġrapid ly
Ġsp are
ĠEx ample
Ġcommunic ate
Ġbase line
Ġdel ivers
z e
Ġremo ved
requ est
ĠA LB
D C
Ġresult ing
Ġup on
D A
Ġro b
Ġcons ists
Ġatt ack
O ur
on om
Ġs itu
Ġreli ability
Ġs plit
ĠS y
ann ed
enc ed
ol id
Ġben chmark
ĠP ract
Ġr ds
Ġsav ed
3 7
Ġcon vert
od ed
Ġshow ing
Ġs ync
s ents
it ing
ĠL ocal
ĠE X
O L
ĠDev ice
Ġtun ing
Ġt argets
rit er
Ġs low
Ġl ed
Ġb us
ĠCont ent
T orch
Config ure
Ġpersonal ized
Ġst aff
Ġmodern ization
Ġsh ift
vit on
Ġc ult
Ġanom al
M od
ĠTo ol
Ġlay ers
Ġsmall er
Ġrepre sents
Ġincre ases
Ġcompre hens
Ġwork ers
R ay
Ġformat s
Ġoffer ings
Ġm itig
3 5
b en
Ġbas is
Ġbill ing
ã Ĥ
Ġval u
ĠRes ources
l ambda
Ġrel ational
Ġm ind
ĠO ther
Ġass igned
Ġensure s
ĠU p
Ġstud y
ob ject
Ġfail ed
Ġschedul ed
erc ial
r is
Ġb it
ĠEx pl
U ST
ĠRec overy
m ore
Ġu nd
ĠP acific
Ġen force
Ġs izes
Ġarch ive
Ġsect ions
Ġf oot
Ġframework s
Ġsp ending
I s
ĠB ra
Config uration
Ġrele ased
A ss
F ile
E ffect
ple te
ic les
Ġmon it
Ġp ick
ĠC IDR
Ġne ver
ownt ime
ord in
D at
ĠPro ject
4 8
c ol
Ġto ok
ĠV ideo
Ġpass ed
is f
Ġcloud native
D et
Ġport al
ĠWH ERE
Ġrob ust
9 6
Ġb ur
ã ĥ
Ġpr inci
ĠTrans fer
ĠT eam
I M
b uild
Ġs ix
Ġb andwidth
ert ain
ĠT ask
T S
Ġh ospital
Ġcate gory
e ed
ĠS ite
Ġn ull
ĠEngine ering
p g
Ġthey re
E X
an ks
ĠL ook
ĠI V
Ġbu y
ĠOrgan ization
Lear n
b e
Ġoptim al
Ġnoteb ooks
Ġmanufact uring
0000 0
C ount
Ġappro xim
ĠS ES
last iC
ĠID E
Ġd ig
Ġon going
ment al
wit ter
Ġeffort s
a ccess
ĠC M
Ġblock s
d own
im ents
os ystem
Ġregist ry
Ġminim al
ang es
Ġhand ling
ĠStart ed
ĠPy Torch
Ġf et
Ġus west
Ġintegr ations
o ol
at ically
gin ia
ĠI ll
ep r
ĠH igh
ĠAs ia
pt y
ist ration
IC E
lastiC ache
ĠRun ning
Ġun its
Ġwork force
st ore
un k
Ġcomprehens ive
Ġimprove ment
Ġfail ures
old ers
am ent
Ġare nt
Ġsignificant ly
Ġse lection
ĠRe quest
Ġa way
or g
Ġfocus es
2 8
Ġt ick
ult s
I F
ĠS D
ce ll
ĠId P
Ġdec id
l ined
ĠCons ulting
ĠM Q
re w
ĠA bout
Ġm s
Ġde bug
Ġpre view
Ġinnov ate
a i
or i
im port
Ġro t
Ġbroad cast
Ġcom ing
ĠS ession
Ġloc ated
ĠGra viton
ĠE xt
Ġtutor ial
Ġb ook
Ġtrans it
Ġth read
20 2
Ġadministr ators
Ġe lect
Ġdele ted
Ġre venue
Ġhigh level
Ġs ell
Ġh ot
Ġconcept s
Ġg ames
Ġs em
T ext
en y
us west
on y
or der
al ks
ĠH y
b ase
w orld
ĠA cc
m ost
oo gle
Wh ile
Ġlead er
Ġd owntime
Ġgr an
Ġconc urrent
ĠP inpoint
ĠN U
Ġt roubleshoot
Ġrese ar
Ġlaunch ing
k ill
Ġstate ments
pp er
or er
Ġevalu ation
d n
Ġc amer
AN A
ĠPersonal ize
ĠF eature
Ġart ificial
Ġlist ed
Ġinvest ig
O ST
P G
Ġhead er
ĠVir ginia
ol es
Ġrequire ment
Ġwrit es
he m
Ġre nder
R T
ri or
ĠF urther
ĠE S
Ġgu est
Ġpresent ed
Ġhost s
enc ing
ĠE lastiCache
Ġachie ved
P l
k ing
Ġfil ters
Ġencry pt
fl ake
en k
Ġcont ents
Ġan alyst
ĠP ol
S ign
i um
loc al
Ġflow s
E A
Ġinteract ions
ĠT w
Ġro ad
Ġutil ize
ĠDef ault
se cre
ĠEd it
T ag
k it
s u
Ġc ard
ic ense
E ndpoint
Ġvide os
L A
Ġde part
Ġdef ines
Ġrout es
Ġcomp ar
Ġresear cher
ant ly
f fer
Ġdeploy s
Ġ5 00
ser ve
Ġprefer red
Ġso on
en ant
et er
ĠT witter
Ġdat ad
ĠH PC
ĠM e
Ġdescrib es
ĠGuard Duty
Ġsn ipp
ĠAl though
roll er
on th
Ã ³
ĠA B
Ġv ary
ĠInf rastructure
Ġtry ing
er ies
Ġmat ter
Ġsat isf
o per
ad min
Ġanom aly
ĠAcceler ator
am ing
Ġgran ular
Ġus ually
a de
Ġpan demic
le t
Ġwork space
ĠUs ers
Ġtrend s
Ġassoci ate
Ġec osystem
c d
lu epr
pre dict
Ġread s
Ġg ot
Ġman ner
G o
st atus
Ġpr incipal
Ġw in
Ġpre c
Ġart icle
os itory
Ġcomm ercial
Ġd ur
Ġreplic as
D ownload
Ġf rame
Ġins ight
r at
ou nder
Ġal ign
Ġdown stream
Ġw ords
Ġo wner
v oke
Ġe conom
tra ined
o ding
r ds
ro ws
ĠE duc
Ġcollect ed
ĠPer formance
ĠText ract
ic ks
st rap
Ġch ose
ys ql
Ġfrequ ently
rang ler
A nd
ud it
itor ies
ĠS lack
Ġdetect ed
ĠTech nical
g it
Ġ Ã
Ġex cept
Ġheav y
Ġthe res
Ġindust rial
Ġb ody
ĠL ive
Ġf ine
Ġhttps github
Ġar ray
ĠTensor Flow
4 3
oc s
Ġlead s
Qu ery
ĠA ND
is ms
angu age
Ġdownload ed
Ġv CPU
Ġengine er
l ies
ĠI NT
Ġcraw ler
ĠPrivate Link
a ur
is on
Ġp ython
Ġplay ers
Ġp rivacy
Ġbe li
pl ed
Custom ers
ĠO U
aby tes
r um
Ġb ank
ub lish
are nt
Ġindepend ent
is ec
aut hor
ĠRe fer
Ġmigr ated
Ġcover ed
Ġfact ors
ĠCert ification
Ġw or
ĠG round
itu de
7 5
P art
one y
ĠEx p
U N
N ot
ĠTr ust
sel ves
Ġresil ient
k ub
ĠInd ust
9 5
KE Y
B uil
ĠInst ead
ben ch
O P
ĠT im
Ġbud get
est ream
ĠX Ray
Ġrema in
ad a
Ġwh ole
Ġoff ic
Ġinvest ment
Ġprodu ce
Ġrelations hip
en v
ul k
Ġpre ss
Ġris ks
W ise
ĠCh ange
ĠNot ification
ĠGo v
Ġsequ ence
i ef
Ġsum mary
end er
aram s
o x
val u
7 6
Ġpart itions
AP I
Ġpos ition
z er
il er
Ġoper ators
Ġbin ary
Ġcontroll er
f ill
Ġon es
anc y
dem o
Ġcred it
Ġf lo
Ġeng age
Ġsub ject
ĠAs soci
A g
ĠIn it
ĠF ound
b ps
K ET
ong oDB
ĠI s
Ġview s
Ġrece ives
Ġne g
Ġexp ensive
y le
as ons
ĠIm port
Ġvalu able
Ġaut hors
Ġcall ing
h t
Ġe cho
Ġlog ical
Ġupd ating
over n
Ġens uring
h n
g res
id s
Ġdes ktop
Ġa ware
Ġregister ed
Ġa mazon
ram es
Ġconsum e
Ġsimpl ifies
Ġele ments
End ure
Ġess ential
ĠMet rics
ĠF actory
Ġinc orpor
L P
o ptim
ĠĠĠĠĠĠĠĠ Ġ
Ġsur vey
Ġdemonst rates
Ġglob ally
Ġcategor ies
ecut e
e ks
ia ccount
Inst all
Ġclin ical
ĠPro vider
ĠDeploy ment
Ġcross account
ĠL ocation
Ġorganization al
L e
O M
ify ing
Ġmigr ations
Ġmechan isms
Ġpurch ase
ri x
Ġide a
S u
l s
ĠĠĠĠĠĠĠĠĠĠĠĠĠĠĠĠ ĠĠĠĠĠĠĠĠĠĠĠĠĠĠĠĠ
Ġseamless ly
ĠFore cast
R ed
er min
Ġch arge
Ġrep eat
T oday
Ġm ass
Ġocc ur
Ġtyp ical
Ġpay ment
par ation
ĠProcess ing
ĠCE O
ent er
ĠT B
ĠIn formation
n el
Ġman ages
h tt
Ġor ders
ĠF ree
Ġtrust ed
ĠM o
us ed
Ġforecast ing
o pping
St ore
alanc ing
Ġred irect
s cribe
Ġlong term
V ER
Ġf ri
Ġact ually
ĠAC L
C lean
e ve
Ġcontin ues
Ġdriv ing
fer ent
Ġserv ing
Ġref resh
G E
ĠAm eric
is hes
g ener
tain ers
o ices
U M
s ession
Ġsum mar
ĠMS P
Ġregul atory
ĠIO PS
Ġe p
Ġfun d
ĠSS M
B M
ire ction
Ġtrans port
Ġsub sequ
Ġmat erial
n ames
Ġa pi
comm erce
Ġisol ation
U RL
Ġlist en
Ġsaf ety
iz ard
ĠT oday
Ġindex es
c dk
Ġbr anch
Ġfunction al
ĠPar allel
ĠD omain
ĠE m
Ġsp ark
Ġo s
Ġl ight
AT ION
T oken
ĠW orld
Ġequ ipment
P ut
ĠMan y
ber g
O UR
Ġpro ceed
ĠOper ations
M essage
s chema
Ġon to
Ġaccess ing
ag ers
Ġspecific ally
l ib
Ġn ature
kt a
Ġlarg est
ructure d
Ġlit tle
I I
am ily
idd le
en abled
Ġproduct ivity
C A
S ELECT
Ġtime out
Ġret ain
Ġtransl ation
ĠRegist ry
at s
Ġobserv ability
Ġcon duct
Ġdeep er
ik es
ĠRel ational
Ġref lect
Ġpos itive
ĠSum mary
olic ies
Ġprom pt
ĠL if
ra in
Ġhand son
Ġcount ries
ure d
ri ve
ug ment
Ġmiss ing
en de
ĠF low
Ġgo es
Ġminut e
Ġd rop
Ġinter faces
Ġinnov ations
un t
ĠCon f
Ġsp ent
Ġc irc
ĠSales force
ĠN AT
c p
Ġm om
Ġreal world
ĠEn vironment
Ġgener ally
3 8
Ġmat ches
is or
yp es
Ġal location
9 8
m d
Ġch ild
ĠB en
Ġdiffer ence
Ġpan el
Pr erequisites
ĠLe vel
M ap
Ġin bound
ĠD uring
ĠB est
in itions
ut e
Ġtrans pare
Ġdecid ed
Ġc p
ograph ic
h olders
ĠM ongoDB
ĠID s
ĠExpl orer
ar ily
Ġcustom ized
UC KET
Ġarnaw ss
Ġres olution
Ġlo ck
l ength
ĠU pload
ĠSetting s
Ġint ent
S id
Ġapproxim ately
ĠW rangler
ĠDis c
U E
ĠS MS
ress ed
ĠEx per
Ġmonth ly
Ġaggreg ate
ĠO ps
Ġrepos itories
Ġsens ors
ĠSc ience
Ġfound ation
Ġcomb ined
Ġblock chain
Ġex ceed
li ke
Ġu l
ru g
ĠS CT
ĠD E
tra in
L ive
re al
Ġhand ler
t ifact
V PC
Ġre ly
ĠGov Cloud
ro id
ĠApp lications
Ġprior ity
Ġre asons
ĠF r
Ġhe ar
lat est
Ġst ages
ĠL O
Ġl ength
Ġproced ure
u ly
Ġsp read
DB C
ust re
Com p
Ġf ar
ab ric
Ġb alancer
ĠL icense
Ġkeep ing
Ġ3 2
Ġmod ules
O ver
now ledge
Ġminim ize
Ġde cre
Ġcons olid
Ġsens or
Ġindividu als
Ġorchest ration
bo arding
Ġide as
ĠW est
clu de
ĠF ace
Ġwork shop
Ġs ynchron
11 11
ĠComm un
I ST
ĠP ipeline
Ġdec ide
Ġremedi ation
Ġresearcher s
ĠCloud Endure
AM L
Ġev ol
ĠCert ificate
Ġsustain ability
Ġp ip
Con s
ĠOut side
Ġplay ing
Ġfilter ing
Ġ3 00
Ġcare er
Ġrelations hips
ĠC al
Ġadv ance
Ġenh anced
ĠG e
Ġbring s
he st
dent ial
Ġfe el
Ġcorrect ly
Ġh ope
Ġlaun ches
Ġcomb ine
l en
log s
ĠS ingle
ard less
Ġexecut ed
Ġut ility
ele metry
ĠCent ral
ĠSnow ball
U B
ĠEx change
Ġd ou
Ġmodel ing
Ġfl ag
inf o
Ġs hell
ĠR OS
Ġintegr ating
Ġfollow ed
ĠDirect or
Ġmicros ervice
ĠSnow flake
7 7
c ase
ĠP od
Ġrecommend ation
Ġinstitut ions
Ġpre trained
Ġt rial
ĠO N
Ġpre paration
Ġinter ru
sc ript
Ġmodern ize
S im
Ġro om
Ġmess aging
ĠWork flow
ar ks
ĠY es
Ġide al
inst all
Ġsu it
Dem and
Ġre v
Ġdi verse
G W
a cc
Ġres olve
pl ing
gin x
Ġsent iment
E ach
Ġredu ction
Ġcor por
o ft
in n
Ġconc urrency
Ġgu ard
Ġmatch ing
Ġst ates
ub e
aS cript
Ġcount ry
Man y
Ġf ill
Ġe commerce
qu e
ĠR O
Ġinst ru
Ġscal es
Ġdele g
ove mber
Ġinvok es
Ġaccom pl
o v
av or
Ex ecution
P oint
p aces
Ġcon ven
Ġr ates
Ġapply ing
Ġanomal ies
qu ery
m emory
est ination
ĠN OT
Ġ2 2
ribut es
Ġconstra ints
il ing
ang ing
Sp ec
Ġiniti atives
a j
os en
Ġobject ives
ĠTr uth
man ager
d en
In put
Ġlist s
Ġcon version
ĠC R
Ġag encies
def ault
Ġident ifier
Ġver ification
Ed ge
Ġc rypt
ĠTr ue
ĠS MB
ĠIn c
IN T
ĠA ust
hentic ation
ĠTrans cribe
Ġc ook
Ġs amples
ri de
ĠO ption
Ġdriv ers
Ġcy ber
Ġem pty
ĠT CP
Ġresil iency
b s
Ġhigh per
6 6
Ġc aching
st ate
che ck
Ġconsider ed
Ġ2 1
Ġdes igning
Ġarchitect ural
Ġaspect s
Ġa im
Ġhelp ful
Ġload ed
ĠS ing
qu ality
Ġrequ iring
O D
ĠH is
Ġcur l
enk ins
Ġg round
ive ly
Ġpersist ent
ac er
Ġoffer ed
Ġinvok ed
ĠI ve
Ġexist s
O F
ĠC opy
Ġquery ing
D ocument
ĠG oogle
In f
Ġmult iaccount
tern atively
AC COUNT
Ġbr and
ĠMonitor ing
Ġmod ified
Ġrespons es
pec ific
Ġprof iles
Im age
P arameter
ist er
ĠJav aScript
Ġz ero
Ġsubs cribe
Ġintrodu ce
12345678 90
Ġby tes
riter ia
Ġtest ed
ful ly
st ring
Ġar gu
Ġprodu cer
ched ul
Ġreplic ate
ĠPower Shell
Ġanalyz ing
ĠM ap
Con text
g ree
ĠSec ret
Ġ6 4
ĠM emory
Ġout bound
Ġexp ression
Ġyour self
ĠEn c
Ġself service
ou ch
ect rum
av a
Ġsnipp et
ĠD C
ĠG roups
ĠO kta
Ġstrateg ic
in ter
Ġst ories
ĠP oint
Ġtra ce
Ġload ing
o logy
Ġpre d
ĠTh rough
Ġm esh
ĠP rior
Ġhyperp arameters
im ate
Ġg iving
Ġins pect
yst ep
Ġhol ds
Ġst ake
um ing
Ġad vert
Ġthere fore
Ġvend ors
ES S
v as
Ġdynam ically
in ations
Ġb at
ĠV alid
Ġdid nt
Des cribe
u west
ĠSt atus
Ġrest art
ĠIn ference
U rl
orm at
Ġinv ocation
ĠWhat s
at ibility
ĠE nt
ĠL ustre
Ġexp licit
Ġprom ot
ĠPar quet
m as
ĠHTTP S
Ġp us
Ġm ot
ĠB ig
Y our
u ck
Ġbott om
ĠL ens
ĠIn put
Ġgre en
M y
g ets
Ġch osen
ĠPro vision
AR CH
Ġprior it
Ġreview s
ĠD em
out h
con f
Cre ating
om m
ate ll
ĠD ay
Ġim m
ĠRep lace
ro om
3 1
ĠIn nov
Ġauthentic ate
Ġindic ates
E rror
u it
Ġpro active
H I
k y
Ġal most
Ad min
Ġleaders hip
Ġlicens es
Ġem power
Ġc ity
ĠT ier
F ollow
R et
ĠComput ing
T ech
Ġh ub
ul ation
AR T
ori zon
in it
fer ences
ĠAr ch
D ynam
P ort
Ġb alance
Ġc r
Ġoptim izing
.. ..
Ġpredict ive
Ġfrequ ency
ĠSite Wise
b ystep
at ial
Ġpost ure
osc aling
Ġoper ator
Ġcom ment
Ġnon prof
D o
r ich
Ġapp lies
ĠG overn
Ġcomp atible
Ġembed ded
L aunch
ĠS CP
ma x
es cale
Ġb lue
Ġintegr ates
VID IA
I ME
an st
Ġmill isec
Ġinterest ing
ĠD ownload
Ġsign ed
ĠEM EA
Ġhead ers
Ġcou ple
N umber
ĠAMI s
per ature
Ġcons ult
Ġmain frame
Ġhapp ens
ct or
om en
rel ated
ĠP ath
Ġincre mental
Ġidentify ing
Ġdisplay ed
Ġproper ly
9 4
ĠR ule
Ġthem selves
Ġinvol ves
ce mber
W hat
ĠS ample
Ġ ip
Ġmult it
Ġtransform ations
cho ol
Ġcult ure
l ong
Ġto wards
aut h
ĠC all
port s
Ġa head
ĠCl ass
Ġstructure d
I O
M ake
n g
ob ile
Ġinter action
Ġevent driven
I ts
W rite
c ceed
i ated
Ġp ages
Ġm er
ĠGPU s
Ġbegin ning
D is
ri ver
oc ations
Ġlever ages
u x
ĠM in
ĠB it
Ġcontainer ized
P RO
ĠM ax
Ġeng ines
anst alk
V er
ĠUn ited
Ġl akes
Ġwhat s
est ed
Ġobject ive
Ġshare s
O ption
Ġn pm
rodu ction
ÂłÂł Âł
d ays
ĠAC M
spec ific
B ecause
Ġe lement
Ġg ather
ĠHe ad
Ġcapture d
Ġvisual izations
Ġaud ience
Ġd up
Ġworld s
Ġpath s
ume Role
Ġincur ring
o y
re me
Ġcompan ys
Ġc at
en e
ĠM ain
op ilot
Ġseg ments
d omain
con s
Ġfail s
ĠDis aster
ĠS chema
ous ly
ĠMQ TT
Ġm oney
ĠW ere
oc ols
Ġm al
ding s
ier arch
Ġpers pective
l ation
Ġa ck
at tern
se con
Ġra d
ĠN ovember
Ġlarg escale
ĠBuil der
ĠIS V
s ource
Ġjo ining
Ġdatad riven
i ences
ĠR est
Ġrec over
ĠOn Demand
u ed
Ġc riteria
ĠP res
qu ire
ĠPer missions
ĠStream ing
ĠL ast
Ġsp orts
Ġun ified
Ġins urance
Ã ¡
Ġm ut
AG E
w h
ec r
ĠK it
Ġque ues
a C
l abel
Ġfin et
c ritical
Ġst ra
Ġsp ot
Ġa ff
al ues
Ġint ended
Ġprof ession
ĠInteg ration
Ġexplain s
Ġencour age
C ON
D ATE
T Y
Ġrec ognition
Ġco ordin
Ġsubsequ ent
art h
ĠN avigate
se lect
b atch
ĠE nd
ĠP arameters
Ġpurpose built
Ġfet ch
Ġcloud formation
Ġask ed
l and
ĠSu ccess
Ġhig hest
B UCKET
ic ious
Ġag ile
à¸ ²
Ġcorpor ate
D ate
ĠCom pliance
H ere
ĠF amily
ĠPol ly
Ġmo ved
Ġr an
Ġbr ands
De v
on fig
ĠJ ump
Ġten ants
Aut h
V iew
Ġt itle
L ens
Ġst aging
Ġv s
Ġpl us
Ġpot entially
itut e
Ġpe ak
Ġconvers ation
Ġp arent
w atch
Ġsu per
gra ined
config uration
Ġestabl ished
L oad
P ost
Ġm l
Com m
Ġeks ctl
G uru
ĠM ay
ĠTrans late
k ens
Ġs aw
ĠRep lication
Aut om
Ġscore s
T hen
U pload
k ubernetes
s ed
Ġs ense
ĠN VIDIA
Ġstep bystep
ĠRep ort
Ġma c
Ġexper iments
Ġgener ating
Ġdepend s
g z
n ost
AA AA
ern el
ht ml
B e
Ġcommunic ations
ĠM esh
n ode
t r
ĠNU LL
N E
us ers
ĠService Now
ĠFl ink
Ġhas h
Ġam plify
Ġrespons ibility
in ct
Ġlo op
ĠH eres
Ġdef ining
Ġun lock
ĠConnect or
ĠMod ern
Ġ ì
Ġde cl
ĠR AM
ĠJo in
Ġowners hip
0 4
Ġconnect s
olum n
Ġworld wide
Ġintellig ent
Ġincreasing ly
B ack
ĠF eder
Ġfin ished
Ġevery one
Ġfix ed
ĠU K
ĠSt rateg
act or
Ġco vers
5 4
K e
Ġb ad
ĠSec ure
Ġwor ry
l ass
ĠAir flow
k et
y ou
o om
Ġout lined
Ġrec ording
AS E
c at
Ġw ont
ur i
Ġcomple tion
ĠRead y
ad oop
po ke
Ġimpro ves
ĠTrans form
ĠCert ified
ĠSm art
c all
Ġschedul ing
7 4
u ge
Ġ icon
Ġreg arding
Ġs ilo
ĠN LP
ĠSt ates
U I
Ġpro c
it ro
Ġanalyst s
Ġf all
Ġl ack
us ic
Ġqu al
bo ot
Ġretail ers
20 21
Ġclose ly
ĠAust ral
Ġfocus ing
iven ess
ĠÃ ł
G ener
or re
Ġp ol
Ġb l
ĠL ink
ĠG en
Ġprot ocols
Ġboot strap
w rit
Ġman agers
h ous
Ġp ict
Ġmo vi
ĠFurther more
S A
Ġp hot
Ġb ulk
ĠD AT
Ġregist ration
ĠDet ect
Ġfund ament
S ize
R ule
h and
Ġe ase
ĠMedia Live
Ġg p
ĠYou ll
Ġcert ification
ib ilities
Ġinf lu
Ġstake holders
ĠS n
ĠH ANA
Ġ2 3
Ġguard ra
op h
Ġingest ed
T ask
un ing
Ġamount s
E qu
arch ar
Ġproced ures
Ġand or
Ġm ix
for ward
Ġcour ses
Ġt alent
ow ers
Ġcom pliant
Ġwh it
I nter
b ody
er ve
ut il
Ġext ended
T C
ar ning
ĠE very
Ġvir t
tim ately
Ġaudit ing
Ġexplain ed
b ooks
ĠD ec
Ġext reme
Ġaltern ative
Ġstra ight
Ġp et
Ġcomplete ly
Ġhand les
ĠPl an
c al
p ublic
Ġpre processing
ĠFin ancial
u ff
Sec ret
Ġbeh alf
ĠN one
Ġnum er
Ġprof essional
D AT
v pc
ast e
ĠBe anstalk
Ġs atell
Ġf ood
Ġspecial ized
C opy
v c
Ġw id
Ġd f
ĠC ap
Ġaw ait
ĠS F
ĠH ive
Ġred und
A m
Ġprofession als
Cl ass
Ġl es
à¸² à¸
Ġoff line
Ġvend or
ĠDist ribut
l ights
Ġde p
Ġfacilit ate
L M
NS ERT
Ġing ress
ilar ly
Ġrema ining
Ġf avor
Ġv pc
Ġany where
Ġhighper formance
Ġd ial
pro duct
0000 00
pect ed
Ġveh icles
Ġlo ves
Ġdepend ency
Ġemploy ee
ĠG bps
Ġ20 17
Ġf ault
ĠDe cember
ĠMac ie
ĠJ enkins
Ġstat istics
Ġprotect ed
0 2
r ally
w eb
ore s
Ġresil ience
Ġexact ly
ĠO ff
av ail
Ġjo ined
Ġu pt
ĠCh all
Ġtool ing
Ġ. ..
Ġsign ature
AC E
ĠSpec ify
cont ent
ĠN umber
Ġbu ffer
Ġhapp y
el b
Ġenc oding
Ġcommon ly
ĠS earch
ĠE dition
Ġparticip ants
6 5
Ġpre defined
Ġcomp atibility
ĠCan ada
st ep
ĠC ount
Ġpro p
Ġr ich
H e
T elemetry
Ġb und
Ġcommun ities
Ġter m
Ġbill ion
Ġpercent age
Ġocc urs
Ġmom ent
2 56
G u
Ġs igning
Ġ3 5
Ġaggreg ation
Ġsol ving
Ġst s
abl ing
Ġspe ak
ĠSpot light
P lease
S um
Ġh ierarch
Res ponse
H E
ĠSS L
Ġparticular ly
ĠR ules
Ġsu cceed
av es
S P
Ġbro ker
ARCH AR
app ing
Ġauthor ized
Ġaggreg ated
S ageMaker
amb d
R acer
ĠI BM
Ġpublic ly
Ġprinci ples
I G
ro tt
Ġh om
Ġcol or
ĠAd ditional
L C
w ords
Ġh old
ap an
pr il
Ġreplic ated
__ __
Ġs ys
ĠQ ueue
secre t
N ew
P T
Ġde al
Ġserv es
7 9
o ost
Ġm edi
ug ging
C all
n am
ĠC PG
Ġsu fficient
Ġreg ardless
Ġfeder ated
B rew
ĠH udi
Sub net
ĠB ased
ĠP ut
anc ing
i ot
ĠK ub
C R
ĠR ate
Ġag o
ĠIV S
T emplate
Ġful fill
ĠCh ina
Ġappro val
Ġec s
i pping
pl ays
Ġlog ged
ĠĠĠĠĠĠĠĠ ĠĠ
Ġcamer a
an aly
ur ning
ĠCon dition
ĠUs age
Ġprefer ences
ĠLook out
ĠJump Start
Ġpast e
Ġc ru
ĠMan age
Ġrema ins
ĠSum mit
Ġa ugment
Ġcomp rom
Ġexpl oring
Ġannounce ments
custom er
Ġappro ved
OR T
R em
Ġc ycle
Ġcompar ison
ro s
as ic
Ġp ace
Ġcol le
Ġvalid ated
Ġmonit ors
d id
Ġm ent
Ġdel ay
ĠC ON
Ġcent rally
Ġspe ech
Ġfine grained
3 9
ĠC ross
Ġr ights
ertain ment
P M
S olution
i ate
ag ent
Ġ2 8
ĠDes ign
ĠCons ider
Ġansw ers
G IN
Ġex ception
z z
Ġpro ven
Ġaction able
Ġself managed
l ay
ĠCh at
Ġcop ied
ĠIntellig ence
er ed
ĠOpen Telemetry
App lication
Ġcalcul ate
Ġchat bot
Y Y
p age
ĠA udit
et ing
stand ing
ĠOutput s
t il
Ġto kens
t yp
Re view
ĠDeep Racer
Ġwait ing
ĠGener al
i ans
ĠE R
Ġsu ite
ire s
ib ana
Man ager
Ġremo ving
power ed
ĠArch ive
Ġst ory
ul ate
pt ember
val id
Ġaut onom
ret urn
T ER
Ġs ites
ĠRe al
S etting
ric ing
e k
Ġnot ice
Ġpred ic
S ystem
c ial
ĠT emplate
Ġpre mises
Ġcop ies
J o
i ra
Ġlo ve
Res ult
P Y
ĠJ apan
Ġdis plays
RO UP
Ġadministr ative
O per
ĠO b
ĠSet up
y ear
Ġw ord
ĠAnd roid
Ġd riven
ĠB ro
Ġsee ing
Ġtransform ed
y y
Ġf r
Ġem b
S ince
m o
od er
com pliant
Ġpart y
Ġrequest ed
Ġconf ident
Ġbeli eve
el come
ĠIn sp
Ġdet ermin
Ġb luepr
ag ine
as ks
ĠD el
Ġv archar
Ġapplic able
Ġload s
Ġconsist ency
em p
ĠSDK s
optim ized
b on
Ġport s
Ġpe ering
ĠTh ings
Ġextract ed
Ġsc r
ĠU RI
Ġlicens ing
ĠC TO
Ġde gree
h ook
t emplate
Ġaut h
Ex p
ĠS av
ĠO ct
Ġdis able
Ġextens ions
if ferent
Ġen rich
Ġ202 3
Pro cess
UST ER
Ġhospital ity
sc ape
2 00
g en
lic ate
Ġcol d
Ġinst ant
Ġtim ec
Ġappear s
C REATE
N O
T rue
ĠWe ve
ĠL at
ĠV ARCHAR
Ġpre built
ĠTo ols
Ġex change
How ever
B ot
Ġcom pos
Ġutil izing
ent ure
Ġon boarding
Ġcan did
ĠP olicies
Ġadmin istration
I oT
Ġc odes
Ġen v
Ġmaxim ize
Ġextra ction
Ġsp in
P L
ĠLambda Edge
ĠPre m
Ġfoot print
unt u
is her
ĠP ipelines
Ġconsum ed
Ġh it
Ġexp ress
ĠY ork
A pi
ex port
ĠRes earch
et o
ĠF luent
Ġbring ing
Ġtem perature
Ġattem pt
ar ant
ĠM X
ĠF leet
ĠData Brew
Ġ7 0
Ġstud ent
al one
ĠRe act
ĠConnect ion
ĠJ an
Ġag ree
ĠM a
app lication
Ġh uge
Ġcan ary
Ġsh ut
Ġbuild ers
Ġdou ble
Ġ q
ĠE NI
he alth
Ġtra de
l imit
load s
Ġsub set
ĠThat s
ri p
Ġenjo y
6 8
res ult
Ġspecify ing
Ġinterv al
Ġgen om
Ġt ax
Ġlif ting
ĠParallel Cluster
ĠL anguage
Ġiniti ate
Ġprivile ges
U LT
p ack
ail ed
Ġdetect or
ibr ary
Ġth us
ĠCode Guru
C ESS
sh ip
Ġdefault s
ĠMarket ing
Ġvirt ually
L ab
Ġt reat
Ġst r
Ġdimens ions
Ġt ens
it iz
Ġprivile ge
ar ma
ĠS kill
ĠT ag
con tainer
Ġatt ende
res ource
O f
P I
Ġm is
ĠP e
ĠM essage
Ġinsp ection
D ER
c ost
c ert
Ġdiffer ences
Ġhigh lights
ĠAdmin istr
Ġimport ance
ĠJo hn
Ġmeaning ful
S earch
f ort
f iles
ma king
Ġneed ing
Ġident ifies
Ġfin ish
oot h
ĠRE AD
ro y
Ġs aving
Ġdef initions
Ġwhen ever
ĠRep ository
Ġadvant ages
Ġware hous
Ã³ n
Ġnear ly
ĠI M
ĠM FA
99 99
EM A
Add ress
ĠO T
alk through
F rame
a a
t ar
ĠO NT
Ġautom ating
Ġprot ot
Ġ9 9
Ġgraph s
ĠAut hentication
vious ly
Ġmass ive
H SM
ĠPro duction
Ġsub st
We b
ĠONT AP
ĠR oles
Ġauthentic ated
ĠMulti AZ
Ġcru cial
Ġv ault
ult ane
Ġthere by
Ġrecord ed
ĠSing ap
C ol
ĠP II
ĠN itro
Ġenc ount
met ric
Ġtroubleshoot ing
Ġex erc
Ġex cell
Ġassum es
Ġpatch ing
i ver
Ġcap ital
Ġmeas ures
ĠCD C
Ġguardra ils
ĠG ET
Ġhigh quality
ml in
d ynam
o cket
ĠB ill
Ġsh ard
Ġun c
Ġun st
ĠAnaly zer
Ġpro of
pre fix
ĠCom plete
Con tainer
Ġview ers
ĠY AML
0 5
L ast
ĠE mail
Ġr ound
pl unk
ĠAut h
ĠInter n
f ect
h ol
k ers
Ġm ask
old en
Ch ange
m onth
Ġme ant
Ġother wise
Ġrepresent ation
ĠHealth care
Ġsomet imes
ĠWh y
oft he
Ġs enior
ĠP an
Ġsp an
Ġbuil der
Ġany thing
G ateway
f irst
t ask
ce l
ĠSc ient
Ġlabel ed
Ġprepare d
Ġcomple tes
Ġrece iving
Ġextens ive
S cript
Ġrespective ly
g y
Ġyou d
po ch
Ġlink ed
ĠC urrent
Ġfin ance
ĠRes ponse
ĠKe ys
N etwork
lo ts
Ġse em
Ġcommit ted
ĠC ity
m essage
Ġp ill
cl us
T arget
Ġf rames
im ator
ra ce
10 1
C F
ast ion
ob er
Ġz ip
Ġcharacter istics
Ġto days
Ġdistribut e
lat ency
c a
Ġd en
Ġb i
Ġread only
An other
Ġcommit ment
P ackage
l ers
com put
Ġclaim s
Ġg lue
ĠM ost
lic ks
Ġcollabor ate
d is
Ġreal ize
Ġa p
ĠB r
Ġfeder ation
P A
Pro vider
Ġsimpl ified
Ġassist ance
Ġob serve
Ġret ry
ĠCons ult
Equ als
Ġnot es
or p
Ġi OS
Ġf s
ot ive
ĠT otal
Ġwe ight
ĠComput er
ĠC IS
Ġor g
alanc ers
kub ectl
ĠF ort
ist ry
Ġwe ather
Ġwork st
con st
ĠOr igin
Ġstand by
Ġal igned
Ġscal ed
Ġprec ision
Ġconsum ing
ĠCol lect
ĠJ une
Ġdisru ption
icks ight
i pped
An aly
ĠCan vas
Des cription
Ġcomp il
ig ger
St udio
Ġtag ging
Ġgrant ed
Ġexp ired
Ġfact or
ĠBot h
C apacity
Ġsk ip
ĠM arch
se mb
ĠJ DBC
ĠPro xy
B ase
s ample
Ġin ject
am plify
ĠRun ner
Ġwebs ites
ĠIntellig ent
ĠN LB
Ġatt ention
Ġregion al
IT H
Ġforecast s
ĠAssoci ate
g t
ĠE N
Ġal ias
ap ache
Ġdist inct
g raph
ĠRe ference
Ġdele tion
ĠEng lish
Ġsuit able
c urrent
Ġ2 6
Ġland scape
Ġmitig ate
F ull
p aring
ag ue
Ġcomp r
Ġk ms
ĠIm plement
P ress
ol ith
Ġ2 9
Ġdec ou
Ġisol ated
Ġwhit ep
ol ver
p em
pro vision
M onitor
ate gory
Ġconst antly
Ġop in
Ġcompet itive
Ġglob e
ure ment
un g
um b
Ġinter pre
Ġoff ice
Ġremo ves
Ġd on
Ġl ives
Ġrest aur
ĠCommun ity
Ġsatell ite
H P
f eature
Ġsim ultane
Ġdisc ount
Ġindic ate
Ġannot ations
T ML
ĠP OST
Ġpl aced
Ġlimit ations
medi ate
En c
Ġcharact ers
Ġland ing
Ġquot a
Ġf re
ĠĠĠĠĠĠĠĠ ĠĠĠ
Ġpass ing
Ġemail s
ĠSF TP
S EC
Ġc licks
is co
out ing
8 9
s ite
Ġ à¤
ĠC ar
ib ly
ĠInt el
Al though
ĠAtt ribute
M A
ĠL and
Ġsimul ate
Event s
Ġfri ends
t arget
ĠA re
Ġre use
ex pected
ĠStart up
met rics
Ġexc iting
ograph y
ĠI NSERT
ĠM edical
Ġback ed
Ġaccompl ish
Ġoutcom e
Ver ify
Ġth rott
ĠD r
Ġread ers
Ġwant s
Ġexecut ing
Ġpartition ing
US ER
ĠIN FO
T H
Ġk ernel
Ġintegr ity
Ġhttps aws
ĠCD N
ĠJ ust
Ġtrans cript
Ġstack name
ĠCh ief
Ġbecom ing
ĠMX Net
L ake
Ġa ge
ent ral
if orn
li ed
len ec
Ġp ie
ĠE ven
ĠP o
Ġ4 00
urre d
Ġclo ser
Ġbig gest
Ġhyperp arameter
So cket
Ġvulner abilities
Ġc itiz
Ġbe g
cl es
cl ud
Ġinstall ing
Ġ __
ĠH D
ĠIn dex
com awss
Ġcons ulting
Ġfound ational
ĠSingap ore
lic ity
Ġunst ructured
ĠS w
sp aces
ĠRun time
Ġm iddle
row se
gra de
Ġline ar
ĠProt ocol
d d
Ġm usic
Ġtrack s
Ġconstruct s
Ġdimens ion
Ġdepart ment
Ġbe long
Ġcomp ression
att le
re p
Ġp i
ari a
IT Y
ĠSub net
ĠO K
Ġent ries
5 9
ĠL abels
ĠN ational
EN D
ĠKe ep
Ġp aper
Ġre in
Ġv ol
Ġdetect s
Ġcover age
Ġsynt ax
Ident ity
1234567890 12
G P
n umber
al er
Ġm ag
Ġ1 0000
Ġcheck ing
Ġsche mas
Ġdele ting
Ġinvest ments
Ġne ural
ik ing
Ġthink ing
ĠE st
and box
min ute
MP LE
Ġto ward
D uring
Ġpredict or
Ġbott lenec
Ġep is
ra ft
Ġdynam odb
l in
Ġcon ference
c ore
h our
Ġde pth
Ġcre dential
Ġun n
Ġany one
Ġbec ame
ons uming
Ġturn ed
ĠK ibana
irect ory
ĠSec ond
ĠSh are
ĠHel lo
ony m
Ġtimec onsuming
h andler
zon e
ef low
Ġserv ed
En able
FI LE
Ġscr atch
Ġh orizon
up date
Ġfin ally
ĠInst itute
Ad ditionally
ĠDet ails
ist ing
Ġrecip e
O ptions
P s
Ġw ater
ler ocket
Ġmultit enant
Ġh im
ĠP ay
ĠN orth
Ġlog ger
Ġid le
Ġthough t
c lick
ir ation
Ġaw ss
Ġdig it
U p
w arding
ĠG iB
Ġ2 7
Ġcheck point
ĠDocker file
reg on
S I
lic ated
inu ous
Ġser ial
Ġsimul ations
Ġnative ly
ĠSav ings
y e
ĠP DF
ĠW rite
Ġcall back
dat aset
Ġpublish ing
0 9
c f
ĠCloud HSM
Ġaccording ly
l as
Ġh a
M O
Ġsimpl er
Dynam oDB
ĠM ark
ĠH SM
Ġfol ders
Ġoption ally
Ġlever aged
add ress
Ġpus hed
ĠM obile
end ly
Ġrele ases
ĠA pril
ĠS E
ĠW ord
Ġprocess or
t oken
Ġbe gan
ĠO ffic
Ġpar a
Ġorchest rate
Ġgra du
Ġrot ation
Ġdeleg ated
Ġmillisec onds
ĠDeploy ing
iforn ia
ĠP CI
W ant
m n
iv ate
Ġalong side
ist ent
Ġma ps
Ġver tical
Ġiniti ative
we ight
A vail
ĠT O
ĠT ags
Ġh alf
Ġmult ic
tim estamp
Ġack nowledge
Ġe ight
ĠI aC
qu ired
OR M
ĠSh ow
Ġconc er
FA ULT
Ġsegment ation
c atalog
k nown
Ġc he
Ġc ame
ĠP RO
ĠIn v
Ġautom ates
ĠTechnolog ies
Ġh yp
ad ow
ĠAl ternatively
Ġtim el
ĠTim estream
ot s
op en
arg s
Ġkey value
ĠTest ing
Ag ent
ĠO regon
Ġsimp licity
Ġadopt ing
Ġhighlight ed
p rom
ar p
ĠT V
F T
Ġaut oscaling
sh ops
ĠSp ectrum
Ġequ iv
y ber
Ġinv ocations
Ġexperi enced
Ġextreme ly
W T
st ract
ant um
int ensive
Ġpl aces
Ġstream line
ĠURL s
Ġsubsc ript
Ġw izard
ĠF I
Ġobserv ed
ĠInd ia
Ġregular ly
D omain
Ġw idth
Ġw omen
ry pted
Ġev olve
ĠWork ing
Ġdial og
Ġs w
Ġw ish
ĠT op
ĠG uru
p ipeline
ash ion
Ġcore s
Ġsynt he
ĠBra ket
Ġfavor ite
N o
Ġs sm
ĠE qu
Ġma pped
ond on
Ġzon es
Ġtransl ate
Ġconvers ations
Ġinform ed
Ġul timately
Ġsubscript ions
f acing
ĠD a
Ġestim ate
ĠRet rie
Ġsitu ations
let ter
H ost
if e
ub y
Ġmon olith
Ġmajor ity
Ġcontribut e
Connect ion
Ġt i
Ġt ouch
Ġprodu ced
V alues
Ġr anges
Ġper fect
Ġpict ure
ĠV oice
D L
b b
Ġm ysql
Ġprom pted
Ġindepend ently
Ass umeRole
Ġstraight forward
S H
ĠN O
Ġdem ands
Pr incipal
Ġen for
Ġpr im
Ġalloc ated
Ġs s
ĠH ugging
Ġem er
re pre
et ary
ĠAmazon s
Ġreview ed
Ġacceler ator
Ġprogramm atically
5 8
r s
ĠS plunk
iz able
Ġtra cing
ĠAmeric a
P arameters
Ġas ync
Ġhealth y
Ex ample
Ġevalu ated
ĠNo SQL
Ġscan ning
Ġattack s
pro ject
Ġimport ed
tra ining
z ing
Ġd ict
ĠF raud
Ġident ities
Ġweb in
Ġtarget ed
sc ription
red it
0 3
Ġn p
Ġhand led
incip als
Ġenhance ments
GB oost
Ġsitu ation
E nt
s ales
Ġpack et
ĠAvail able
er man
ĠN AME
Ġpo ols
Or gan
Ġtele metry
Ġexplicit ly
r b
Ã Ń
Ġpr ices
at io
or ation
Ġn ested
12 3
Ġgr ants
S ets
re m
Ġtransform s
ĠAdd ress
ĠRegist er
Ġrepl acing
Q ueue
c ity
ĠRes erved
T R
s ervices
ĠSt ud
Ġdemonst ration
Cloud Watch
R DS
Y S
s ure
Ġrout ed
ĠNetwork ing
Ġcalcul ated
Ġregul ations
B ased
and ra
ĠH TML
Ġarchitect s
ĠDevelop ers
in o
ĠM ar
Ġexpect ations
Ġretrie val
ĠDeep Lens
Ġpair s
0 6
Ġt une
Ġw ent
mis e
Ġ20 16
LI C
Ġsustain able
Ġtick et
V C
Ġfor ms
ĠD i
ĠP ricing
ĠConfig uring
ĠAZ s
Ġcampaign s
Ġst ren
Ġqu ite
Ġke yn
Ġbound aries
Mod ified
f ish
ĠV AL
err or
ĠAnaly sis
dk r
M ult
ig ible
Ġtra ces
ĠML Ops
ĠAn other
ĠNote book
u ary
Ġd a
ad og
ĠQ ual
Ġ12 8
7 2
F ormat
Ġst ock
Ġun expected
Ġfew er
XXXX XXXX
secon d
Ġprocess ors
Ġreport ed
Ġco ding
ĠRob o
b untu
t lerocket
ER V
Ġtechn ique
Ġthreat s
4 6
vid ed
dat abase
d ocument
Ġtransaction al
ĠAny where
comawss amples
Ġpro v
ĠAustral ia
ĠE rror
ĠL ondon
Ġ4 5
ww w
Ġs ql
Ġsh ards
Ġar riv
ĠX GBoost
Cloud F
ug ust
E m
p ython
Ġp ain
se m
con text
Ġvis ible
Ġem p
Im port
Ġlow latency
Ġaccom mod
ĠBlock chain
ĠvCPU s
ĠInnov ation
ĠTra ck
ĠEduc ate
p ha
ĠF ind
Ġcre ative
Ġanaly tical
Con vert
On ly
Sum mary
Ġch oices
Ġact s
Ġsur face
ĠVer ify
Ġto ler
Ġacceler ated
ur ers
ĠEx ecut
Ġlow est
Ġaccur ately
Ġbur st
MPLE TE
vid ence
ĠI ce
Ġex posed
Ġph ases
ĠSS D
W AN
Ġs our
Con f
D b
at est
ĠL ibrary
ĠWeb Socket
Ġdiscuss ion
Ġfac ed
Server less
ĠIndust ry
s k
Ġ12 34
Dat abase
Ġre us
ĠT ur
ĠRet ail
o pped
r ations
ec es
Ġj q
Ex ception
Ġcur ated
Ġroad map
Ġautonom ous
ar a
ĠAWS s
ad es
AT H
Ġpredict ed
Ar tifact
Ġconver ted
ĠM W
ĠStep s
n um
ĠF ilter
Ġnot ed
ĠApp ly
Ġclick ing
Ġscient ist
ĠDet ector
Ġtranspare nt
W OR
ant ic
che dule
ID C
Ġreal ity
sp ect
ĠCal ifornia
Ġconcer ns
Ġwh ose
ĠY ear
AS S
ĠPro vide
g lue
Ġs ynchronous
art er
Ġactiv ate
ĠPrem ier
Ġevol ving
ĠEnc ryption
ĠD AG
Ġse ason
oo ds
Ġ3 1
ĠDist ro
ail or
Ġoptim izations
q s
ct ors
ari o
ĠIP s
ĠLif ecycle
u el
ro wn
Ġdist ance
Ġappli ance
Ġschedul er
Ġprob ability
v a
Ġinf o
config ured
Ġnear real
and as
Ġfe at
Ġrefer ences
Sp ace
Ġwatch ing
plo re
Ġdis e
Ġann ual
P h
Ġfor um
ĠI rel
Ġmult ip
ĠHel m
4 9
L ift
Ġe poch
el low
ĠL ayer
ĠAut opilot
IP AA
Ġpres ents
nost ic
Ġc atch
le ep
ro ot
00 1
Ġab stract
p erson
Ġw orth
Ġpract ical
Ġtransform ing
Ġretrie ved
Ġattach ment
Ġprop ag
Ġs lot
ĠThe ir
Ġdis abled
Ġcor ner
Ġver ified
inn aker
Ġconven ient
Ġattende es
h as
ri ef
Ġec r
Ġupgra des
Ġestim ated
5 7
u ce
ĠH adoop
ights ail
iel ds
Ġsign al
Ġupload s
rodu cing
ele b
Rec ord
Ġpie ce
ĠS outh
ĠL o
Ġv ast
Ġlo st
20 19
Ġsav es
ĠOct ober
C o
G S
V is
erv ation
ĠCon tainers
Ġmaintain ed
co ding
Th rough
V olume
er a
Ġen roll
cl i
u k
ĠP ublish
Ġcap able
Ġreal ized
Ġdiag no
ĠM c
Ġimmedi ate
m ode
is k
Ġspec ifies
ĠScient ist
Ġn et
Ġconnect ors
Ġspecific ation
f in
i encies
ĠV ision
Ġcontinu ed
Ġstructure s
ĠIrel and
ĠG rant
ĠEx ecution
ĠÂł Ġ
Ġtravel ing
Inst ances
Ġaffect ed
m t
ĠV olume
Ġcomput ational
Ġimplement ations
Ġbo ost
ĠDep ending
ĠConsult ant
C ost
Ġs poke
Ġs oph
ar r
Ġu rl
Ġem erg
ĠSD DC
Ġf ashion
Ġr ank
ĠV ari
Ġcall er
Ġt alks
ĠA ws
lu on
Ġcharg ed
Ġcyber security
Ġmal icious
m er
Ġ7 5
Ġbank ing
author ized
as p
ĠH IPAA
Sec onds
Ġsuggest ions
ple ments
ĠW ait
Ġsh opping
AC K
Ġold er
R ING
Ġh ouse
con sole
p ass
ri ers
Ġrefer red
avail able
Ġs ound
Ġs chool
st ruct
ĠS an
ĠM at
Ġequ al
re et
ĠIt em
Ġlist ing
Ġview ing
Us ers
ĠSh ared
Ġconsist ently
ĠPract ices
N ames
W ait
Ġg ap
ep er
Ġbeg ins
Ġ202 10
Ġsubmit ted
G roups
M e
f d
Ã §
ĠH at
20 20
Ġhour ly
S E
ĠS M
ĠApp Flow
16 8
Ġbox es
c an
s agemaker
ĠD L
ay load
Cont ent
Ġex pos
Ġgovern ments
ĠRem ote
Ġsoph istic
Ġl ikes
ron e
c r
Ġh um
ĠP T
Ġup stream
osp atial
Ġdur ability
A ct
V P
al ty
CH EMA
N A
b l
ient s
Ġ3 6
Ġover come
Ġident ifi
Ġrecogn ize
Ġfor ce
t ouse
le ets
Ġperform ant
Ġorgan ize
abel fish
Ġguid es
ĠLab s
Ġneg ative
Ġfundament al
Ġexerc ise
Ġdest roy
Ġmark ets
Ġequiv alent
A X
h i
in i
Ġn ginx
ĠU P
inst ances
Buil ding
ĠMW AA
0 8
R oute
ur on
Ġnew er
Ġinter view
Ġread er
ĠINT O
Ġre act
Ġe vidence
ĠP ack
ĠR PO
Ġab s
ash ing
Ġperiod ically
Ġcontroll ed
Ġnonprof it
aria DB
n y
x ml
Ġs rc
ĠS H
Ġon board
ĠP ST
Ġres erved
Ġim plements
Ġpass es
Ġachie ving
Ġra ce
ĠOR DER
c ers
Ġre new
ĠF A
Ġkeep s
Ġguide lines
Ġwide ly
ĠDC V
P ublic
p act
ĠIm pro
Ġcomb ining
Ġremote ly
v ar
Ġin box
ĠG erman
ĠSc al
Ġcollect ing
Ġfact ory
ĠRec omm
Ġattem pts
Ġst able
ĠPre dict
Ġdeterm ines
Dem o
ĠJan uary
h ib
Ġf irm
ic a
Ġm and
Ġb id
ĠT re
ĠH LS
ĠJ O
Ġanalyz ed
t rue
ĠApp ro
Ġwhitep aper
L D
ĠAP AC
Ġrep e
ĠMet ric
ug in
Ġtransfer red
Ġcred its
Ġincorpor ate
f it
n ce
ĠCom ments
Ġincre d
ex ecution
Ġcomb ines
comp atible
deploy ment
Ġdetermin ed
Ġunn ecessary
ĠX ML
Ġacceler ating
Ġexam ine
ĠE ner
Ġex it
Ġex pose
Ġmult im
Ġra ise
Ġfac ing
Al low
if f
Ġsome one
Ġport ion
Ġplace ment
Ġinstru ment
ĠRobo Maker
k dir
Ġs l
ĠS erv
ĠD X
ĠD ate
ĠDem o
ĠIce berg
Ġst yle
em on
ap es
ĠAr t
ex p
Cont rol
Ġhappen ing
a el
ers hip
ĠL ightsail
ens itive
app ro
ĠCont roller
Ġpack aged
ĠSim ilarly
Ġintrodu ction
tim es
C C
Ġf arm
0000 0000
Ġpar se
ĠHy per
ĠPres ident
l ink
o ption
r ator
Ġt ips
Ġp our
Ġrem ember
ĠCh annel
C ore
Ġpro pri
ĠH aving
Ġpack aging
Ġcertific ations
ĠSy nt
ĠCM K
H andler
ist ribut
ĠH ero
tt p
Ġcomput ation
ĠCode Deploy
Ġimpact s
Ġperiod s
Ġrepresent ed
Ġsimultane ously
Ġha vent
B atch
Q U
ĠC yber
Ġconfirm ation
Att ributes
htt ps
Ġnumer ous
W ere
Ġc fn
ĠS l
ĠC F
ĠR A
ron ic
li ers
ident ity
tt y
ĠAd ding
ĠSh ield
Ġcapt ures
Ġparallel ism
t op
ĠA f
om in
am i
ail ure
comm it
mit ted
Ġeduc ational
T ier
le y
ĠU pd
Ġpopul ation
M AR
d ocker
m ing
Ġs ing
Ġup front
Ġpl anned
ĠOn line
Ġgu arant
Pro vide
ĠEd itor
Custom er
Ġannot ation
Ġbur den
Ġcirc uit
Ġp y
ra ining
Ġto po
Ġch ance
Ġintrodu ces
Ġ io
re view
Ġb astion
Ġsc ans
Ġenvironment al
Att ribute
ĠJob s
M achine
S ION
ĠT TL
Ġg rows
Ġado pted
Aut o
Ġresol ver
Ġoffic ial
p rivate
Ġdat etime
ĠG ROUP
Ġse ven
PU T
erequis ite
Ġmove ment
Int eg
ma in
Ġmeasure d
Ġstand alone
9 7
Ġhe art
ĠK er
pro file
Ġorgan is
Ġrel atively
IT ION
Ġmodify ing
Ġl ib
ĠR Studio
Ġtr uth
Sub scribe
Ġiter ate
Ġc al
ĠS ET
ast ore
Ġconvers ational
Ġde ad
da pt
Ġvers us
PO INT
ĠP ool
app end
S chema
p assword
ing ress
st r
ĠG W
In it
pon ent
Ġmonit ored
u itive
Ġev olution
Ġevalu ating
Ġconc ern
Ġg aming
ac le
Ġtrans cription
Ġinv olve
Ġconsider ing
ĠDat abases
j ar
Ġg rid
Ġbo ard
h ood
ĠB re
Ġun used
RE SS
T ABLE
c ard
l abels
ĠA V
ĠD eny
Ġlist ener
Ġgateway s
ĠChall enge
Ġemer ging
N ode
p arams
à ¥
ĠS end
ul ated
Ġsu p
og et
Ġme ets
Ġeng aging
Ġinit ially
Ġpet abytes
m its
Ġlo s
ĠN FS
ĠQ A
app s
Ġmaterial ized
Ġsophistic ated
i Ã³n
Ġl apt
ĠB lack
Ġvari ant
I ds
Ġp lot
Ġb ash
Ġhe ld
Ġrel ies
Ġservers ide
Ġproc urement
M Q
Ġd raw
se x
ĠAl ready
ĠInsp ector
Ġ Ã©
In dex
Ġover l
Ġun authorized
Ġentire ly
Ġdiscover ed
à¹ Ī
in ite
ĠS I
de pend
ĠD edicated
ĠP HP
Ġup coming
à¸ Ļ
RO LE
Ġcollect s
Ġassum ed
y our
un ic
ĠM ariaDB
pro duction
ĠE U
ĠIn gress
Ġtime ly
ĠEx port
Sp ark
Ġpartners hip
ĠProt ection
ĠGame Lift
Ġrender ing
Ġwid get
ur er
ĠJ uly
ĠDynam ic
til ization
Ġpropri etary
Ġd irection
ic ed
ir ms
ĠMan aging
Ġmodern izing
Ġpersonal ization
Ġexperiment ation
Ġelimin ate
ĠExp ress
L ocation
Ġt mp
in ue
ĠD estination
Ġr atio
ĠG r
Ġcustom ization
Ġcl on
ac u
à¸ ģ
Ġutil ized
ĠOffic er
Ã ¨
ĠS ci
ĠR TO
Ġinter mediate
E xt
od ate
Ġpost gres
ĠAccount s
Sc aling
t here
Ġt ight
Ġin fer
ef its
Ġexecut ive
Ġstandard ized
Ġpubl ishes
Ġscient ific
ĠGovern ment
0 7
in ds
Ġfun ding
à¸ £
Ġmod es
Rec ords
Ġvary ing
ĠWord Press
in ternal
ĠDat adog
ĠCO PY
Ġexpand ing
Ġpopul ate
ĠEner gy
G ET
or gan
ist ory
lo ok
ĠN AS
rough t
pos ition
ĠArchitect s
ĠAtt ach
trans form
M o
ĠM aster
ĠW ave
Ġinteg er
ĠRes il
ĠComm on
ph one
Work s
ĠConf irm
Ġvi ol
ass andra
Ġwhere as
ĠSe ptember
Ġadv ice
Ġnon compliant
ĠSCP s
ĠAf ric
ĠE lect
DI R
Ġpi eces
R ef
he ast
er al
Ġown ed
ĠPl ans
rec ord
T im
o log
Ġf lu
art ifact
ĠH ospital
Ġthan ks
ĠAl ert
Ġdr ift
Ident ifier
Ġ ign
ma ster
ĠH ash
Ġfiles ystem
ĠLog ic
Ġmission critical
Ġbund le
g ion
Ġf air
ur t
id r
Ġi ot
Ġaff ord
Ġmedi um
Ġre ject
ot es
ĠOpenS hift
ĠS A
pp ings
te ch
Ġmarket place
Ġillust rate
Ġbluepr int
Ġprov isions
6 7
f il
lo se
Ġst opped
gre en
Ġstud ies
Ġdest inations
Ġspecial izes
ĠKub eflow
4 2
M M
Ġre ached
Ġcomput ers
Ġtag ged
Ġwarehous es
Ġprim arily
c urrency
re pos
en et
ent ed
form ing
Ġrel ative
Ġstring s
R est
e h
ĠRec ord
Ġcar bon
Ġtri p
oget her
F eature
c ar
Ġc eleb
art ment
Ġsc op
Ġcl imate
Ġend user
ĠApp Config
Def ault
Ġcaus ed
Ġvulner ability
m esh
ĠT ele
ĠM on
Ġincident s
Ġdebug ging
R S
20 22
Ġsafe ly
Ġdecre ase
Ġargu ments
Ġpart ies
Ġimpact ed
Ġalert ing
ĠAdv isor
Cre dentials
Ġprinci ple
ĠTrust ed
ĠSn ap
A cc
T opic
h y
Ġw alks
ĠF abric
sp ark
Ġut ilities
Ġpartition ed
Ġembed ding
orre ct
d ocs
lic e
oc ate
AS H
Met ric
U D
ur pose
Ġenter ed
Ġdele tes
ĠDisc overy
Ġin e
ĠS OC
ol ds
ra ction
ĠR uby
ip e
ha ps
f ers
Ġw ra
ĠT ake
Ġ. .
pl ain
ud o
Ġdef ect
22 2
Ġregul ated
Ġcell s
Ġobtain ed
Ġpriorit ize
H el
Ġd oll
Ġass ert
ĠRE GION
Ġtun ed
Ġmovi es
ec s
Ġsh if
Ġ2 56
Ġnot ify
Ġover ride
Ġcontinu ity
ĠTra vel
T M
u ing
ĠA b
ĠS C
ĠP i
Ġdec rypt
ĠSpec ific
ĠTool kit
Ġopin ions
B ut
U ES
Ġg ave
Ġtra ding
Ġpr incipals
ĠOn ly
1 000
4 7
Ġent ertainment
ĠTo ken
Ġcomple ting
Ġopen ing
Ġ202 20
By tes
ĠGener ate
Ġti ers
ĠE OF
ĠF lex
ĠJ WT
Ġinter oper
Ġview er
Ġproactive ly
n n
ĠE ND
Ġloc ate
arn ess
Man aged
Ġw aste
Ġst rict
Ġpl ain
ĠTrans formation
ĠHealth Lake
Ġt ack
Ġc ached
an ish
Ġb rief
Ġmo ves
ri er
ĠF alse
Ġtw e
ĠDes ktop
ĠGet Att
I VE
ĠA ugust
Ġd eny
st o
Ġb rought
Ġvalid ates
ĠDat aset
Ġpay ments
reds hift
ĠFound ation
Inf o
ĠOff ice
Ġy um
Ġoper ates
ĠAr m
ĠAutom ated
Ġexpand ed
htt p
act oring
Ġco f
Ġinvestig ate
ĠExper ience
ĠOb serv
M ore
Ġpro posed
Ġun less
ĠStart ing
Rep lace
Ġplug ins
Pre fix
l uster
m at
n etwork
Ġf leets
ĠW hether
Ġevent ually
Ġtermin ate
ĠNet App
Ġre play
ĠR outing
ĠO Us
Ġwork shops
Ġdriv es
Ġc ities
ed ge
Ġex clus
Ġsh ape
Ġext ends
Ġcaus es
ĠIntern ational
M ode
ess ages
ĠĠĠĠ ÂłÂł
Ġprodu ces
ĠSc ale
Ġparticip ate
d c
en ing
Ġan im
ĠO IDC
Ġaddress ing
ĠDel ta
Ġp oll
Ġsec uring
Ġmod ular
ĠLO B
Ġtrade off
S ome
Ġw arm
Ġdecision making
Execution Role
Ġupt odate
Ġus ual
ich ael
ĠSe attle
Ġpubl isher
Ġexport ed
Ġprom pts
b t
ĠS chedul
Ġh iking
ĠE l
ĠB abelfish
Ġaws cdk
Ġretrie ves
ĠT opic
In s
ĠWith in
ĠPl ay
Ġprof it
Ġlab or
Ġsc anned
ĠN on
Ġprom ote
ĠDashboard s
Full Access
Ġw arning
Ġk ick
ĠApp le
Ġassoci ation
P assword
ĠB asic
Ġdes cript
ON E
Ġlearn ers
AN D
ĠAuthor ization
there um
9 2
C enter
ul ations
33 33
connect ed
Ġsynthe tic
5 2
D U
n es
os h
ĠCont inuous
user name
ĠEndpoint s
HI R
u pload
Ġin line
et a
Ġre ds
ĠC apacity
Ġsc iences
ss l
ĠU buntu
Ġinv alid
Ġdirect ories
Ġrepresent ing
ME NT
run ning
Ġbound ary
Ġrestrict ed
Ġprob ably
Ġeconom ic
Ġdup licate
E W
g roups
ĠS napshot
Ġpro d
Ġint uitive
Ġ4 8
Ġmin or
Ġdec ade
Pro t
Ġaccommod ate
F F
ĠC UR
Ġch urn
ĠSc an
Ġedit ing
ĠTw o
ens ions
Ġdes k
Pro file
Ã© s
ĠDef ine
Ġge ograph
V alid
ul ator
Ġal ter
ĠB ank
ĠĠĠĠĠĠĠĠ ĠĠĠĠ
Ġcross Region
Ġchart s
T r
b lock
Ġa x
ĠS EC
Ġst rug
Ġres id
Ġfeed s
Ġge ospatial
lo it
Ġno ise
à¸ Ń
Ġdownload s
Ġleg al
l inux
Ġw elcome
ĠB ase
eb ru
ĠSu pp
ĠTer min
AMP LE
Ġquot as
Ġapi Version
ĠWave length
A c
f alse
Ġn u
oc ab
CT ION
Ġbehavi ors
Ġactive ly
Ġtun nel
Ġmat rix
Ġnews letter
T ags
U ri
Ġpre paring
int ime
eg ment
empl ates
Ġclass room
ĠOr der
Ġcount s
Ġu pper
Ġman ip
ĠIn cre
Ġresult ed
met adata
Ġpres ence
Security Group
Ġtranspare ncy
f ield
Ġm ir
Ġke pt
ĠAr tifact
RE T
Get Object
Ġfrequ ent
Ġder ive
ĠEduc ation
Ġadvert ising
b a
Ġc s
Ġp le
ĠD S
ru ction
Ġenc oded
Ġsearch ing
Int roduction
ĠPract ice
Jo in
ebru ary
y m
ĠE arth
um ps
Ġro l
ru le
Ġhel lo
Aut hor
uf fer
Ġbound ing
ĠVAL UES
r d
ic o
ad o
jo in
Ġbroad er
osc aler
h an
ĠL D
Ġdiscuss es
ĠMedia Convert
Ġintrodu cing
gener ation
g g
m ark
Ġt orch
Ġto ld
ĠAWS EC
ec onfig
Ġpre configured
ĠK P
Ġbet a
D NS
R C
Ġr anging
ast ic
ident ifier
Ġiss ued
part ition
Ġref ers
ĠMore over
dn ey
ĠF HIR
pl an
ĠB ud
ĠK E
val ues
ĠBot tlerocket
idd en
ĠDep artment
ĠIndust rial
He alth
repre ne
Ġm edic
ick et
Ġmeet ings
Log in
Ġconfigur able
Account Id
Ġcompet ition
ĠTw in
Ġsatisf action
ĠC L
ĠIn ventory
po ol
Ġclient side
Ġupload ing
Ġco ol
ĠGre mlin
vent ion
Ġcost ly
res ources
Ġdepend ent
En g
Ġillust rated
h us
ig it
ĠF ed
ĠW ed
apt ure
resh old
ĠStack Set
Ġele v
CL USTER
Le vel
ĠACL s
en viron
en ario
Ġf an
Ġst e
vi r
ĠK B
Ġpr erequisite
Ġshow case
Ġbill ions
ailo red
Ġweek ly
Ġthread s
Su pport
ĠProvision ed
M ig
T hat
j pg
ĠE thereum
ĠR UN
pre c
cont rol
Ġlab s
I p
Ã £
Ġar gs
Ġpat ches
Ġrecommend s
Ġear n
LT ER
P ool
S ave
Ġd u
ĠC ase
ch annel
Ġl ag
Ġal one
Ġ1 99
Ġstat s
ĠUS ER
Ġreli ably
ĠBot o
in ary
Ġd rug
Ġ2 000
Ġatt end
ĠPre viously
ELE TE
Item s
er ole
Ġin memory
Ġmaintain s
Ġwalk ed
5 00
ĠA dapt
ĠC T
ab c
ber os
ĠGateway s
Ġopen ed
Ġconsider ation
dat as
Ġcut over
S erve
Ġnot ified
connect ion
Ġremedi ate
Ġsts AssumeRole
e mail
ĠPro file
ĠSp ace
Ġsecure d
ĠDes cribe
B log
B lock
pl ane
ĠDe le
Ġcontinu ally
Ġjo int
Run ning
Ġge o
Ġrepl aced
ĠBill ing
Ġ QL
Ġn orm
Ġn ecess
ak ers
Ġautom otive
Ġret ries
a dem
Ġmulti Region
ĠRegion al
Ġrefer enced
Ġprotect ing
Deploy ment
clu ding
ĠSy dney
E KS
p aram
Ġw rong
ĠC AP
ĠT yp
ur y
ĠF ast
Ġpre m
Ġsepar ately
ĠDet ection
Ġask ing
Ġdisru pt
ad ing
ĠThe res
Ġenter ing
Met adata
ĠAdministr ator
b ash
Ġn one
ut able
Ġsu ited
Ġch ief
ĠO h
ens es
ĠMedia Package
Ġappli ances
b its
p ark
ĠC assandra
ĠN ames
Ġra re
Ġt ape
ĠT R
ĠT ables
ĠW here
Ġadd on
St orage
ann ot
Ġimpact ing
Ġthresh olds
Ġdur able
Ġargu ment
P ar
al anced
eg as
ĠSc ript
Ġcount er
Ġcontinu ing
rict ion
f un
o pt
Ġs andbox
Ġw indows
Ġma il
Ġoff load
host ed
Ġtri als
Tier ing
Ã£ o
d y
Ġb alancing
ĠS ustain
Buil der
ĠInit ial
om aly
Ġwas nt
Ġocc urred
Ġepis ode
D ec
Ġ0 9
Ġwrit er
ĠWith out
Ġrobot ics
au gh
ĠG DP
ĠU TC
arn aws
Ġcontroll ers
Sc ale
det ail
Ġcrypt ographic
l ig
Ġt ailored
Ġn oc
Ġv ital
Ġma ppings
Ġweb hook
ĠSub mit
Ġb anks
ĠF iles
Ġsh ipping
ĠEx ternal
ĠInt roduction
Ġrepeat able
Ġmer ge
hol der
ĠIntelligent Tiering
Ġrol ename
v olume
ĠMod ify
Ġdepart ments
Ġrepe ated
O W
th at
Ġtra il
og ene
f ilter
u y
z a
ĠA L
ell ing
ĠAl ways
Tra ining
ĠStack Sets
Ġcy cles
Ġcontract s
dynam odb
Ġp ul
Ġb ridge
eni ed
ifferent iated
N G
Ġs it
Ġin house
ĠW ITH
ĠB alancing
CO MPLETE
à¹ ī
Ġredund ant
Ġreds hift
P rivate
c ases
ĠS ch
ĠW AN
igh b
atal yst
Ġpe er
ĠBe low
Ġdr ill
ĠQL DB
Ġtr uly
pon s
Ġ5 000
Ġpredict able
Pro duct
Ġutil izes
Ġcitiz ens
ĠKP Is
t his
Ġo pp
Ġre boot
ĠT witch
Ġhost name
Ġfound ers
Ġcopy ing
Ġeffect s
Ġlisten ing
Ġlapt op
t f
Ġt ree
Ġbot s
Ġident ification
Ġsm ooth
ĠProduct s
Ġredirect ed
D ep
b re
Ġfor warding
Ġbat ches
E mail
s plit
Ġn aming
Ġg aps
vid ers
Ġve ctor
Ġestim ator
b r
d ated
ul a
Ġpl ays
pon ents
Ġcontact s
ĠRep lic
Ġelimin ating
ĠStrateg y
Ġhierarch y
8 5
Ġy es
as you
Ġr ating
Ġsign als
Ġcamer as
ERV ICE
Ġe uwest
un ately
ĠN at
com aws
Ġeffic iencies
De velop
ĠIS O
al low
am ps
ist ical
Ġcontain ed
Ġstate ful
ĠConnect ed
ĠUnder standing
Ġpress ure
u id
w o
Ġb rowse
Ġem r
ĠEn sure
Ġestablish ing
Ġcou pled
Ġalloc ate
L ike
Ġs light
ĠC I
Ġtrans fers
Ġent reprene
ĠDe bug
Ġconfigure s
Ġinitial ize
Ġconsolid ated
E E
E ST
Ġcont rast
Ġent hus
ĠTo ky
Ġexecut es
Ġdetect ing
ĠClean ing
Ġwebin ar
J SON
Ġcom fort
ber ry
Ġextract s
ph as
Ġrobot s
Ġconstra int
Ġund ifferentiated
acu um
re st
ĠA G
Ġm kdir
ĠM G
Ġun ivers
Back up
C D
C M
o ptions
Ġr ig
li ance
Ġpass words
Pro ject
Ġnavig ating
Ġcollabor ative
ĠAss ist
Ġsup erv
E NT
Ġup s
os ys
Ġorgan ized
Ġjo ins
Ġtransl ated
Ġfeder al
Ġelimin ates
Ġrecogn ized
Ġinflu ence
limit ed
Ġworkst ation
Ġn ational
ĠW izard
ĠB oot
Ġhel m
AT US
ĠWork bench
Ġpay ing
Ġsever ity
ĠAss ess
ĠC N
Ġas semb
Ġhe s
Ġcomp licated
Ġinvok ing
Ġbreak out
ĠWorkflow s
J son
Ġcon j
Ġcomp ly
chitect ure
Ġconst ant
ĠPre view
Ġpresent ation
des cription
Ġsam pling
que ue
8 7
AB ASE
Ġfac ilities
Ġsummar izes
K ER
Ġre ve
pro vider
Ġrec all
ĠEx plore
Ġscen es
Ġ19 2
Ġelect ric
comput e
Ġkeyn ote
G ate
H ead
e uwest
ĠS L
our s
Ġend users
Ġdownload ing
Ġclo sed
ĠAcc ording
Ġmac OS
ĠQual ity
ĠToky o
m icro
í ķ
il ies
ĠR L
AC CESS
Ġrad io
ĠCurrent ly
Ġ ë
ĠH A
Ġsub t
Ġatt ract
Ġel igible
ĠModern ization
Ġw ild
Ġl ift
ĠE LB
ĠB lue
ge x
con tainers
Ġgener ic
Ġlook up
Ġmat er
Ġinitial ization
ĠLif e
clud ed
loit te
im ages
Ġanaly ses
sc ale
Ġpay asyou
Ġanalyz es
Ġprevent s
Ġrestore d
Ġroll ing
Ġaware ness
Cons ider
Comm and
F C
and o
ĠSp ring
ÂłÂłÂłÂł ÂłÂł
OR Y
Ġintern ational
Ġcontribut ed
event s
Ġsilo s
Ġtopo logy
c url
Ġin person
ur b
ĠM ode
ĠB l
iv ot
Ġk inds
Ġiter ation
ĠSign On
Def inition
Ġenforce ment
t ab
ĠTra in
Ġmiss ed
Ġguid ed
ĠVis it
ĠKeys paces
ogene ous
U ID
u er
y an
ro te
ĠT CO
ot net
res ults
Ġlook ed
Ġauthor izer
ĠTra ffic
Ġsy m
ashing ton
p arameter
Ġh ack
du cer
pro t
Ġrec on
Ġgreat ly
alle t
cho ols
ĠString Equals
RT OS
ĠREAD ME
b ar
ĠE v
Ġse ar
Se e
cont roller
Ġinterv ention
Ġeffect iveness
Ġcandid ate
C ert
I LI
n amed
s im
Ġv oid
ĠB GP
Ġnew est
li as
ĠUn it
F ilter
Ġ ir
ion ary
ĠC H
Ġsp ikes
pen se
Ġconf lic
Ġexpl oration
c one
s udo
est ion
ĠĠĠĠĠĠĠĠ ĠĠĠĠĠ
Ġaddress ed
Ġversion ing
ĠAS P
Ġinde pth
ĠP R
Ġac quis
Ġcut ting
Ġsatisf y
ART ITION
ĠLD AP
est imator
erv al
Ġqu arter
po d
log in
Ġcomp ile
11 1
Ġpopul ated
F alse
as ervice
Ġst ability
Ġ1 50
Ġrun book
Ġpack ets
cent er
ĠClean up
Ġsubscrib ed
ĠGDP R
G etting
S ample
Ġim ager
ĠAcc enture
ĠMa xim
Ġf ly
ĠR ust
ĠV ice
Ġdirect or
olum ns
Ġsign in
AC T
Ġcollect ions
Att ach
Ġw at
ra se
Ġrun times
rid es
Ġart icles
Ġcover ing
Ġsubscrib ers
i est
m ult
p ite
Ġp d
ĠO EM
Ġj ump
ĠApp s
ex ecute
ĠNo v
Ġsynchron ization
Ġreus able
N am
S ite
ff ix
Ġreg ression
ĠCom ple
Ġspe aker
ee k
ĠCS I
Ġdep ic
it les
el ist
Ġfam ilies
G ER
Ġb ias
ĠT H
pr ice
Ġcontext ual
Ġspeed s
TY PE
Ġ2 50
ac her
Ġj ava
Ġdis par
Ġweb page
ĠNe o
ĠOptim ization
Organ izations
g rat
he el
ĠP attern
ip her
Ġpract ition
cent ric
Ġbat ter
DAT A
ĠOh io
f ri
l ere
Ġs yn
Ġf ans
Ġre lying
Ġun w
Ġed ition
Ġbill ed
ĠBen efits
Ġa pt
ion e
ĠF ocus
ill ion
olut e
ĠU N
Ġnot hing
ich annel
ĠĠĠĠĠĠĠĠ ĠĠĠĠĠĠ
Ġread iness
As soci
ough ly
Ġsched ules
Le ave
sem ble
Ġd Ã©
Ġw on
Ġle aving
Ġprodu cers
Ġsimul ator
ĠST RING
ĠFollow ing
Det ails
Ġtimel ine
ĠJO IN
ĠSynt he
B alancer
M C
e ys
v m
Ġon etime
ĠM O
ĠV ault
int eg
Ġfe es
ĠAn n
Ġform er
gest ion
buil der
Ġconven ience
Ġcoordin ates
Ġthrott ling
Ġin ferences
om s
de l
Ġus r
ĠM att
Ġcomp ressed
Ġdesign ated
Ġcapt uring
Ġput ting
Ġencount er
arp enter
ĠGW LB
Ġconj unction
B ody
M AN
V ari
p e
re po
Ġsh adow
Ġtransport ation
OUR CE
N AL
m ysql
ĠM P
Ġk new
Ġappro ve
Ġvari ants
ĠEn abling
ĠEx ecute
Ġposs ibilities
Ġeasy touse
Ġcontribut ions
Ġconver ts
9 3
t orch
ar ray
ĠS oc
ĠP ers
Ġad here
ire gion
oo lean
Ġun s
sc ore
ath an
ĠPr imary
Ġcalcul ations
ur ations
Ġen ds
Ġcustom izable
ens ity
Ġreplace ment
IME ST
g p
ĠC he
ĠO ptions
cre ated
lu x
ĠCert ifications
AI L
Ġelastic ity
ĠGe o
Ġnonprof its
Ġmater ials
5 1
Ġ velo
in ity
Ġd ram
ĠW atch
ĠG olden
Ġ3 8
pro perties
ĠCons umer
Deploy ing
MB ER
i us
ĠA GE
ĠW ashington
ell er
Ġmod ifications
Ġless ons
ĠStack s
Ġ200 8
Ġtell s
su pport
Ġexpress ions
Ġinterpre t
ĠFA Q
R a
Ġd am
de lete
ĠP K
Ġex ec
ĠL abel
Ġint ensive
Ġsh o
ĠAt las
Ġclass ifier
Ġtalk ing
ĠFr ank
M in
Ġs a
ĠS ent
ĠD ELETE
ĠU l
ap ers
yn b
Con dition
ĠIm ages
man ifest
FI G
entral ized
L ook
W indows
Ġs lots
am z
Ġe gress
ĠC IO
ĠCont inue
En vironment
Ġcar ry
Ġaim s
Ġgenom ics
Ġcompil ed
ĠUP DATE
Ġf resh
Ġw rote
ic ians
ĠF orm
ĠL ike
ĠEx ception
ĠAutom atic
25 4
à¹ Ģ
Ġrestaur ant
ĠAfric a
Ġpayasyou go
Z one
ur ch
ĠE valu
Ġint r
ĠN ative
19 2
Ġreview ing
Ġprof iling
Group Name
Ġswitch ing
Ġfeat uring
H OST
s um
Ġan onym
as y
ĠD b
Ġfac ility
Ġbuilds pec
GIN X
O ptim
al ed
ri an
Ġhe ight
ĠIn voke
Ġident ical
Ġrout er
Ġph arma
Ġbro kers
Ġfast est
Ġlay out
Ġmark ed
ĠChat bot
IMEST AMP
a os
an ies
Ġre pro
ag ues
Ġg as
ĠN u
ĠĠĠĠĠĠĠĠ ĠĠĠĠĠĠĠ
ĠSp innaker
Ġinvest ing
ĠOption al
L abel
i F
i j
ĠT ry
Ġacc ident
Ġbu g
Ġ5 12
Ġinterv als
Ġimager y
ect ed
ĠR oom
ĠL et
Ġres ize
Ġlo y
ĠFor um
Ġexecut ives
Ġbenef ic
ĠGre en
Ġhttp ss
ĠCollect or
ì Ŀ
Ġh op
Ġex pon
ĠL imit
Ġwe ights
Ġag ency
Ġvisual s
Ġfore ign
Im plement
Ġmount ed
Ġheav ily
Ġhot el
C s
f a
ens ion
Ġintern ally
Bucket Name
Ġclean up
Ġmanufact urers
lere vent
ĠA v
Ġb lack
ar chitected
ĠS ur
Ġh arness
Ġl as
Ġdo z
Ġgranular ity
CloudF ormation
Ġc ron
ur m
ĠRes ults
ĠWork loads
ĠAnaly ze
ĠFin Space
Ġsepar ated
Ġinterest s
Ġcalcul ation
dev ice
secre ts
Ġfinet une
uff le
7 3
Ġre verse
ĠP assword
ĠR oot
Ġlo ts
Ġhow to
ĠEx amples
ĠTrans port
Ġacceler ation
Ġpod cast
par allel
Ġder ived
Ġopp os
ĠC NAME
Ġmon et
Ġmethod ology
Option al
Ġexcell ence
ILI TY
6 9
O b
P RE
Ġu r
ip ynb
Ġeng aged
ĠMet adata
Ġrestrict ions
Ġprotot ype
B A
X T
h ir
h ome
ĠS af
ul ly
ul um
ord ers
Ġspecific ations
Ġref actoring
Ġroll back
Ġmonolith ic
ĠKE Y
g th
hentic ator
Ġingest ing
ĠER P
Ġcre at
av en
Ġdesign s
Ġclass ify
ÂłÂłÂłÂł Âł
ĠTh ink
ĠInt roducing
Ġupgra ding
ĠFree RTOS
H ANA
v ari
Ġpro te
us ing
pos er
Ġiniti ated
Ġge ographic
AAAA AAAA
A IN
P ATH
T ube
n ull
ac iÃ³n
Ġpre process
Ġass urance
Ġinv ite
Ġ10 24
Ã© es
G e
g n
v in
it ch
ar b
Ġal though
Ġarchitect ing
ĠWork shop
Ġbottlenec ks
W ell
ce ived
Ġpre script
Ġcomple ment
Ġpo or
ĠAl arm
N U
re port
Ġan tic
ul ent
Ġr er
ub l
ĠPro ton
xx x
Ġinnov ating
Ġfl at
ĠExt ract
Ġsem antic
m ed
y a
ĠA LTER
Ġw ind
Ġres ides
Ġim aging
Ġpre serv
Ġ3 4
20 1
app y
Ġter raform
Ġindic ating
ĠOper ational
ĠISV s
8 1
se ction
ĠP at
Ġcom posed
ĠSp e
Ġsimul ated
Ġarch ived
Cont act
Ġdise ase
8 2
P ORT
ate ver
Ġv ice
Ġres pect
load b
Ġaud its
par quet
Ġhappen ed
t otal
Ġb ooks
ĠO wn
Ġorder ing
Ex port
cloud watch
D N
P ACE
st orage
ĠF ebruary
ĠW alkthrough
ĠH R
Ġplay back
AB ILITY
ĠOther wise
Ġunc ertain
H R
ing u
Ġf riction
ĠR D
Ġ1 00000
Ġnum eric
Ġdem oc
Ġ6 00
LO C
in ference
Ġs sh
an i
Ġde aling
Ġex clude
ĠR B
ĠG iven
ĠYou Tube
ĠMig rating
ĠAc cept
ĠEurope an
Ġoffic er
V ideo
t opic
ĠD EC
ĠD DL
ĠP et
Ġlog istics
Ġdistribut ions
ath on
Ġscen e
vid es
LO G
Ġaccept able
Ġsubscrib er
Avail ability
N e
it ors
ĠI F
ĠV egas
Ġblog s
à¸ ĩ
Ġaud iences
Ġbreak ing
Ġpres igned
Ġfunctional ities
ĠFr anc
P ower
ĠF ield
Ġread write
fol der
Ġprefix es
ĠFace book
Ġimm utable
Ġfr ag
Ġsubst ant
Ġs om
ke ys
pro d
ĠWork space
Ġ202 00
ĠKer beros
nes day
Z E
f ocus
ĠS K
ĠT alk
Ġqu icksight
here nt
Ġacce pts
ough t
Ġacceler ates
C atalog
o ch
Ġfor get
ĠE FA
iz ers
Ġle ak
ast ers
ĠU DP
amp aign
def inition
Met rics
S napshot
Ġst udio
Ġv ocab
ĠO Auth
ĠN GINX
ang er
Ġappropri ately
chm arks
Ġlight weight
j ava
Ġs chools
ĠD an
ĠF ull
Ġhe ter
Ġsp aces
cre te
cre dentials
row ing
Ġpos itions
RA NT
ĠCR M
D R
d om
d ownload
v is
Ġd iversity
ĠĠ Âł
ĠP UT
ĠF uture
ĠSt op
Ġpe ers
Ġmeasure ment
Ġsimplify ing
ĠPort al
Dev ice
Ġdepic ts
B R
Ġp ix
ĠC ache
Ġl ate
Ġapp re
eg in
ĠAr n
ĠAn g
Ġcar s
Ġantic ip
E very
f ree
h ub
Ġp aid
Ġb read
ĠS ize
Ġcon formance
ri ed
Ġout do
Ġnames paces
Ġcorre lation
Rep eat
ĠMulti ple
L abels
m arket
Ġapp oint
Ġcert ified
ĠAm b
Ġ1234 5678
D r
ĠP S
ĠB o
ack s
Ġout age
We ve
Ġactiv ation
ÂłÂłÂłÂłÂłÂłÂłÂł ÂłÂłÂłÂłÂłÂłÂłÂł
Put Object
ĠValid ate
Ġenthus i
Ġvelo city
6 3
Ġt end
Ġm ist
ĠS LA
ĠV IF
Ġ3 000
Ġexp iration
ĠOr chest
Ġpg bench
Ġdoll ars
ĠSpecific ally
K MS
ĠC orpor
Ġpre tty
Ġvalid ating
Ġexplo red
Ġspecial ist
DE FAULT
Ġembed dings
ĠRob ot
Ġbenchmark ing
Ġinterru ption
ĠInc ident
Ġemp owers
Ġinteroper ability
M edia
Ġt ar
es k
ĠC alcul
ĠN S
anc hes
ond ay
ever aging
Pro vision
ĠType Script
irection al
Ġchild ren
ĠT om
log ical
ues day
Ġexp ans
ĠEn v
Ġstat istical
Ġconver ting
Su ccess
Ġslight ly
F ield
w d
ig m
Ġh ook
ab ased
ur a
Ġhel per
Ġsee k
riv ing
Ġquer ied
Ġimport ing
ĠEn abled
Ġinteract ing
Ġextract ing
F L
K inesis
f e
Ġs qu
Ġp ending
ĠC a
as ure
im al
iv al
Ġisol ate
a ware
d oc
e al
t ag
Ġm id
us age
Ġdifferent i
Ġimportant ly
Ġrespons ibilities
Ke ep
asp berry
ĠHospital ity
M IN
W A
Ġt f
ĠG ithub
cl aim
Ġcloud s
Ġhand s
Ġcorre l
Ġfl ags
Ġflo at
ĠDisc over
____ ____
ORM AT
D T
g r
Ġb io
Ġde vi
ĠD ru
ĠO TT
ss ible
ĠK ore
ĠSp anish
Qu ick
Ġestim ates
ĠLink ed
0 24
f b
Ġt ensor
ĠP O
out heast
ĠH ome
ert o
Ġexport s
Al so
Ġpush ing
hem eral
0 16
al t
as aservice
ĠL i
ire less
RE D
Ġdel ays
Ġtermin ated
Ġput s
ĠProf iler
H igh
O ME
Ġa ma
ĠA verage
Ġblock ed
Ġtermin ation
Ġsuggest ed
T wo
Ġne ighb
Ġad s
ient ed
hentic ated
ric ult
ĠLog ging
oun ce
Ġattach ments
12345678 9
Ġdep ict
ĠExecut ive
B U
ĠT PC
ĠL as
ĠB ook
ĠH PO
point s
Ġed ges
ĠY OUR
Ġco h
Ġbig ger
Al ternatively
Ġiter ations
Ġguest s
abric ks
Ġloy alty
c ache
l a
Ġd og
om arket
Ġdis p
ĠEn h
Ġbro ken
Sec ond
Ġsepar ation
Ġdispar ate
ĠS ync
om ic
ĠD ont
Ġsh ip
ĠIP AM
ĠAD OT
item s
Ġconduct ed
Ġmot iv
ĠTre nd
ĠFed R
ĠSustain ability
4 1
M ost
O ther
Ġm arg
ĠG ames
du ce
Ġauthor ize
Ġprior ities
Ġaccom p
Ġresol ved
Ġmovi e
r ases
Ġa ward
In voke
à¸ ±
Ġacce pted
ĠVM s
ĠDa vid
fri endly
B C
an o
ar ound
ĠH E
St op
Ġannounce ment
Ġinsert ed
Ġclear ly
ĠInit i
ĠRetrie val
Ġm ath
ant ed
Ġtool kit
An y
erg ed
Ġredund ancy
U pd
b ut
d umps
Ġf ounder
un ed
Ġv acc
ĠĠĠĠ Âł
Ġsee king
ĠCh ain
ĠPh D
awss dk
Ġ 0000
en able
ĠS CHEMA
Ġsc roll
ĠRes olver
Ġclass ical
Ġjourn eys
ĠNe uron
ofthe art
Enc ryption
le ading
ĠE DA
12 8
Ġformat ted
Ġprec ise
d ig
ĠA LL
et ch
pl atform
Ġac quire
Ġlat encies
Ġstream ed
ĠQu antum
Ġ9 00
Ġminim izing
Ġcaus ing
Ġled ger
or ama
Ġd ual
ĠM onth
Ġpl t
Ġdef ense
Ġ20 15
AT CH
ĠTr igger
Ġexecut ions
Do S
Ġabs olute
O ff
Ġ WS
Ġc um
Ġun pre
12 222
ex ecut
Res ults
Ġcur ve
202 10
Ġalign ment
t itle
Ġt urning
Ġc art
ĠS chedule
ĠS egment
ĠM atch
el t
ĠV OD
Ġ3 60
Ġmanifest s
Ġelect ronic
a demic
Ġre ward
Ġde gra
ck ing
ĠL ock
ĠInst ant
Ġspe aking
T B
f c
r ange
it er
Ġp ilot
Ġre aches
ĠS it
ĠM art
ĠIn ferent
ans om
ĠSt at
ech an
Red uce
Ġs ns
Ġde com
Ġres ide
Ġstream lined
Ġmod ification
ĠTh anks
Ġprogramm atic
Ġobserv ations
mp eg
ĠRecomm end
ĠFedR AMP
O UT
ed up
ĠR DF
Ġout ofthe
comm and
IP S
ĠST ATUS
Ġbar riers
grat ulations
7 1
V S
g em
ĠS am
ĠP RI
Ġincre ment
Ġpoint ing
ĠAM P
AN CE
ĠMain frame
r ist
Ġf its
Ġd oc
Ġ1 20
Ġdec ades
ogn iz
EC S
Ġrepresent ative
ĠAss ign
Ġ24 7
Ġasynchronous ly
Ġcandid ates
C urrent
G lue
W alkthrough
c ategory
u pp
Ġc le
le c
Ġres et
Ġhe ard
olut ions
Ġcomp aring
Ġtw ice
Ġ4 43
olum es
Ġmeasure ments
ĠAuthor ity
des cribe
gener ated
D ocs
M T
t oday
ĠC or
Ġh iring
Ġch alk
ĠH and
Ġgener ative
Ġem it
ĠRep orts
ĠAD D
Ġsol id
api Version
Ġprescript ive
S end
Ġe missions
ĠC redit
ĠD DoS
ang ed
eng es
ey ond
Ġstate oftheart
ced ented
Ġ8 00
RO R
Ġstrong ly
ĠDistribut ion
Ġexcell ent
Monitor ing
Õ ¡
ĠP CA
ĠF ormat
ĠL ow
ĠG ood
ass ad
Ġfin ds
requ ent
ĠSnow cone
Ġpill ars
Ġstren gth
I L
M emory
U tilization
s ystem
w in
ĠM em
Ġ5 4
Ġhttps www
Ġreplic ating
Ġdeterm ining
Ġiniti ates
ĠInstall ing
ĠIV R
ĠCommun ic
wh ile
Ġacquis ition
A b
s he
pl ayer
Ġcl ar
Ġcl ause
ĠJ ira
yn at
back up
ĠInter active
Ġunique ly
Ġcamp us
ĠReal time
Ġbread th
d irectory
ĠR aspberry
Ġte acher
ĠJ ourn
ech o
ĠNetwork s
Al arm
medi um
LO AD
ĠRet urn
P ublish
r r
ĠB ar
Ġout line
Ġapplication json
abl ename
Ġun iversity
Ġindividu ally
ĠAg greg
ĠBro ad
ĠLand ing
W est
g ateway
p ackage
es ystem
Ġf light
om ics
Ġg rown
ĠF ailover
ĠB alancers
Ġpr oud
ĠApp lied
rap e
ĠCh ar
by tes
Ġenh ancing
ĠDocument ation
Ġanomal ous
ĠAB AC
ĠRest ore
Gu ard
ĠPan orama
Ġunpre cedented
i or
Ġm il
ĠRe quire
Ġaws Principal
Ġlimit ing
50 9
aut om
Ġexperiment ing
Ġreach ing
valid ation
WOR D
E P
H ttp
Ġst opping
ĠCon struct
Ġdes c
Ġret urning
to ps
ĠUS D
Log s
Ġdel ta
Ġve ctors
job s
Ġcoste fficient
E lastic
d ist
k ms
en n
Ġd ms
um ar
Ġcomm erce
Ġforward s
ĠOper ator
Trans form
EX AMPLE
Ġdecl ar
Conf irm
12222 3333
ĠI ss
Ġsp ons
yp ing
Ġun e
Ġun limited
ark ing
Ġem phas
Ġcheck out
Ġ9 5
Ġfully managed
Ġfacilit ates
VE NT
Clean ing
p ayload
Ġp arams
ag ram
Ġdat at
ĠF OR
Ġ3 3
ĠDe loitte
Ġexecut or
Ġforward ed
Pre dict
Ġinvestig ation
ĠPoint s
ĠSkill s
focus ed
b one
Ã ¼
Ġr m
ĠL ambd
Ġclo s
Ġvisit ing
ĠResil ience
c oded
Ġf aces
Ġp ivot
lo at
ĠH er
ĠH ar
ten ant
à¸ ¥
ĠMet hod
Ġcraw lers
E ns
t x
in y
Ġs now
ent y
ur ring
ot a
ĠM E
Ġper haps
Ġ0 1
ĠRes ult
Ġgraph ics
urs day
Ġfulfill ment
ĠServ ers
T ailor
Ġf irms
ate gor
Ġl s
em l
Ġint ents
ĠB ERT
ĠJ VM
Ġcheck ed
Ġfilter ed
Ġcontribut ing
ĠDistribut ed
u i
Ġw ider
erv ations
Ġres ume
end esk
od o
ĠHy brid
ĠInferent ia
G R
w er
Ġw a
RE S
ĠWork load
Ġskill ed
Ġtack le
ynat race
Ġn ight
ĠW OR
ist or
are s
Ġfe e
Ġra ck
ĠTh ose
ĠST S
Ġmembers hip
Ġfraud ulent
Ġrot ate
Ġflo or
Ġidentifi ers
inite ly
Ġdemoc rat
Ġama zing
8 3
c olumn
g ment
ĠC raw
as c
ĠD uration
end ar
Ġorigin ally
Ġexpl an
Ġref res
Ġaggreg ates
US E
Ġparticip ating
ĠContent Type
Ġspeak ers
Ġpractition ers
V pc
Ġs izing
Ġs leep
et ype
ĠC V
ĠC OR
Ġsh ot
Ġsub mission
tt o
ĠGit Lab
Com plete
30 6
IT R
Ġsent ence
ĠPre pare
Ġcare fully
Ġeduc ators
Per missions
Ġfs x
b i
m onitor
et ter
Ġde prec
Ġg l
ĠP ass
Ġwork group
Ġdo or
enc rypted
Ġun known
io v
Ġmat ched
ĠAC COUNT
En abled
Ġmitig ation
T otal
l ayer
ĠP al
em ploy
ĠB und
ft en
Role Arn
Ġtreat ment
f urt
ab il
pp ers
un ks
Ġcomp ress
With in
rie ve
ĠRem ember
Ġ 00
Ġth re
ĠC isco
Ġh ood
Ġat hena
Ġar rive
te x
Ġmult iregion
Ġweb based
ĠConnect ivity
à¸ §
Res ources
Ġcomb inations
Ġinc orrect
Ġretrie ving
Ġgain ed
Ġpurch ases
ĠSP ICE
ĠValid ation
Ġcof ounder
Ġoutofthe box
Ġy ield
Ġst ops
Ġun int
Ġdem os
ĠSu ch
Ġaltern ate
stra ction
ĠLO G
Ġbl ank
Ġpill ar
ĠObserv ability
ul ary
Ġr Ã©
Ġsu ffix
20 18
Ġwell architected
Ġpoint intime
Ġonpre mise
Ġquant ity
Gener ate
SEC RET
ansom ware
im eter
ĠE p
ĠB ay
ĠH uman
Ġtr uck
Ġk it
Ġanaly tic
Ġpar ad
duct or
Ġperiod ic
.... ....
D uration
F urther
e a
Ġp owers
ĠA udio
Ġw ave
ĠAWS S
ĠB ring
Ġinst antly
Ġbu gs
ice berg
Ġun able
Ġ20 14
rit on
Ġmin ds
Cl one
Ġbatter y
6 2
s ys
Ġs il
ĠA vi
em r
Ġwh atever
ĠN IST
his per
Ġdifferent ly
Ġinstall s
ĠIm pact
Pro perties
ĠTh us
k i
m ig
t ally
Ġan t
Ġf uel
st at
ĠH ot
Ġmoder ation
Ġassess ments
ĠTable au
ĠLead er
Spec ify
Autom ation
writ ten
Ġfre ed
Ġnearreal time
D D
J S
lo s
Ġg oods
Ġcan cer
Ġlo se
Ġaccount ing
here d
Ġlow cost
Ġes cal
Ġpurch ased
Ġpurch asing
ĠSpecial ty
ĠPy Spark
t ags
u zz
Ġa u
Ġc hem
st age
ut ter
Ġpro spect
Ġdat es
Ġ3 7
ert s
Ġac ademic
Ġgroup ing
Ġcould nt
Ġcontribut ion
det ails
Ġtick ets
Ġaugment ed
Ġagree ment
n ormal
Ġd enied
Ġn ar
Ġen ric
ss h
ĠH andler
Ġaccess ibility
ĠWork Docs
UR I
Test ing
ĠRem ove
Ġbus y
Follow ing
Ġpredic ting
Ġmand atory
ĠSci ences
en vironment
Ġpro ps
ĠB E
Ġun predict
Ġcompet e
ĠDAT ABASE
Ġconfident ial
ĠGerman y
C atalyst
O B
vi ding
ĠM ag
Ġlo an
post gres
predict or
Ġcolle agues
ĠLo Ra
MAR Y
F ind
m or
Ġmo lec
ĠV end
po p
Ġback bone
ĠPre sto
lear ning
Met hod
Def ine
ĠÂłĠÂłĠÂłĠÂł ĠÂłĠÂłĠÂłĠÂł
Ġclon ed
repos itory
g mt
es e
Ġm ature
Ġpro ve
ĠH C
Ġ3 9
ĠDe ad
Ġindex ing
Ġhttps docs
Reg ister
Ġtutor ials
hand lerevent
ĠBre ak
Ġsear ches
U TO
Ġun available
comm unic
Ġut ter
Ġauthor ity
ĠAss et
ĠFrank furt
Ġappre ci
r ight
Ġin her
Ġre vision
ĠG old
Ġper man
Ġeas iest
Ġdesign ation
ĠAc adem
Comp atible
c apacity
f ire
l ived
Ġf luent
sh ow
ĠRe lease
Ġstate less
ĠPre fix
ĠMedia Tailor
Ġcare ers
Ġprevent ing
SS M
cloud formation
Ġ17 2
PE G
Ġinterru ptions
ĠGovern ance
Ġqual ified
ĠDetect ive
a ul
b alance
s a
t om
as ets
ĠM iddle
ĠB er
Ġsh op
Ġab straction
up erv
tain s
Ġenc aps
ĠMig rate
ĠModel s
Ġboot h
VER SION
Ġsour ced
Ġunw anted
E CT
L ine
p aced
Ġwh ite
ĠCloud Shell
Ġqu i
force ment
ren ch
Ġexceed s
graph ql
A ST
p arameters
r as
Ġcl ip
sh are
ER VER
ĠCode Artifact
Ġtrack er
Ġtalk ed
P ass
ĠT asks
ĠM aven
ĠN VM
cre en
AR GET
Ġ11 00
Ġarch iving
FI X
Ġbuy ing
K EN
M arket
v p
Ġe ye
ĠT or
ĠE UC
abl ish
Ġfeature d
eng er
Ġacceler ators
Ġscreenshot s
Ġpres ident
Ġconcurrent ly
END POINT
Ġhyp ot
ASS WORD
A p
h ash
ĠA nt
st ers
ĠF IS
ĠL LM
ys ical
Ġdocument ed
gorith m
22 22
ĠEnt ity
Process ing
ĠAmb assad
Ġenthusi ast
G raph
e v
nt il
Ġsu sp
ĠG reat
ĠK now
com s
Ġrequest ing
Ġperson nel
Ġhy per
ĠAct ivate
Start ing
Ġgrant ing
Ġdro pped
ĠSm ith
ĠES G
Ġemerg ency
d river
l ining
x l
it ation
Ġaws amplify
Ġcollect or
ĠNew s
dat etime
Ġhol istic
ĠEX TER
Ġunc over
Ġafford able
f ast
Ġc ards
Ġcre ater
ĠU t
LE S
Ġsign on
ĠCont ribut
RO P
ĠFin ance
aut o
AL L
ĠOptim ized
1111 1111
ĠSMB s
H TTP
re f
Ġc ash
pl us
Ġfun ds
ĠPart ition
Ġgroup ed
Ġconsum es
etting s
Ġboot stra
ĠHost ed
Ġep hemeral
Option ally
Setting s
T yp
t ables
et h
im g
Ġg at
ĠR DP
um ed
Ġse ed
th and
Ġuser defined
Ġenc oder
AP P
Ġben chmarks
ĠDef ender
Ġpus hes
Ġcoordin ate
rep lication
6 1
Ġfor th
Ġk ubernetes
Ġtab ular
Ġdr ag
Ġdict ionary
Ġple ased
ĠGolden Gate
Ġexpans ion
R Y
h am
Ġs wit
ag o
Ġde light
ĠD SS
Ġview ed
Ġfound ed
Ġtrigger ing
ĠCre dentials
ĠSub scribe
Ġgre p
Sh are
Ġheter ogeneous
9 1
B OL
F ound
d t
ĠD u
ĠD ES
ĠP atch
ĠJ ul
Ġthem e
Ġoptim izer
ĠZ ero
ĠCl usters
Last ly
Mult i
ogniz ant
B usiness
H D
S ervices
i i
l t
s am
t ol
Ġa ps
Ġf raction
Ġb ra
Ġb alancers
Ġre Start
Ġh idden
ĠL AT
Ġsp ike
Ġtechnolog ical
Ġquick er
ĠCl ar
Ġter abytes
Ġline age
ĠEd Tech
ĠMedia Connect
ĠOper ating
Cons umer
Ġaccompl ished
Ġmut ation
System s
ĠCAP ABILITY
ĠFranc isco
i en
Ġo mn
Ġ1 11
ac on
Ġsp atial
In cre
av y
Ġtrans coding
li x
Ġgener ator
eng ine
ĠSc enario
Ġfore st
Ġcompare s
Rep ository
ĠTeam s
ĠTyp ically
iF i
W orld
Ã ¤
Ġl iv
ĠM edic
Ġpost processing
Ġrout ine
Ġnext generation
Ġconsist ing
Ġsupp liers
Ġpersonal ize
Ġsubmit ting
Ġrecip ient
hem at
Ġexcept ions
Sim ilarly
o ss
Ġa ux
Ġb es
ĠP ackage
Ġim per
ĠB luepr
Ġout ages
Ġselect or
Ġtarget ing
Sp ot
Ġdiscuss ions
Ġref ine
Service Role
UT H
Ġmot ion
Ġhierarch ical
Ġrestaur ants
depend ent
T ake
b c
m es
Ġd iv
ĠC olumn
Ġh on
ĠM iss
ĠR isk
us ive
ĠG O
po ssible
pro xy
Ġlong running
ĠEnt ertainment
eh icle
W hisper
ĠT enant
est ing
ĠU DF
Ġso ft
Ġoff ices
ĠCl one
Red shift
ĠAmeric an
writ ing
ĠDAT A
ĠWed nesday
N C
h ive
j a
p ng
Ġtra vers
à¸ ¢
Ġph rases
back end
ĠCPU s
col lect
ĠBen chmark
ĠAcadem y
H eres
er os
or iented
al ice
ĠD J
ĠR T
ĠB ob
ĠH ouse
ĠSt age
db c
Ġavoid ing
ĠDef inition
ĠInf osys
Th anks
secon ds
H S
L imit
S AP
ĠT riton
ĠR eli
ĠCon vers
rateg y
Ġtrack ed
Ġcollabor ating
par se
Ġcorrespon ds
ĠAcceler ate
ĠHel p
stra int
Ġmillisec ond
ĠFeder ated
PL ACE
feature s
Ġincred ibly
Ġdesk tops
L ocal
Ġ ê
ĠC MS
as soci
ĠT ypes
ot t
Ġsp ans
Ġprodu cing
Ġ12 00
16 9
Ġexpect s
Ġassum ing
Or igin
Ġdisru ptions
ĠMemory DB
ĠLast ly
ĠEqu ipment
ĠMaxim um
Ġw el
Ġre put
ĠS chool
Ġh ous
Ġcom ma
ĠW ill
Ġqu bits
ĠMan ufact
Ġenterpr is
nost ics
Bot h
Ġhum ans
ĠCL USTER
ĠLinked In
Ġgat hered
W E
en ed
Ġst ruct
Ġg olden
ĠP ing
ĠG UI
Ġim agine
Ġcl i
Ġun like
Ġno vel
Ġbas ics
Ġchain s
Or der
ĠSP AR
Ġunpredict able
C U
p ol
w hel
ma ch
ĠD rop
ĠR I
Ġapp end
Ġres ervation
ĠN Y
Ġsp ectrum
Ġtw op
Ġvis ually
pr ises
LE D
ĠSim ilar
Ġ9 6
Ġtem p
At hena
ĠPh il
Ġeconom y
ĠEm bed
ĠDE FAULT
Ġbottlenec k
w eek
Ġa id
re ach
Ġp aram
al a
Ġy elb
de bug
our ced
Ġkey word
ĠCom b
Ġgraph ical
Ch annel
Ġshif ting
M ax
d ns
p ly
Ġex ch
ĠM ichael
ĠF n
ĠN A
Ġte aching
Ġout lines
Ġselect s
Ġknow ing
itle ments
Ġconsolid ate
health y
ĠNVM e
ĠP ush
Ġag ricult
Ġext ending
à¸ µ
Sec Ops
ĠLe ave
Ġfirewall s
cp u
Ġmiddle ware
Ġtoler ance
P rom
S L
ĠS il
ĠS YS
ĠP L
ĠV pc
Ġmost ly
Ġtim est
ĠZ endesk
Ad ditional
ĠCol or
Ret urn
Exp ression
Ġhorizon tal
Ġexpos ure
Ġdepict ed
S m
in et
lo op
im ag
Ġpro port
ĠM onday
Ġpre ference
ĠCon currency
Ġvi able
Ġstud ios
ĠSh aring
Ġpop up
Set up
Time out
input s
Ġsecrets manager
Ġbud gets
Ġbeli e
ĠArt ificial
L at
V I
Ġs al
ur acy
Ġg am
ĠM ir
ĠL ight
ĠL ong
ĠV ol
Ġmet al
Ġsell ers
Ġcook ing
Ġfinet uning
augh t
Ġwon der
D ashboard
E st
S G
w ait
Ġw ed
ro c
ĠT ogether
Ġh oc
Ġmo ck
Ġsc oring
Ġsp ort
Ġover whel
Ġrespon ds
omet imes
Ġhome ec
Ġcook ie
gt hen
Ġdoz ens
Ens ure
G PU
U RE
Ġp en
ro pdown
ĠC are
Ġj ud
Ġthey ve
Ġrest ric
Ġmat ters
ĠIdent ify
Ġperson as
Ġexperi encing
ĠROS A
Ġmix ed
N one
O racle
c n
d rop
ĠC it
Ġl ens
her n
ĠEx cell
RE AM
à¸ ļ
Ġsimilar ity
Ġkub esystem
ĠLat ency
ĠLAT AM
N AM
T ypes
r oring
Ġenc ode
ĠWork s
Ġcentral ize
Ġtri ed
Ġevol ved
Ġworkst ations
Whisper er
i QL
l if
p ress
Ġw ww
ce an
Ġg ithub
Ġback wards
Ġvari ations
Ġexecut able
Ġdec entralized
IN E
Ġart ists
config ure
Ġclean ing
Ġinsp ired
Dat aset
Ġleader board
orre tto
Ġgenom ic
A urora
S AML
re le
Ġc a
ou l
ce ut
ĠT orch
ens us
og ram
RE NT
Ġevalu ates
ĠCompet encies
ĠFeature s
ĠProvision ing
ĠDebug ger
Ġclos est
M icro
P attern
Q UE
s d
s crib
Ġo il
ĠI R
Ġst ar
Ġv ot
ĠIn clude
ĠJ AR
ĠCh ris
ceut ical
G rant
V ir
Ġp andas
Ġd an
lo ss
Ġst ead
ĠD ue
Ġex poses
Ġproduct ive
Ġoptim izes
AP N
Ġtim et
omet ry
Ġturn s
25 5
Ġparticip ant
Ġthough ts
names pace
Ġcomfort able
ĠChe f
Ġsom ew
r an
ĠC NI
ĠM ah
ĠG RANT
plo t
Ġpl ant
ĠPro viders
Ġcol l
Ġinv oice
Ġcheck box
cent ral
Ġrespons ive
ĠCre ation
ĠDo D
ĠSupp ly
ĠSynthe tics
Ġbenefic ial
d im
Ġf ost
Ġin herent
Ġb are
ĠS ha
ĠW A
Ġbusiness critical
ĠAut odes
DE L
Im pro
ilit ary
ĠDeli ver
Ġresol vers
ĠPract ition
Ġcs v
D eli
Ġg ig
ri a
place ment
Ġrece iver
Pro perty
erial izer
Ġassign ment
Ġcp u
Ġwa its
n els
or ship
ion es
ar se
ĠM D
Ġtrans itions
Ġdis ks
ĠUS A
ĠComp any
Ġday today
Ġactiv ated
ĠSum o
Per formance
Ġfix es
Output s
UST OM
ĠOps Works
typ eml
M s
R oot
in v
Ġst ress
ĠD ynatrace
ĠP RE
Ġcre ators
Ġtransform er
Se ptember
Ġbreak down
Ġcomprom ised
Ġspan ning
ĠBud gets
Ġnorm ally
en a
Ġw get
st d
Ġm ar
ĠE ST
ĠM echan
ĠR ight
log ging
à¸ ¡
ĠSc ore
Ġposs ibility
Ġindic ators
Ġpol ling
ĠChall enges
Avail able
n ginx
vi e
ĠData Frame
ĠCh oosing
AC L
Ġpresent ations
ĠAutom ate
State ment
Be low
ĠFeder ation
ĠPe ople
M I
Ġn ine
ce ive
Ġrec urs
Ġread ily
Ġprotect s
Ġmeas uring
ĠAss umeRole
ĠOptim izer
ris is
ĠIniti ative
Ġsusp icious
Y PE
g b
g ent
Ġd ans
ur is
rom e
Ġcomput ed
row d
Com poser
ĠAC K
ĠWorkSp ace
Ġiter ative
Ġsell er
Ġsummar ize
Ġconsult ant
Ġbluepr ints
Ġvertical s
ĠAssist ant
ĠRB AC
Ġomn ichannel
M ain
P ER
it Ã©
Ġr oughly
Ġsu d
Ġim g
yn ame
arg u
Ġvirtual ization
Ġcategor ical
eper formance
Ġdram atically
D irectory
R F
r ust
ĠT uesday
ĠM er
eg u
Ġcall ers
Ġlat itude
att ice
Ġgra d
eto Site
Ġmask ing
Ġax is
Ġuncertain ty
l ambd
ĠS eries
ĠC C
ĠO f
Ġar m
load ed
Ġdifferent iate
ful l
Ġrespon ding
Ġam b
Ġdi vided
af e
Ġinc ent
Ġansw ering
Ġbin aries
Ġsequ encing
aby te
ĠLead ership
ĠWorld wide
ĠRO I
Ġcompr ised
LIC Y
Ġoppos ed
ĠEnv oy
B E
B ook
t oc
Ġp ause
ĠC lear
ag raph
ĠI IS
ul ating
Ġcustom izations
cl ip
As ync
ha ust
Ġinvol ving
Ġarch ival
Per mission
ĠCol le
Ġfoot ball
à¸²à¸ £
That s
c b
al og
ĠS essions
am ount
Ġl aw
ot ional
ĠM AP
Ġover lay
ĠAn omaly
Ġperson ally
Ġtight ly
Acc ording
Ġdefect s
D ay
T F
i ety
r ity
Ġw allet
ut ils
Ġcon ditional
Ġpro met
Ġex pense
Ġr ansomware
ĠL I
id ad
log ger
ĠGit Ops
Ġupgra ded
Ġsequ ences
Ġbook ing
Ġfri endly
ĠOption ally
ĠNames pace
Õ¡ Õ
ĠExcell ence
S N
c ut
Ġo vers
out s
Ġres p
per iment
Ġ1 40
ĠSt ock
Ġcloud watch
work flow
Ġstatus Code
Ġpar ser
Config uring
Ġtimes eries
Ġgain s
ABLE D
Per form
ĠFeder al
Ġrein vent
s y
ct u
ist ructured
ĠH am
Ġsub domain
Ġprevent ion
Ġmer ch
Ġnumer ical
Ġcompil ation
Ġda emon
E valu
T ables
r andom
Ġt ries
Ġc lock
st yle
ĠD river
ĠP ARTITION
Ġim possible
ip ro
ĠCode Catalyst
Data Source
ĠPl us
ĠAp i
Ġcur ric
Ġge of
Ġside car
Ġcontroll ing
vide o
Ġtradeoff s
ĠMG N
O s
Ġacc um
Ġexp ire
ĠConnect ing
Ġright click
ĠLe ague
run time
Ġgre w
ĠAdmin istration
Ġsect ors
Part ition
Ġengage ments
Ġempower ing
ĠTwin Maker
f rames
s l
Ġt urb
Ġs ke
or ov
if orm
pre s
Ġwhere ver
Ġenable ment
Ġlong itude
ĠDeep Composer
Ġbrows ers
object s
ĠSD WAN
oper ator
ĠImplement ing
Ġstren gthen
Hel lo
Ġsud den
V AL
Ġw ast
ĠS k
ĠS ol
ĠE ss
Ġr b
ĠL arge
Ġred is
Ġspecial izing
Ġarch ives
Rep lication
Ġinsert s
Ġspread she
Ġinject ion
Ġprem ium
ĠSit etoSite
P OS
f ind
f ord
Ġre write
ot as
ĠL OC
Ġra cing
Ġexperiment al
cloud front
Ġmal ware
abc def
Ġt apes
ĠR aj
ĠR MAN
Ġsh uffle
are st
Ġfil ename
bo ost
Ġfin ishes
Ġdist ingu
Ġindex ed
ĠProgram s
Or g
Mod ify
Ġwid gets
A E
A ws
G re
Ġc ast
Ġcon ferences
ĠD IS
ir th
Ġper mit
Ġmat urity
ĠSu ite
Ġdescrib ing
C ache
G lobal
R ate
m ask
le arn
ĠP ill
ĠH our
ĠWe ek
Ġinstall er
rid ay
Ġfail ing
ĠCl aim
Ġcontribut ors
Ke ys
Am plify
Ġguarant ee
ĠAssess ment
gem ini
J ECT
Ġ era
it ative
Ġre named
ag in
Ġr ise
el ess
ill ed
Ġac quired
Ġshow c
Ġcomplex ities
ĠAS E
Ġpric eperformance
Ġgain ing
Ġchain code
Ġcook ies
Ġepoch s
F actory
I Q
m enu
Ã ¶
ĠG E
ĠV alues
ĠTrans action
Com put
CO DE
ĠPer form
Ġsol ved
sub net
Ġgather ing
avail ability
istribut ed
B ox
s end
Ġt ablename
Ġc ipher
ĠA ud
ĠA CT
ĠT ape
un c
ĠR SA
Ġper imeter
You re
ci pl
ĠCO L
ĠSub scription
Ġtransl ates
ĠReview er
Ġdatad ropdown
Clean up
clud es
Dep ending
Ġnar row
ĠPractition er
I nd
at en
Ġp sql
Ġd edup
Ġn ice
ĠC U
ĠL attice
pro vided
Ġtw in
Ġ6 5
Ġinvest ors
Ġequ ally
Ġsupp lied
ĠCan ad
fol ios
Ġair line
F ire
M atch
c ope
n ote
or acle
Ġin cons
ur ally
ad os
ĠH ard
Ġar bit
Ġrec reate
ĠSu per
ĠMedia Store
Ġequ ity
Ġtermin ology
ĠIns ight
att ribute
Ġblue green
à¹Ģ à¸
V A
e qu
g w
v ance
or igin
ĠC our
Ġcon form
ĠN ICE
ber t
To ols
ĠCh anges
Ġ7 2
ĠCO BOL
Log ging
Ġsur vi
Ġmob ility
ĠAg ain
Ġgra ce
Ġincred ible
Ġentreprene urs
ĠCorpor ation
B en
O K
P ython
R ob
ĠS ERVICE
se q
ĠF rench
ĠH orizon
Ġwill ing
ĠK arpenter
ib er
Ġdes ire
Pro ps
ĠTh ursday
ĠStart ups
Ġred act
client s
Ġpull s
provision ing
Ġexclus ive
Valid ate
Quick Sight
Ġparad igm
p k
p urpose
r ary
y g
er ner
at hena
it ter
Ġd ump
ĠD ive
ĠP OS
ĠR ow
art ner
all s
Ġrec urring
ST ANCE
ex e
Ġannoun cing
90 9
DE X
Ġinstru ction
ĠCap ital
Tim estamp
Ġvocab ulary
1 20
B O
F ore
J eff
b ur
ĠS ys
if ts
ĠM ike
ĠSp eed
Ġindustry leading
account id
Ġphys ically
ĠST G
Sc ore
ãĥ ¼
ĠLook ing
Ġrev olution
Ġenrich ment
Ġfair ly
Ġscop ed
Ġt ied
en es
Ġex cess
ĠM al
ĠF e
Ġch unk
li hood
Ġback ward
af k
Ġra ised
ĠDev SecOps
ĠProt ect
ĠBY OL
Ġrecip ients
Ġfrag ment
ĠEXTER NAL
v olution
ĠS em
Ġn s
ĠC P
ag on
ol der
ĠT YPE
ers ive
el es
Ġch unks
ĠH all
ob e
Ġback off
Ġ8 5
Ġinteract s
Re fer
Run time
Ġupt ime
Ġdescript ions
ĠSoc ial
r ical
at ches
ut es
Ġret raining
Ġconst ruction
ax i
Ġsy mb
Ġpersist ed
Ġair port
Ġsynchron ized
Init ial
Ġmil est
4 00
F ig
a e
f old
v acuum
ĠC CP
ĠT ex
ĠD I
ir cle
Ġres ident
ĠSt eve
rol es
Ġclass ified
Sp here
ĠARN s
Pre pare
Ġrepl atform
Ġess entially
analy tics
Ph one
f lix
it ivity
st ood
de c
ĠM aking
Ġav g
ĠAl arms
ĠRes pons
Ġsign s
step s
Ġcompos ite
Ġrig or
ĠLoRa WAN
W hether
e ech
Ġp ione
al pha
Ġcon sequ
ot ion
Ġex haust
ĠN um
Ġcomp iler
Ġdirect ed
Pro xy
pare nt
Ġsort ed
author ization
Rem ove
ĠShare Point
ĠImpro ve
Cert ificate
execute api
Ġprote in
M a
V R
r out
ĉ ĉ
it led
Ġv aries
Ġqu bit
ĠK y
Ġlat ter
led ger
Us age
Ġver t
user content
Ġdemand ing
Ġindic ated
function al
Ġss l
Ġcoh ort
G ROUP
Ġh ooks
Ġas ks
low orld
ĠL eg
ĠN ort
ru it
ob uf
ext ract
Ġadv is
Ġet h
Ġbr anches
ĠOper ation
ãģ ®
Ġroom s
init ial
ĠTur k
ĠDL Q
ĠSL As
urch ase
Ġpromet heus
d i
d r
k inesis
y ard
ĠI IoT
Ġst ation
Ġcom plain
Ġv en
od al
Ġcomp elling
Ġ4 6
Ġown s
ĠSc ope
Ġknow s
Ġlif etime
ĠAS G
ĠNot ice
ĠSupport ed
xxxxxxxx xxxxxxxx
Pl an
Ġsynchron ize
wh ich
Vis ual
Eng ine
roc ery
F eder
G RESS
b d
c m
in al
at ter
ra ys
Ġse es
In v
Ġ4 7
ĠAr c
ĠEx cel
Ġhttps console
Ġinsert ion
ĠBra z
olog ies
Ġfreed om
H ave
L ayer
T eam
b eat
v als
Ġre q
ĠP age
ĠP andas
ĠR U
ĠR ay
ĠO UT
ffic iency
ER S
30 1
Ġexplo res
ĠCre ated
Ġconfirm ed
Ġadapt ive
Ġsem istructured
Ġrecording s
Ġphot o
Ġemb ra
dynam ic
Ġenfor ced
Ġorganis ations
Ġoutdo ors
at rix
Ġth or
ĠC FO
ĠAWS Lambda
ĠM T
Ġte ach
ĠU pon
ĠConnect ions
Ġwould nt
Ġclass ic
work s
ĠSS E
ĠLog in
ĠComp anies
ĠWh ich
Ġarnawsiam aws
Ġbit rate
Ġwin ning
Ġenric hed
ĠAutodes k
C an
T LS
r ink
u is
ion ed
Ġw er
ĠS i
ĠM AC
ĠG PS
You ll
iv as
ĠRe quired
ĠCode Whisperer
Ġcache s
Ġaccomp any
n Ã©es
Ġ 000000
ĠS on
ĠS un
im ble
Ġon site
ĠF act
Ġtra ins
Ġtrans mission
Ġ20 48
Pro d
Admin istr
CON FIG
orov od
b eta
Ġc risis
Ġm v
Ġm en
Ġst y
ĠP AR
ĠG ive
ĠG SI
ĠO ften
plo cal
Ġ5 6
Ġexp enses
ĠEx isting
à¸ Ĺ
Ġpar agraph
ĠUn real
Ġingest s
14 5
Ġexam s
Ġdecou pled
prom etheus
Ġign ore
support ed
Ġdam age
M aster
h adoop
r oute
Ġw ar
Ġn or
el ated
ĠH Base
Ġpart ial
Ġsche me
ĠWork er
Ġbackend s
github usercontent
ĠHost s
Ġdigit ally
ĠCOR S
1 10
C LI
L inux
W R
h ar
Ġ er
Ġde bt
ĠR ather
id ity
eg a
ĠPart iQL
ĠAut oscaler
ĠUs ed
Ġcollabor ated
App ly
Ġequ ipped
ĠAllow ed
Ġment al
Ġseem s
Ġresid ency
c ur
p an
Ġm ining
ro ad
ĠS N
ĠAWS Serverless
ĠM edi
ĠCon vert
The y
ĠPr ime
requ ency
sec ure
Ġdb ms
Ġsequ ential
Ġretain ed
Ġmac ro
D estination
U t
a vi
n is
z es
ĠC ur
un ch
ĠF ailed
Ġar g
Ġlearning s
Ġdiag nostic
Ġblock ing
17 23
ĠNote books
Ġetc d
Ġsnipp ets
ĠMo ving
Analy tics
G ive
l ands
p ip
t l
Ġto mor
Ġm ilitary
il le
Ġpro x
Ġint ention
Ġle aves
Ġpre serve
Ġshould nt
Ġexp ed
Ġlarge ly
ĠDat asets
Ġregist ering
ĠBuild ers
ĠParameter Key
det ection
Un it
Ġrecip es
ĠOrganization al
Ġms g
Parameter Value
ĠFort une
fun ctions
ĠTex as
P op
a ired
m atch
m os
Ġm erged
Ġyou ng
Ġg lass
cc er
ĠCon version
ĠQ U
met hod
Ġcorre late
ĠAtt ributes
Ġprivile ged
Ġcirc um
Ġagree ments
ĠSPAR QL
H aving
L anguage
S te
Ġf ict
ĠA ES
ĠS elf
am pl
ĠI C
ĠP C
ĠP erson
Ġadd ons
Ġob vious
sc al
Ġdemonst rating
head er
ĠAuto ML
iC orp
ĠENI s
Ġarriv es
Ġbid irectional
Ġassert ion
Ġpul led
ĠTH EN
Ġrer un
S DK
e valu
Ġs ale
ct x
ve c
ĠT IMESTAMP
Ġtra ditionally
ĠK nowledge
ĠK umar
Ġkey words
à¸ Ķ
Ġvisual izing
Ġrele asing
Ġplay ed
Ġmiss ions
Ġcross region
group name
ĠPar is
Ġpersist ence
ĠBro ker
Ġcal endar
Ġrecon c
Ġsubstant ial
Ġreput ation
ĠMechan ical
C ross
F l
G luon
Ġc ogn
Ġs qs
ou g
Ġf ed
Ġp ron
ĠS MP
se y
Ġfor k
ĠG A
ep ro
end a
Ġcluster ing
now led
Ġco ff
ĠFin ding
Reg istry
Ġocc as
ĠBuil t
run ner
Ġsol ves
Ġunivers ities
Ġteacher s
B P
d ro
n c
Ġt act
ed s
ag greg
ĠT ri
ĠT CS
Ġl iving
ĠP I
Ġal b
Ġsu s
id o
Ġch mod
cl aves
Ġoper ated
Ġ20 13
Ġpub lication
Create Log
Ad ding
Ġcommunic ating
ĠFin ish
Ġattach ing
Ġemb race
Ġbelong s
ĠFI FO
Ġdiagno sis
Ġstrug g
ĠPers istent
Ġtimest amps
Ġcurric ulum
F X
p at
Ġt cp
is ation
ic ip
Ġre used
ut ation
Ġg g
ĠJ am
Ġinfrastructure s
Ġsign up
Ġver ifies
Ġassum ptions
Ġshort er
ĠNot ifications
utor ial
Ġair lines
Ġrandom ly
Ġaltern atives
Ġconsult ants
ĠHD FS
Ġrenew able
T IME
Y OUR
c overy
u its
as i
Ġfe as
Ġun a
ĠAd am
Ġexp ires
Ġph rase
Ġtransfer ring
Ġfour th
onom y
Not ification
analy sis
Ġdon nÃ©es
ĠInv est
plocal host
. _
c v
in ding
ĠA ge
ir y
ĠO wner
Ġun healthy
ĠCom ponents
ĠAr go
ĠQu est
tra il
Cre ated
imens ions
format ics
Ġwarehous ing
Ġdiscount s
ĠTrack ing
Ġmultip art
Ġstrug gle
b f
c over
c raft
g boost
m ics
ĠA MS
Ġin ner
de ep
ost on
erver less
Ġhard er
ĠRef actor
Ġaffect ing
Ġnecess arily
Ġunint ended
l aunch
ĠD en
ĠW rit
Ġso le
Ġk ids
Ġlike lihood
ĠRe lic
Ġmain ly
Ġconst itu
Ġpos it
role policy
ĠMB s
Ġhospital s
C olumn
R U
g lobal
Ġd otnet
ag en
Ġcon vent
ple vel
ĠL everaging
ĠB eyond
Ġsp ends
th read
Ġent itlements
Ġ5 0000
tt ers
ĠQu ant
Ġexecut ors
Ġstandard ize
ĠRE PLACE
Ġroll out
Ġcompre hend
ĠNet flix
Ġworry ing
Ġsilo ed
Gu est
ĠConsider ations
Ġidentifi able
ĠJourn ey
b and
il ed
ĠI st
Ġst ick
ur able
Ġdele t
ĠIm agine
ĠUn like
Ġcatalog s
Cont roller
Ġgen ome
ĠMe an
ĠMe et
Ġdeleg ate
Ġrad ius
Ġmut ual
Ġcitiz en
ĠSl urm
execut or
ĠBraz il
M apping
ĠE conom
ĠO DBC
ĠMan ual
Ġk inesis
und le
Tra ffic
Ġslow er
Ġincorpor ating
ĠPod s
install ed
Ġchatbot s
Col lection
Ġhorizon tally
Integ ration
E ven
G ame
P rior
et able
ĠC orretto
ĠH istory
com plete
AC S
ins ert
roll ers
Ġreplic ates
ĠBe ing
LO W
roubleshoot ing
ĠMSP s
Em bed
or atory
Ġm ys
Ġg one
ĠD O
Ġle x
Ġnot iced
Ġtrans ient
Ġdeep ly
ĠInstance Type
Ġverify ing
Ġprint f
ĠDo ing
aps ed
Ġalign s
ĠStrateg ic
Col lect
ĠRecommend ations
ĠColle ge
m ill
Ġs old
st s
ĠS O
Ġpro pos
ĠM ount
ĠM IT
id a
Ġ1 10
ss m
sp ot
Ġlogs CreateLog
Ġmat hemat
IT E
Ġaggreg ator
ĠSub nets
att ributes
Ġsimpl est
ĠPh one
Ġreason able
string ify
BU G
Ġminds et
Ġhypot he
h udi
p a
ë ĭ
Ġc ow
ĠC opilot
ver no
ide l
os ition
ink er
Ġsoftware asaservice
ĠCS R
Ġlit er
call er
Ġmultic ast
ĠSchedul er
Ġcoff ee
M G
er ation
Ġs po
ĠA TO
Ġin vent
ig ateway
ĠAmazon S
ĠL os
ill ing
Ġtrans mit
Ġun us
Ġrec ap
Ġdec ryption
à¸ ´
amp ions
Ġorigin s
Rep ort
imens ional
Ġhighlight ing
irc uit
ĠConf luent
Ġmom ents
Ġups kill
Ġexpon ential
t emp
z y
ĠS UC
um my
ĠV ehicle
ĠData Store
Ġact ors
Ġass igning
Ġpack s
Ġproduction ready
Ex ecute
Ġdiagram s
ĠRep eat
ĠPl ayer
Ġgovern ed
Ġnon production
Ġpopular ity
gu ard
ĠSign ature
Ġfinet uned
cert ificate
review s
Ġcutting edge
Ġ12345678 90
mach ine
B I
B asic
K ubernetes
a udit
c u
s ible
ro t
lic a
ĠF arm
Ġent ers
ere ad
ĠRed u
Ġrep et
ĠSS MS
Ġser ious
requ ently
Ġdel imit
Ġlet ting
Ġshe l
comp ressed
Ġsmart er
Ġ80 80
prof it
ĠHost ing
Ġrds db
Ġimm ersive
fort unately
ĠDX C
Ġelev ated
Ġappoint ment
h u
h ow
m x
ent ity
ĠS ME
ĠE HR
ĠL aun
ĠG PT
Ġse at
Ġhe aring
cl ave
ĠK ong
ĠCom pose
Ġunder go
Ġcommand line
Ġtim ing
ĠZ eal
Ġshort term
Ġbin log
Ġroll ed
Ġcult ural
chedul er
YY YY
Ġrare ly
l n
ic ago
ĠC rypt
ch ar
Ġg ate
ĠR ad
ay ers
el se
anc er
ĠQ ue
tain ing
Ġresource based
Ġcor p
Ġsend er
IN D
Ġlocal host
ĠPr ice
ism ic
Ġdisplay ing
Per iod
Ġhund red
Ġaffect s
xxxxxxxx xxxx
PRO GRESS
3 60
G A
H OME
Q DN
R PC
g ate
w al
Ġp ure
Ġb and
ĠE ar
qu ence
ĠR yan
ĠB lu
Ġincl usive
ĠArchitect ing
ÂłÂłÂłÂł ÂłÂłÂł
ĠAR M
Ġobserv ation
ĠClass ification
Ġcomprom ise
Ġapt get
b us
r ig
u j
ĠD H
ĠL a
em por
ĠJ ames
Ġun zip
Ġend ed
Ġmult is
Ġob j
Ġ5 5
Ġ4 9
ĠTh om
Ġminim izes
head ers
account s
Ġretail er
ĠAssoci ation
yy yy
Ġexpos ing
Route Table
arnaws iam
loadb alancer
Ġrecurs ive
Ġaccompany ing
Ġm or
ĠF ix
Ġar ise
Ġincl usion
arch ive
AR D
Ġplace holder
Ġinvest ed
Ġhol ding
ĠBI G
IST S
Ġpromot ion
Oper ator
CloudF ront
Ġneighb or
Ap ache
ĠManufact uring
B us
G C
r t
ess aging
Ġv oices
Ġuse cases
ron ics
res olution
tra ck
Ġsur round
ĠAg ile
ĠTime out
Ġfet ches
202 00
UI LD
Ġphot os
ĠNat ural
Ġassemb ly
Ġtwop art
T V
Ġb its
ĠS Y
se vent
ĠAWS IAM
ĠD iff
ĠM iB
Ġint end
pl ugin
ys park
Ar chitecture
Pro gram
TO KEN
ĠVer ified
Ġvulner able
Ġcompar able
ĠEm ploy
ĠRO LE
ĠAre a
Ġenfor cing
artifact s
Ġliv estream
Ġimper ative
Ġposit ives
A re
C ar
t ensor
Ġt ap
ic ing
Ġcon vention
em y
oo ses
ĠCh art
Ġrest oring
AS K
aut henticated
Ġsynt hes
ĠOptim ize
IM AGE
ĠImplement ation
ĠScal able
Lat ency
Ġb alanced
Ġe fs
Ġcon cent
Ġout of
te am
ĠAl liance
Ġimp ress
Ġdescrib est
umber yard
ĠCD P
Ed itor
Ġsell ing
Ġfill ed
ĠJapan ese
Ġcompr ises
Ġtranscript s
Act ive
vir tual
Ġexplan ation
tol er
Ġd iving
ag ec
ag ger
ĠM PI
Ġle an
ĠSt ation
ac celer
ap id
own er
ef s
ĠSS LT
ĠÂłĠÂł Ġ
Ġillust ration
Ġbreak s
Ġadapt ed
Ġproceed ing
ĠGen omics
ĠLat in
ĠHyper ledger
D el
P ack
d l
Ġre nd
im um
Ġlo ops
ĠCom pare
Ġ4 2
Ġrep air
ĠRes Net
Ġcolumn ar
Ġbig int
Ġcommit ments
ĠVisual ize
mod ules
sub scribe
Det ect
A lias
I X
Ã º
an ner
Ġf elt
ĠD ATE
Ġby te
Ġhe nce
ter raform
Ġaccess es
pro perty
Ġ20 11
met al
ĠEd Start
process ed
AD D
Ġencour aged
Ġexceed ed
ĠPlan ning
ĠItem s
à¸ģ à¸²à¸£
ĠBE GIN
ĠS id
Ġh arm
ab et
ĠD ifferent
ĠP HI
ĠR C
ĠF ront
ĠG artner
ĠB oston
ru ption
Ġmak ers
pect ives
Ġinitial ized
Ġenh ances
ĠINT E
ĠREAD Y
t i
al om
ĠS W
Ġch ooses
ĠB io
ĠB ah
ss ql
Ġwork spaces
Ġour selves
ĠYou re
Ġimport s
ĠAd obe
Ġexp ressed
12 2
work er
Ġport folios
ifact or
Ġpresent ing
à¤ °
Work ing
CS I
Ġcompos ition
Ġmag n
Ġincrement ally
Ġc e
es lig
ĠA ugment
Ġd ie
se gment
ĠL E
ĠCon ference
Ġback ing
ĠCom mit
ĠSp aces
Ġoff set
à¸ °
ĠCO UNT
Ġaggreg ations
icon ductor
Ġder eg
Ġbroadcast ers
Ġwin ners
Ġlock ed
Ġadvert ise
Vis it
communic ations
ĠZeal and
H and
H ash
L ength
in cluding
Ġp inpoint
lo om
Ġre nt
am per
Ġst ays
ep och
Ġlo sing
ĠB i
int ech
com pliance
ĠCom ponent
ĠSe ver
for ma
Ġiss uing
pri vile
Ġsatisf ied
Ġfirm ware
istribut ion
T CP
g rowing
i pt
u central
y es
Ġt u
Ġre ar
ĠS qu
ow ay
ĠD rive
ĠE V
ĠV S
ĠV ert
Con gratulations
Ġform al
na ire
ĠAg ency
Ġrow level
ĠEX ISTS
ĠRequest s
Ġsem ant
A lex
T RA
n ight
t re
w a
ic he
ent ials
Ġdata store
em pts
int erval
Ġj av
St rategy
Ġpo se
app ed
ĠCh alk
ĠQu otas
Ġadmin s
ĠUS E
ĠAR C
Sec ure
Key Id
Ġsaf egu
à¹ ģ
Ġannot ated
Ġsay ing
Ġaim ed
Ġencount ered
provision ed
Ġwra pper
Look ing
clip se
P RI
h r
re ed
Ġc ust
ent ry
ĠS TE
ĠPro d
ĠConfig Map
ĠPer mission
fs x
ĠProject s
Det ection
Ġreflect ed
Exp and
ĠEst imator
rb an
Ġdegra d
ĠSSLT LS
G ra
m end
Ġa part
on a
Ġw rap
al i
qu a
Ġro ler
Ġcomp ound
ĠAs k
Ġsearch able
ĠTh ree
ĠDis play
Ġcompet itors
ĠWH EN
ĠOptim izing
Mod ern
Ġweight ed
Ġflu ctu
enet ian
ĠTPC DS
ĠDead line
B Y
D river
T itle
on to
ĠT iB
Ġdat ash
ĠM ill
ĠG luon
enc ryption
ll a
Ġunder stood
app ly
ĠĠĠĠĠĠĠĠĠĠĠĠĠĠĠĠ ĠĠĠ
Re al
Ġsur ve
Ġtun nels
Ġchecks um
UN CTION
ĠDem and
Ġepis odes
D a
w ell
Ġp ing
Ġen semble
Ġlo ose
pl anned
ĠB uy
Ġmult in
ĠDat abricks
Ġpur su
ĠCost s
ĠInf o
ĠTer adata
Ġtre mend
ĠProf iles
ĠTable Name
Ġassist ant
cons umer
umb ai
ĠSw ift
hy perp
Further more
Ġutter ances
G ATE
S ales
Ġre deploy
ĠS R
ĠS agemaker
ĠC X
ĠP rivacy
ĠL uc
ĠN C
Ġmet er
Ġimp lications
Ġrefer encing
comp any
ris k
Ġhot els
Ġneg ot
Comp any
Over view
Ġche aper
Ġtransparent ly
à¥ ĩ
Ġplain text
Ġarbit rary
I ES
g age
w heel
Ġt ailor
Ġd ocs
ĠC ard
ĠC ategory
un te
ĠF il
el astic
ĠH ave
com b
Ġflow ing
ĠTh ird
Ġgreat est
Sec rets
Trans fer
ĠPay ment
Ġelectric ity
mig ration
ĠClar ify
Ġbelie ves
eslig a
G iven
v ault
Ġt ail
Ġth row
Ġn ous
ĠM umbai
ĠH appy
ĠCon text
Ġrun books
up dated
Ġrec re
Ġ4 4
Ġexp ands
Ġorder ed
Ġ202 5
ĠDev ices
Ġcosteffective ly
Ġsplit ting
ĠOrchest rator
idel ity
A ctions
N ER
T X
c lose
h o
m essages
st op
Ġh ire
de code
un ci
ĠD AX
ad at
our cing
ĠR andom
ĠB ox
Ġfol ks
ĠSt ar
velo ps
ĠQu eries
0000 000
Ġpower ing
ĠPost gres
Ġprepare s
Ġcorrespon d
eed back
202 20
ĠAdapt er
Ġdeclar ative
A NT
G O
R s
T ermin
h ooks
s ign
s rc
Ġa de
Ġf hir
se e
ĠT argets
ĠT GW
ĠD ig
ĠP B
qu antum
Ġal le
ĠW iFi
ĠO L
ĠN FT
ĠN EW
ĠH es
Ġpl acing
ĠAd option
Com ple
oun cing
Ã© e
config urations
Ġnormal ized
Ġcrypt ography
Ã¡ s
Ġfault toler
Ã§ Ã£o
ĠEnh anced
1 12
3 00
F E
G en
N on
a o
c opy
d ashboard
ï ¬
Ġg ender
em bed
ant a
ĠH orovod
ĠRe ach
Ġvis its
Ġsens itivity
ĠNot es
Ġshe et
Ġrecogn izes
Ġbuy ers
Ġdecid ing
ĠExt ensions
Ġpredic ts
Ġrein forcement
ĠHash iCorp
Ġshif ts
Develop ers
1 123456789012
d ump
j p
t ypes
ĠM ob
ĠF ounder
Ġ1 80
Ġse greg
arg o
Ġob st
ĠQ n
ifi able
Ġrole based
Ġhttps raw
Ġgr ab
ĠDef ense
Ġpull ing
Ġrepl aces
Ġadjust ing
Ġencrypt ing
Ġreflect s
ĠThrough put
ĠCap gemini
Ġgradu ally
ĠDES C
F iles
c fn
u a
Ġt our
am d
ĠC orp
ch art
ĠF IPS
ĠB ody
Ġdis connect
Ġnum py
ĠML powered
Ġdec ode
à¸ ª
Ġmodern ized
Ġsur pr
Ġcertain ly
Ġsignature s
Ġfr ust
P AR
a ro
d uration
p x
ĠA N
Ġd ivers
Ġre name
ĠS witch
Ġst ron
ĠE clipse
Ġv eter
Ġby pass
ĠB es
act ivity
ĠFor ce
AWS Region
Ġadv ances
Ġevery where
ĠUn ity
ĠUn its
ĠUn ivers
Ġest ate
Ġfac ial
ax is
User Name
Ġlet ter
imens ion
ĠCol lection
ĠAdministr ators
Ent ry
Ġpharma ceutical
Ġwer ent
2 64
D ist
D igital
Ġd ra
ol f
ĠT uning
ĠM apping
ĠV I
ĠU UID
AM I
led igit
Ġco ord
AN GE
ĠĠĠĠĠĠĠĠĠĠĠĠĠĠĠĠ Ġ
Select or
CO M
ĠRec ords
ĠAdv ocate
cont act
Ġdb instance
Ġlicens ed
Read Only
ĠExp and
eks ctl
ĠUpd ates
ĠWOR K
ĠBreak out
Ġtomor row
p ad
p ublish
r ules
w l
it ate
Ġn os
Ġst d
Ġde velops
Ġen ding
Ġbe aut
ĠL umberyard
em pt
Ġsh ots
ex amples
Ġport able
Ġhtt plocalhost
Ġassoci ates
Ġimpact ful
ĠDB A
Ġbatch ing
Ġclo sing
ĠAutom otive
Ġcomprom ising
ĠFluent d
Ġdecou ple
ĠPo ols
Ġwebin ars
Ġclon ing
Ġmedic ine
ĠDJ L
Ġdegrad ation
M X
M ount
P R
i zon
s ue
Ġ ic
at o
Ġc raft
Ġs pl
Ġm ort
ĠC ognizant
de li
Ġpro mis
est er
Ġch ip
back ed
Ġimp licit
Ġdiag nostics
Ġpartners hips
ĠOver all
Ġpayload s
Ident ify
ĠIDE NT
OP T
Ġredirect s
ĠMap Reduce
Tr igger
Ġsym pt
ĠBund esliga
ĠMah ind
ĠPill ar
F ailure
G it
P ay
c olumns
g rant
it able
ĠA UTO
Ġm arks
Ġre gex
Ġfor ced
Ġar row
Ġany time
con cept
ifi ers
time out
ĠÂłĠÂł ĠÂł
Ġexport ing
Ġdiscover ing
Ġinstitut ion
Ġpick ed
B L
l ists
v ity
y k
Ġc md
Ġre wards
ĠS hell
ma ke
ma pping
vi dent
Ġrec onfig
sh ape
Ġ20 10
Ġscale out
Ġformat ting
Ġfail back
Ġ9 8
Ġmethod ologies
Ġavoid s
Ġreli ed
bucket name
Ġpartner ed
LO B
Rep o
ĠREST ful
NE CT
Ġcli input
ĠIst io
S y
n ext
ou ble
ĠF ailure
ĠW are
Ġout liers
ĠSp ain
Ġ10 1
Ġrel ation
Ġam i
Ġpers pectives
Ġadmin ister
Ġnon tech
Ġcr ash
Ent ity
Me eting
Ins ights
Ġappreci ate
D G
m aries
r yst
Ġt edi
ĠW erner
ĠO PA
Ġle f
ru pt
Ġhas nt
Ġso ccer
Ġun iform
Ġthan k
ĠCh icago
to String
Ġdynam ics
ĠAutom ating
ĠĠĠĠĠ ÂłÂł
List Bucket
44 3
ĠObject ive
ĠNU MBER
Ġtimel ines
MQ TT
5 12
w an
Ġs ink
it an
Ġd ives
ĠC red
Ġh ur
ul ates
ĠM ove
ĠM ME
ĠW alk
Ġout s
own ed
Ġ5 2
Ġpar sing
30 2
ĠPostgreSQL Compatible
path s
ĠInd ones
Per cent
Ġdecre ases
Ġinterru pted
Ġprotot yping
ĠNAS A
Ġnoc ode
ĠPRI MARY
Ġlef thand
D ocker
G IS
at ile
Ġs g
ĠT emplates
ur ate
ĠD aily
ri k
ĠF ail
ĠF lux
ĠF riday
ĠH ence
ĠSt ay
iv a
Ġdes pite
cre enshot
Ġinteg ral
comm on
ĠID P
Ġdistribut ing
Ġpur sue
ĠAM D
man agement
Ġspecial ists
Ġhol id
sm all
Ed it
ĠSm all
Rem ote
Oper ation
Process or
Ġattempt ing
ĠSH A
ĠFlex ible
C V
E L
P res
ĠC B
ĠC ort
ĠR o
Ġhe res
ĠSt e
Ġab normal
Ġsystem ctl
ĠPro Serve
Ġtransform ers
Ġfull stack
ĠTra ce
99 9
ĠDis k
ĠDo es
Ġoccur ring
ĠCross plane
ĠER ROR
ubl isher
A udio
D ont
F ailed
p atch
ĠD K
ĠR ich
ĠR UM
Ġpost ed
DB Instance
che mas
gre es
Tra in
ĠAuto Gluon
Ġbroad ly
Ġleg it
Ġgeneral purpose
rec ords
Ġtimeout s
Ġdecl are
NO TE
ĠHSM s
Ġsound s
ĠMonth ly
ĠContribut or
Ġcliinput json
T I
ĠS IG
ag nostic
ol ation
ĠW LM
ĠO pportun
ĠIn form
ĠV R
Ġso cket
Ġmult il
ĠAl location
Ġhand y
Ġscript ing
Ġorigin ating
ele t
ater ial
Ġmanufact urer
Ġund ert
ĠBra ze
Pl us
CON T
Ġopin ion
ĠRetrie ve
Names pace
Ġconcern ed
ategor ies
Ġdescribest acks
Ġroler ole
B ound
Ġd rast
Ġin place
ĠS ig
ch anging
un ity
ĠM AX
Ġhe at
ĠK ing
Ġname ly
rit ten
ager Duty
Ġgu ess
22 4
Ġfore ns
set up
Ġaggreg ating
ĠIns urance
Sub scription
55 55
ĠCol labor
ĠInteg rating
Ġvol unte
Ext ract
Ġrepro duc
ĠReli ability
C ognito
M W
t rip
Ġw all
st ances
ĠI de
Ġpro mise
Ġcom pose
act ivate
Ġaut og
ĠJ on
pre d
crib ed
sp eed
ĠSim ply
Ġpar sed
ES PACE
ĠAD FS
ĠUser name
ĠControl s
ĠWh o
py torch
Un its
EX T
LA RE
Sim ilar
ĠAustral ian
Ġglue Context
Ġorganis ation
Ġwild card
Ġrigor ous
j av
r and
re ets
se par
ol ar
ĠD M
qu icksight
id ers
and id
Ġuse case
Ġ1 30
oc ore
Con struct
ST REAM
Ġform ula
ĠSe oul
ex isting
Ġrecommend er
0000 00000
Ġscre ens
App ro
Ġemploy ers
IS ION
Cre ates
De ep
Ġund ers
script ions
Ġack nowled
Through put
B est
x ample
Ġto plevel
ut f
un it
Ġcan cel
ĠM il
Ġor ange
ĠF i
ĠB egin
ĠSt atic
th ink
ll ing
Ġmy self
à¸ Ħ
AR Y
Ġvisual ized
ĠPost man
ĠComm erce
Ġextens ible
ĠBack ground
ĠInteg rated
Int roducing
ĠMulti Region
det ect
Ġsummar ization
Format Version
Ġmultim odel
3 000
M ar
M app
Ã ±
Ġf ellow
st ates
Ġb rain
ĠS plit
ĠC ases
ut s
Ġde grees
ra d
ĠR am
Ġr s
ĠO k
Ġim ag
ĠV i
ĠWork spaces
Ġstandard ization
ins ic
Ġanalyz er
Ġcare ful
process or
Ġcalcul ates
ĠExper iment
ĠCPG s
comawssamples amazon
Co E
Ġdiagno se
Power Shell
Ġmist akes
ĠRobot ics
ĠAvi atrix
Ġcircum stances
D s
P arams
b uffer
Ġb all
ur or
ad b
ĠM ed
erv isor
Âł ĠĠ
so ftware
Ġtrans cribe
Ġdis asters
ĠSim plify
pd f
ood le
Ġbin ding
Sc roll
Ġtransition ing
Ġrender ed
ĠTim estamp
Ġpress ing
Ġsucceed ed
PT ION
ĠPan el
Ġexclus ively
ĠDele ting
ĠReplic a
re store
Ġd ir
ol a
ec ost
ad i
ĠG rid
ĠN FL
ub net
od ers
Ġarchitect ed
Ġtw oway
20 4
app mesh
Ġlocal ization
ĠIm m
XX X
AB ot
ĠCS Ps
Ġphys ics
Ġorchest rated
Ġtempor arily
ĠExt ra
atest ack
cr t
look up
Ġhack athon
F ORMAT
O RE
a ver
c ap
o j
q tt
he ight
Ġm ed
ĠF F
ĠF QDN
ĠV og
com es
Ġdis crete
Ġread ings
Ġpolicy arn
ci ous
MS A
ann a
Ġposs ibly
gress ive
Ġcontribut or
Ġremain der
ĠReport ing
9999 9999
Ġmir ror
Ġprox ies
Ġtedi ous
F orm
M ichael
T A
Y E
g ence
p ub
en ancy
am iliar
ĠC CoE
ĠE cho
Ġv p
pl ies
Ġpl enty
Ġag enda
Ġread able
ER Y
Ġatt ending
Ġ7 00
pri or
Ġ15 00
Run ner
Ġcar riers
Ġdro ps
Pre viously
ĠExper iments
Ġoverl ap
ĠSI EM
Ġviol ations
Ġwat erm
PRE FIX
J ust
d bo
Ġs ch
ĠA lias
is dom
st ash
Ġb ag
Ġre im
Ġre active
Ġe ager
Ġl en
Ġne arest
ĠL ater
eg ion
og gle
Ġinv oices
Ġ12 3
ĠBy tes
30 4
Ġref actor
havi or
Ġsam pled
hel lo
Ġdig est
Ġsubsequ ently
Ġconflic t
e lect
f ramework
f ields
l ive
m em
z n
Ġp k
le ts
ol ving
Ġst ations
ĠP OC
Ġal ike
ĠF TP
ervic erole
Ġapp mesh
ĠO ffer
ĠH ear
Ġfun c
Ġdef initely
Ġmult ist
ĠQ PU
10 2
ĠTh ing
CO L
Ġcar ried
ĠProm otional
Ġtri ps
Wh y
blog s
Ġclin icians
Ġgot omarket
rows er
Ġconduct ing
ĠBit bucket
Associ ation
Ġstead y
Ġdistingu ish
Ġfaulttoler ant
1 50
P y
P ayload
p ay
s ave
or ge
Ġan alog
ic orn
Ġre build
ĠS at
ĠS AS
Ġy ang
Ġst ated
Ġg RPC
AM B
ob j
Ġlog o
ĠData Source
ĠAn sible
ID aws
ĠCh rome
Ġ6 6
Ġunderstand s
Ġauthentic ates
Ex ecut
Ġtre ated
host name
Ġcraw l
Ag greg
ĠCap abilities
Ġpublisher s
Ġdisrupt ive
Ġsho ppers
ĠSaf ety
ĠCalcul ator
ĠNort hern
Ġade qu
ĠDK IM
E ar
K it
S UB
b ra
t mp
Ġc f
Ġs ed
it ness
Ġp m
ĠA lice
ĠS ports
ĠT S
un i
ĠB ur
Ġse ismic
Ġma sters
ip art
Ġout dated
Ġlear ner
St age
Ġdirect ions
Ġassoci ations
Ġpar ses
Cl aim
Ġel if
Ġmaxim izing
ĠDR S
Ġposition ed
Organ ization
ĠDi agram
Ġrank ing
ĠComple ted
ĠKore a
erto ols
Off set
rr ors
uperv ised
ĠDH CP
G L
M ac
h oc
s ets
ic d
ar an
ĠS UM
ĠC W
ers ions
ma c
ĠR FC
ke ep
Ġch aos
per form
ill a
Ġdo ctors
enc oded
Ġun planned
Ġcap ac
ĠCent re
Ġten nis
TE XT
sec ut
ĠPh ysical
Int ent
ãĤ Ĵ
Ġfall s
Ġmoment um
T op
ec urity
ĠE NT
ĠM or
Ġor cl
so cket
Ġpre installed
vent ure
ass et
enc ode
Ġ4 3
ook ie
ĠRed uce
ĠCh rist
Sp eed
Ġdiscuss ing
ATE D
Step s
ĠNe ural
au lo
Ġsuggest s
Sim ple
Ġpromot ed
ĠCount y
Ġsing ledigit
ĠSnapshot s
S ET
r us
ou st
Ġd db
st est
Ġn ation
ig u
ĠM ath
Ġor acle
em ens
em perature
ĠO F
ĠH ack
Ġ2 0000
ific ates
Ġorgan izing
Ġact or
Ġmulti player
cle us
to ols
ble m
loc ated
Ġspecial ization
ĠMet a
Ġconstra ined
Ġcolle ge
ĠJohn son
USER NAME
ÃŃ a
Ġenroll ment
Market place
D ir
D ays
T ry
X L
ĠS ometimes
Ġth r
Ġex hib
ĠF IN
ĠW in
ĠB al
ĠH ttp
ĠV enetian
Ġtra ils
Ġcomm its
Ġret rain
Ġatt est
Ġtim ed
Ġlow ering
Ġrele vance
lab s
Re ference
ĠGu id
Log ger
ĠSub ject
ãģ «
IF IC
Ġincorpor ated
Ġhom es
Ġrights izing
Ġscop es
upp et
ĠRespons ibility
ĠINTE GER
H y
p ers
r w
on al
re place
our c
all enge
ĠU tilization
ĠSt and
Ġdevelop ments
edi ation
Ġachie ves
ĠFin al
ĠOne Login
Ġz er
ĠĠĠĠĠĠĠĠĠĠĠĠĠĠĠĠĠĠĠĠĠĠĠĠĠĠĠĠĠĠĠĠ ĠĠĠĠĠĠĠĠĠĠĠĠĠĠĠĠĠĠĠĠĠĠĠĠĠĠĠĠĠĠĠĠ
Ġadvance ments
comawssamples aws
ĠTermin al
Ġrepet itive
Ġtremend ous
C ase
S NS
U pon
k an
Ġt el
Ġh ab
ĠD ASH
ĠP ending
ĠP agerDuty
ĠL iv
ĠSt reet
ff ers
sh ake
Ġ20 100
ĠApp liance
ĠY ARN
AR M
sc ope
App Sync
Ġred es
Rec omm
ĠMo dule
ĠFr ance
Autom ated
ĠOT A
Ġdecou pling
Ġmultim odal
Ġreject ed
POS IT
C IDR
S ent
U L
d all
Ġl aws
ul ative
ĠD ML
ĠE ric
ĠP V
ĠM ember
ĠM ED
id x
us r
ang elist
Ġmult ifactor
Ġcol ors
Ġmach in
line ar
ĠWh ite
Ġassess ing
aus es
Ġair ports
hel m
Ġcirc uits
DU CT
Ġsuperv ised
Ġsemant ics
ĠQn ABot
C hat
F ROM
a udio
l b
it a
ec lick
The res
ard o
Ġmet a
Ġlist ings
Ġrep ly
Ġevery day
ĠSim ulation
Ġprivate ly
Ġclick stream
ask et
bers ome
ĠAnd y
Ġsupp lier
Ġvisit ors
Man age
Ġbehavior al
fl ink
Ġanswer ed
Ġresol ving
ordin ate
Template FormatVersion
Ġfarm ers
Ġprofit ability
ĠBluepr ints
ĠCit rix
I Z
c ross
f raud
m m
Ġc v
Ġs r
Ġs on
is er
st ar
st ats
ĠS V
ma ker
ĠIn gest
Ġ4 1
Ġreal istic
ĠAl ong
ĠCh aos
Ar ch
Ġver tex
Ġshort lived
60 1
inst anc
itle arn
Stack Name
ĠRO W
ĠSuccess fully
ĠPo C
Ġpropag ation
ĠGr and
Ġmanip ulate
Ġcle ans
ĠRequire ments
ĠACT IVE
Ġcoord ination
AMB DA
M ark
P air
d estination
m i
Ġa ver
ed ed
st h
il io
ĠM ail
ĠL ess
Ġwork place
act er
ĠK ind
Ġact ing
Ġfil m
ache l
Ġbuilding s
amp ion
16 0
ĠSelect ing
Ġstring ent
Note book
Man agement
add r
ĠAcceler ation
Inter face
Ġbi om
Ġpix el
Ġcum bersome
ĠMart in
D OM
P LA
h istory
Ġe q
ĠI p
ma de
ĠO mics
ĠV olumes
ang el
ert ion
LI NE
10 4
ĠCont inu
KS PACE
IN STANCE
row th
ĠPl ace
Ġself paced
ĠBack end
Ġestabl ishes
Th reshold
List ener
ĠSing h
Dev Ops
tr ust
ĠVari ables
Ġmonet ization
ĠDru va
separ ated
8 00
O wner
T AG
U TE
z ero
Ġf i
Ġb irth
ĠS el
Ġg ates
Ġus able
Ġex tern
Ġen umer
Ġr d
and a
ĠB rit
Ġmodel ed
ĠJ er
12 7
Ġdistribut es
Ġinc urred
ĠEng agement
ĠRead ing
through put
Ġexplain ability
80 80
Ġocc urre
count ry
Ġenhance ment
Ġbar rier
ĠMe eting
Ġdup lic
Ġine fficient
Ġdeprec ated
Administr ator
ĠVog els
V ault
b usiness
t un
ĉ ĠĠĠ
in ality
es ome
Ġw ins
Ġw ireless
ic ian
Ġe arth
ment ioned
ĠB rowse
Ġ3 65
ms g
ĠID C
Ġdomain specific
man ame
Ġ12 5
PO ST
Ġcalcul ating
add ed
Ġsol ar
ĠRel ations
Point s
ĠMain tenance
Analy sis
ĠUl tra
Ġsole ly
Ġ1234567890 12
ĠMahind ra
E lement
o vers
p et
u ro
Ã ª
ion ally
de velop
Ġst uff
ĠP ER
Ġas ym
ĠR oad
el ink
pl aces
Ġle ct
ant age
ĠV DI
ip es
ci Ã³n
Ġlearn s
work space
ĠZ IP
Ġrepository name
Ġauthor ing
ĠTh reat
Ġocc up
EM R
ĠRef resh
Ġorchest rates
Ġinteractive ly
comp ass
Ġfit ness
Ġretain ing
ĠSuccess ful
Ġpict ures
ĠIntern al
Ġdecom mission
Ġclar ity
A cl
F un
R ules
T ensor
f loat
h sm
i verse
k ind
k afka
v y
Ġs lice
Ġo k
ĠB etter
ĠSt able
iv ation
ĠML based
ĠEn claves
Ġmay be
work spaces
IN FO
AC LE
ĠFS I
1234 56
ĠReview s
cher s
ĠOS DU
Ġstay ing
Pl atform
su ccess
Ġdecre asing
Ġdou b
Ġparent s
ĠImpro ving
fil ename
Ġsa fer
Deli very
Ġ20100 909
u pport
Ġc ad
ĠS OURCE
Ġfor ces
Ġdat ab
ot ed
ĠM A
ĠM ER
ĠR ab
Ġv et
Ġres ervations
Ġ2 70
In formation
ĠJ PEG
Ġsub missions
Ġthem es
Ġinv ited
IC S
Ġcommunic ates
Ġel b
Man aging
Ġpartner ing
Ġside bar
Ġestim ation
Ġawss dk
ĠUpd ating
Ġanonym ous
ĠAng eles
D irect
F ace
F leet
S erv
i ation
Ġf a
em ons
Ġ1 15
Ġle ague
ĠSim ulator
Ġencry pts
Com pliance
erm ine
DE D
Ġindic ator
Inst ead
ĠObject s
Ġdig its
Ġflo od
Ġfundament als
Optim ized
NU MBER
ĠCommunic ations
Ġinher it
ĠAmbassad or
Ġunus ual
Ġlegit imate
POSIT ORY
A v
I R
O U
b alanced
Ġs vc
lo od
Ġn arr
ĠT F
ĠP ri
Ġdata center
ĠF UNCTION
In force
ĠK ernel
Ġpolic yname
Ġvari ation
ĠAl pha
RE PO
ex ec
Ġcontainer based
ĠIdent ifier
Ġwalk ing
Ġplay book
Ġevalu ations
Ġconc aten
Ġemploy ed
Event Bridge
Ġresol ves
Ġqual ify
Ġcheckpoint s
Ġoverl apping
ĠVend or
Ġfluent bit
ĠTor onto
Ġarnawsiamaws policy
Ġdrast ically
L oop
R oles
m atic
n odes
Ġs ized
Ġp rone
Ġp apers
Ġd ensity
ess or
Ġpro hib
ĠF CI
ĠF AI
ĠG TM
ap is
ok ing
Ġcustomer managed
Ġlow code
Log ic
Instance Type
Ġorchest rator
Ġshift ed
Ass et
Ġdedup lication
ĠSMP TE
t d
t ent
Ġm x
et os
ĠT el
Ġcon secut
ma kers
ĠP A
ĠP aul
ĠR EC
id get
ĠB UCKET
od ays
Ġ5 7
Ġdifferent iated
Ġdesign ations
ĠCh alice
back s
Ġi S
ĠAg ree
Ġz OS
EN ER
model s
ĠStandard IA
Ġtier ing
ĠEX EC
Ret rieve
HE L
Ġcolle ague
mo dule
Ġtwe ets
Ġpoll s
Ġentreprene ur
ĠMedi um
c lo
f ox
i q
p u
s essions
he avy
Ġf ing
ĠT ab
Ġl ambd
ĠD ays
ĠD ROP
ĠM ex
Ġv enture
com prehend
Ġout going
Ġconf irms
pri ate
ĠThey re
Ġinstruct or
ern els
ĠRefer ences
SH A
ĠHero es
ĠBank ing
AAAAAAAA AAAAAAAA
Ge o
Ġfeas ible
P ASSWORD
h ind
l ake
s leep
t icket
Ġt m
Ġt itles
Ġd ot
Ġre Inforce
ĠC NN
vi es
ĠP op
ĠH ol
ĠH ong
Ġinter section
Ġuser friendly
Ġun authenticated
ener ated
Ġwell known
12 5
ins ights
ĠStart s
ĠĠĠĠĠĠĠĠĠĠĠĠĠĠĠĠ ĠĠĠĠ
Ġsimilar ly
So ftware
Ġfacilit ating
Ġsummar ized
fd w
organ ization
Ġgeograph ical
datas ource
Ġaccident al
Ġmarg in
ĠLOC ATION
m gmt
s ync
v an
in der
Ġc ro
ĠA x
ĠM Y
ĠR LS
ĠF ig
Ġcre ator
Ġres erve
oo per
cl ing
ard ed
yp air
Ġmult id
10 5
Ġrel ay
ĠSimple DB
ĠSh ould
ĠCO MPLETE
Ġhead less
reg ister
Sub mit
connect or
Ġcategor ize
Ġmass ively
Load Balancer
NE W
B inding
E l
E VENT
b id
k o
s igned
Ġre host
ĠS G
ĠC USTOM
Ġcan aries
ĠL oc
Ġdis cipl
ĠPro ducer
pre mises
Ġaws glue
ĠOpen J
Ġplay list
Ġarnaws lambda
Ġkub econfig
ĠDis able
ĠPh ase
mar ks
ĠInstall ation
Ġinsp ire
ĠCIDR s
Ġmagn itude
B re
D M
i om
p in
Ġ Õ
Ġd ummy
Ġb ind
Ġb last
ĠC ampaign
Ġcon da
de gree
ver ter
ĠP eter
qu art
em o
ep ository
ĠO LT
ĠB el
ĠMan agers
Ġopt in
10 24
ĠOpen ID
loc ate
Ġconf usion
Ġear ning
Ġque uing
ĠEngine ers
AG EMA
Qu estion
ĠAtt ende
sequ ently
Ġreason ing
ĠPort ug
col lection
ĠVari able
Ġinstrument ation
Ġperman ent
ĠAugment ed
elink ed
C AP
j an
n ey
Ġt s
Ġc as
Ġc rop
Ġp ad
Ġm ere
Ġm Ã¡s
ol ved
ĠP urpose
Ġcustom izing
og en
Ġfunction name
ex cept
ex periment
Ġconsider able
Ġvir us
Ġpar quet
Ġregist ers
30 3
Ġplay out
SS L
Request s
UT ION
Ġsort ing
ĠPort folio
onom ous
IF T
ĠFound ations
ĠCentral ized
state ment
Ġshut down
rip e
Ġdise ases
arb age
Ġpix els
Ġstron ger
S ever
S ERVER
W ITH
s amples
on nect
he w
is ors
ic i
ar chitecture
et ic
ĠS IP
ĠC As
as code
ĠT inker
ĠAWS managed
ĠE r
qu ant
ĠM ask
ist ically
Ġad hoc
ĠIn bound
int ent
li de
DB MS
eng ers
fore cast
ĠInst ruct
Ġ8 4
000 1
Ġjourn al
ĠVir t
Ġcur ious
Ġremo val
test ing
Ġcar rier
Ġge ometry
ĠCan ary
ĠAss urance
Ġadjust ments
Ġaccept ing
Job Name
What s
boot strap
Ġtax onomy
ĠTop ics
Ġgeograph ically
Ġrefres hed
Ġagricult ure
AGEMA KER
C DK
p ages
Ġs es
et he
ce iver
ma le
ow ertools
ra de
ĠD ocuments
ĠM AT
ĠM VP
ri ke
Ġr amp
per missions
ub a
Ġfollow up
ĠIn gestion
Ġun load
Ġtool chain
ĠEx am
ĠCh oice
Ġph ones
Ġeven ly
Ġbase lines
go v
Ġgre engrass
ĠFl ash
Ġpopul ations
Ġsn ap
ĠVisual Editor
Lear ning
Ġempower ed
Ġinstant iate
files ystem
Ġsubt itles
amz n
Ġgeof ence
Ġalle vi
ĠOLT P
I ss
P lace
Ġp itch
Ġb orn
ch ild
ĠT alks
ĠP ub
ĠM ary
Ġcom o
Ġen compass
ĠL F
em an
ĠB arr
ĠN L
ac r
Ġuser Id
Ġany more
Ġdesign er
Ġ7 8
ĠOut bound
Ġsent ences
Tra ce
ĠAct ivity
Ġassum ption
Aut hentication
vid ia
Ġregul ators
Ġassign s
col or
Ġemit ted
ĠLambd as
r m
it ure
Ġm es
Ġn ond
Ġde als
Ġg MSA
id i
ĠW ik
Ġsh ipped
Ġcl ips
Ġsp am
St andard
ick r
ĠAC E
ĠGener ation
Ġdifficult y
Ġdecre ased
Ġbad ge
Ġauth ored
END ING
Ġenfor ces
Ġmir roring
Head ers
ĠBo ard
Ġchem ical
ĠFi ori
a fter
c ognito
Ġ ri
Ġs an
im dall
ec atalog
ĠM MS
ĠR ot
ĠR out
pl ified
ĠO Data
Ġro s
Ġ5 8
aun ting
Ġtake a
Ġque ued
TE ST
Ġtravel ers
ph p
Ġparticip ation
mp ot
Ġadjust ed
Ġmark ers
Ġnormal ize
Ġtick eting
ĠOps Items
Ġmag ic
ĠDa emon
ĠGreat er
eros pace
Ġgig abytes
Ġmor ning
ĠBah rain
unci ation
l ife
s ettings
ë Ĭ
Ġ rid
Ġp as
le g
ĠS AR
ĠS eller
se en
ĠP aulo
ĠL IM
ĠG H
ant h
Ġar rays
ak a
Ġvi b
Ġtraining s
ĠAn alyst
ever age
Ġtransform ative
aut oscaling
Stream Name
ĠCS S
Ġthous and
rel ational
Ġfamiliar ity
Ġwin ner
ĠSn yk
Ġsour cing
Ac celer
rape ut
note book
A pril
B B
D i
D ue
c hen
h av
l an
s ervic
in voke
Ġp ayer
ĠA UTH
ĠT e
ĠL ib
ĠG C
ĠCloud s
ĠU ntil
ĠK PI
Ġtrans mitted
Ġunder util
Ġev al
Ġrout ers
Ġauthentic ating
Ġonpre m
ĠTh ank
ĠCluster Role
ĠAB C
Date Time
Ġusr local
Ġrestric ting
ĠEss entials
Ġconsecut ive
3 84
V O
e fficient
s n
t ons
in cre
on demand
Ġc tx
es ian
Ġw ife
le ft
Ġm nt
Ġb al
ĠS ach
om o
Ġth umb
Ġe f
ĠC lose
im b
ĠD NA
ĠP ITR
Ġal pha
ĠR ails
ĠF aster
ke eper
ĠO P
cl usters
Ġaut oc
ĠAP P
Ġopt ed
Ġdatas ource
20 5
stand ard
ĠSh ort
aw se
bot o
ĠCre ates
Ġsum mer
Ġactive active
ĠStandard s
UP DATE
Ġbackground s
CR IP
Ġanim ation
Prot ocol
ĠBud get
Mig ration
Ġrating s
ĠFAQ s
ĠiS CSI
I ve
L if
M arch
P LO
S CHEMA
e ment
s napshot
Ġd aunting
is y
as ync
Ġg rocery
un der
ĠF ORMAT
ance l
ĠB oolean
ĠFor ward
Ġdis abling
Ġport als
Data Set
Ġel apsed
ĠComp ar
Ġiniti ating
EN CE
UR ITY
ĠFeature d
Ġpromot ions
ĠClass ic
Ġattende e
prom ise
VP N
ĠSl alom
ĠCF M
Ġinfer encing
Ġfan out
Ġhes itate
monitor ing
Ġnontech nical
F ounder
P ricing
p olicies
Ġs lic
le ments
Ġst reet
ec luster
Ġapp e
ĠW elcome
Ġwe ar
ĠO CR
Ġsh ap
com ponent
no x
Ġ6 2
roll ed
ĠDB MS
App lications
rict ed
User name
Att empts
ãģ Ļ
rl ib
So ft
rem io
ĠMar c
Ġforum s
Ġconflic ts
ĠMiss ion
ĠTorch Serve
ĠRU NN
Ġspl its
J OB
P P
P olicies
d ms
h it
n sp
y c
Ġs ong
Ġd ream
Ġd ots
Ġy ellow
Ġal i
Ġwe ak
Ġch ances
per cent
Ġle tters
Ġper mitted
com pose
Ġpost quantum
Ġfunction ing
Ġrem ind
18 0
Ġnat urally
Ġfri end
Ġmot or
Ġproc ure
rem ote
vari ables
ĠSSE KMS
D an
S R
r ish
s ensitive
in ical
at ility
Ġc aught
it lement
Ġm im
ĠD ask
ĠR apid
ĠR HEL
id ing
Ġwh om
ĠN TT
ron ts
Ġdis connected
Ġ20 30
Ġinf requently
Ġcomput ations
Ġdesign ers
Ġpass enger
ug ins
ĠSc ott
ĠUn ified
ĠLog ical
Ġperson a
Ġprof ic
Log Events
Ġassum erole
Ġguid ing
14 4
Ġide mpot
Ġprint ed
Object s
Ġorchest rating
Ġsustain ed
Ass ign
Ġfill ing
Ġaff ili
repre sent
Ġsynchronous ly
ĠSM TP
Auto Scaling
Ġreve al
Ġexpon entially
Upd ated
ĠFF mpeg
ĠMER GE
ĠLIM IT
P e
d m
f its
Ġt amper
re nt
it as
Ġf intech
Ġto g
Ġd omin
Ġre min
Ġn a
ĠT roubleshooting
Ġg ear
ĠR SS
ĠCon tains
ew ay
Ġmet ering
pro of
Ġac qu
Ġover write
Ġcons ent
Ġme lo
Ġthey ll
St ar
20 8
Ġtyp ing
ĠAnaly zing
ĠMicro services
Ġexport er
Ġrepresent ations
Ġbre aches
ser ial
fl ag
ĠKe yn
Ġassign ments
Ġexceed ing
auth ored
Gener ator
hol m
Act ivity
Ġmanip ulation
ĠPattern s
ĠRT MP
ĠVpc Id
ĠDiff usion
M ay
M ill
M essages
P K
S ERVICE
d irect
w t
Ġp it
ĠA UC
Ġre voke
ĠS ort
Ġy aml
ut down
ĠI on
ĠR PS
ple arning
Ġat omic
ip hi
ĠK ube
Ġtime frame
li k
Ġrequire awssdk
Ġun encrypted
Ġvari ed
Ġvari ance
cle an
post s
Ġes c
test ack
PO LICY
ĠFl ask
ĠDep ends
Ġincorpor ates
Ġhighper forming
Jo hn
GS CI
ĠScal a
depend encies
Rest ore
Head er
Ġmonet ize
ĠIDENT ITY
Ġtog gle
M ET
S ide
t ot
ĠA chie
ĠS RT
Ġu b
ch arge
ch anged
Ġh its
Ġon eclick
ra cker
ĠG NN
ĠSt ats
Ġaut ore
Ġfile based
Ġac m
20 3
ĠAut henticator
Ġ10 15
16 4
Ġhttps api
ĠTra ditional
ĠPre paring
ĠDeploy ments
Ġcorrect ive
ãģ Ĺ
VM ware
ĠBucket Name
ĠOps Item
Enc rypt
Ġsit ting
Ġanticip ate
ĠFe el
Da vid
Ġloose ly
L et
M R
e on
p al
t m
at et
Ġf ight
Ġp lots
ĠA qua
Ġm iles
Ġb asket
Ġh ar
de e
Ġst uck
ĠE s
ĠM ars
ĠO pt
ĠN imble
Ġdeploy able
Ġevent based
ote ch
hot o
Ġdele testack
Ġ6 8
Ġrel ate
Ġcontainer ize
ann y
aS ervice
ĠTh ough
ĠSh ift
Tra ck
ĠAS DI
ĠPer iod
Ġz oom
Ġtre es
Read y
az ine
Ġfet ched
Pl ay
Ġevol ves
Ġsatell ites
Ġsubst itut
ĠDAG s
Ġgeo location
ĠReplic as
Current ly
Ġdiv ision
Ġhous ing
I NSERT
l ang
p ush
p rone
t cp
u fficient
Ġt itled
it ep
Ġf ant
st udio
ĠE ther
ĠF oot
el ine
ĠN odes
ac om
ac les
Ġdis cre
riv es
Ġshow cases
Ex plore
omet ric
IS E
raw ler
Sc al
De veloper
Ġtele communications
az z
Ġsuper ior
Ġpropag ate
ĠBl az
Ġca ption
B uffer
L Y
L AB
d g
Ġa vec
Ġp in
Ġp yspark
ĠS yn
ĠP ress
Ġal t
erv ing
ĠF ri
ir ror
ist ency
ĠO W
Ġad j
eg o
In Seconds
ĠJ et
Ġun install
Ġun compressed
Ġob server
ST EM
Ġadv oc
ĠAI powered
Ġlimit ation
ĠRep ly
ĠPl ugin
OR D
met a
Ġunt uk
Instance Profile
Ġconstruct ed
Table Name
ĠVer izon
Read er
ĠÂłĠÂłĠÂłĠÂł Ġ
rec ogn
ĠAB R
ĠWhats App
Ġcof ound
Ġdescript ive
ĠAdapt ive
Ġaps outheast
Vir tual
caller identity
Ġvet ted
F ree
M AC
S F
n i
Ġa pg
re q
en ess
Ġp or
al ities
ĠS al
ĠS ky
ĠC ut
ĠC TR
ĠM ad
ĠW ang
and on
ĠH istor
fer red
ĠV FX
ac l
od ies
In ference
Ġaccount ability
Ġinter mit
Ġevent Name
Ġob lig
ines e
Ġ4 000
10 9
ĠWork ers
user ip
OR CL
30 9
ĠSo ft
Ġten ets
Ġrestore s
Ġsequ entially
Ġinsp iration
trans action
Ġapproxim ate
ĠDE BUG
Ġdup lication
Post greSQL
Import ant
ĠCH AR
ĠOEM s
ĠSi emens
B o
F argate
n b
n p
p attern
ì Ĺ
Ġa uror
Ġs v
ent ures
ĠC hen
Ġpro ved
Ġpro position
ĠD W
ĠF ully
iz z
Ġsu ffer
ir able
and shift
ult y
ĠN ginx
all ife
Ġinter connect
viron ments
ĠSec uring
gre engrass
pd ownt
30 5
erm id
ĠInd ividu
à¹ ĥ
format ted
ĠExp ression
Ġsucceed s
ĠEst ablish
Ġenroll ed
Tr ust
partition ed
Mig rating
fun c
ĠKore an
ĠBroad cast
Ġfost er
toc ons
Ġmathemat ical
A udit
P erson
c ores
m ount
z en
Ã ´
in el
en ode
Ġm p
ĠS creenshot
ĠC ircuit
ot o
ĠP ark
Ġcre atestack
and er
Ġpl ants
ĠJ ones
Ġmult itude
Ġk ernels
Ġget calleridentity
less ly
RE AT
for ces
14 0
Ġcur s
Ġrestrict ive
Ġpick up
ĠOps Center
Ġmut ations
Lab s
Ġhyp ervisor
ĠTermin ate
param top
Ġcreat ivity
Ġdatat ermid
placement paramtop
Ġdatadropdown placementparamtop
pdownt oggle
P ush
q ld
Ġm ile
om ens
Ġn ube
ut ral
ĠP ull
ĠR ET
pt a
ĠF ac
Ġr w
so ph
ĠB rian
Ġbot ocore
ĠAr ray
Ġexp end
Ġtemplate file
ĠEx po
Ġfound ations
ATE ST
ĠCent ers
Ġsimul ating
Al ert
Ġge oc
Lambda Function
ĠFl utter
inf rastructure
ĠProcess or
Ġannot ate
ĠPort ing
Ġrds admin
Ġconsolid ation
ĠEmbed ded
ĠCort ex
F ORM
p ersonal
s ess
Ġ ÂłÂł
Ġst ands
ĠAmazon SageMaker
Ġdata frame
ĠL A
ĠW omen
ĠB as
Ġbu ffers
Ġnot ifies
Ġun ion
Ġback log
With out
Stream ing
Ġred o
Ġsupp lement
Ġaudit ors
ĠDevelop ing
Ġbre ach
dat ab
buil ding
1234 1234
ĠFl or
Met er
Ġnull able
predict ions
kub econfig
semb ly
ĠAppro ach
ĠCyber security
Ġoverwhel ming
empor ary
O G
P od
V s
g a
h old
Ġthe rap
is ode
st ock
Ġb ounce
Ġre allife
ĠS andbox
ate l
im p
ĠE IP
ĠO p
ĠO VER
Ġhe ap
Ġwork around
ft ime
St ay
ĠPro vides
ext ensions
Ġwell defined
Ar ray
ĠPr inci
15 2
ĠJupyter Lab
Ġsem iconductor
Ac cept
Ġearn ed
integ ration
ĠDan iel
Ġsomew here
Ġske w
Ġvert ices
hyperp arameters
Ġextern ally
6 00
M IT
c ards
h om
m art
o Db
t ry
Ġt ls
Ġc iv
al ias
Ġb iking
ĠS ources
ĠS ection
ĠC ell
ra ck
ec ode
ĠM essaging
est ep
Ġad mission
Ġsh rink
ans wer
ĠU ps
ru pted
Ġ3 0000
Ġ5 1
Ġappro vals
Ġaws logs
Ġadv ers
Ġpath ways
Ġdetect ive
oun ced
Ġmarket ers
DE NT
ĠAutom atically
ph ony
ĠIM Db
ĠServ ing
Mo ving
Ġviol ation
ĠLabel ing
ĠPat ient
________ ________
Ġresident s
G rid
c ision
h uman
Ġ Î
Ġd s
st ation
ĠC over
ig her
im a
Ġg em
ĠR oy
Ġsc rape
Ġinst ore
ru ment
ĠJ ack
ĠWe ight
Ġover the
Ġext ent
LI ST
xim ity
Ġsever e
Ġsur ge
Ġdro pdowntoggle
Qu ant
output s
Ġauto vacuum
ĠVer ification
ĠCo Founder
Ġarnaw sec
ĠConf idence
ĠCount ry
Ġaugment ation
ĠFort unately
Capacity Units
ĠPK I
ĠNu Get
Ġcorrel ated
Ġ111 122223333
Ġdatash are
b lue
d atal
s port
t ri
Ġ ou
in formatics
Ġc u
Ġf ake
Ġy arn
ĠC apture
ĠT RA
de pth
Ġint ro
ĠN avig
Ġtra verse
Ġhel loworld
Ġkey board
Ġselect ions
Ġsub mits
con tain
Ġgener ations
nolog y
AT A
Ġcheck list
Ġsche maname
Ġadv isor
sc an
apt er
Ã© ri
Ġcontext s
rans it
ĠIns ert
ĠLaunch ing
1234 5
ĠGener ally
ĠSP A
stra ints
Ġeconom ics
Ġflo ating
Ġbelong ing
ĠTR UE
Ġdevi ations
Ġvacc ine
ĠCraw ler
Ġbootstra pping
ĠStock holm
Ġmilest one
ĠAWSIAM Role
ĠCred its
prior ity
ĠDepends On
S am
a ud
g i
o S
ĠS UP
ĠR DBMS
Ġen orm
Ġv Sphere
ĠO mn
ĠB ound
00 2
Ġj ar
ĠJ S
ĠJ ose
Ġlog ically
pre ad
Ġ0 2
ĠML flow
Ġann ually
IC OM
Ġtab s
En abling
ĠInstance Id
Ġforecast ed
ĠPod cast
Ġmer ging
Ġdelay ed
Ġsimultane ous
ĠBer lin
Ġgrad ient
Ġreplatform ing
C apture
D oc
K A
L icense
P osition
R ON
R aj
b ro
h igh
o ir
v able
Ġp riv
ĠA ri
ĠC os
ĠR amp
ĠL ee
ĠL TS
Ġservic elinked
Ġcode base
Ġmet ers
ĠCh ild
ĠWhen ever
Ġ7 4
Ġra ising
Ad v
Ġerror prone
ĠSo il
ank ing
ĠCons ul
att ach
ĠCo IP
predict ion
Ġarnawss ns
nam et
Change Set
ĠÃ© t
ĠRoom s
secrets manager
market place
Ġspreadshe et
ĠIndones ia
C ap
L ock
T enant
b ag
ì Ĭ
er ate
at i
Ġthe ory
Ġcon n
Ġpro s
qu ick
Ġsh arding
th reshold
Ġget login
bo se
res net
Ġplan et
En h
ĠCre dential
Ġassess ed
Ġconfirm ing
Access Key
ĠPower ed
Ġtier ed
State Machine
chedul ed
Ġpromot ing
Ġexception al
Artifact s
olog ical
Ġwarning s
autom ation
Ġconfidential ity
ĠCU DA
ĠOUT PUT
Ste ve
ĠWare house
PLO Y
P age
S chedule
T IMESTAMP
Ġc urrency
Ġp icks
Ġb oolean
ĠS TO
ĠS erial
ab cd
Ġen clave
per iod
ĠB andwidth
Ġsc atter
ub untu
od ian
ens ing
Ġservices pecific
Ġrec onst
Ġhigh resolution
ĠIt aly
ĠCh inese
Ġed ited
Ġhand lers
AR GATE
Ġ8 8
Ġph ilo
ĠLog z
Ġinstruct ors
ĠLoad Balancer
SS H
Instance Id
bit MQ
au ge
Ġtele vision
Ġvar log
Ġsubscrib ing
ãĤ ĭ
Ġpriorit ized
Call back
Ġemb ark
Ġtimet omarket
ĠCanad ian
Fore cast
volution al
Ġrear chitect
R ow
Ġs el
Ġd t
Ġd ense
Ġin demand
ĠC lo
as aService
ĠT DE
Ġst rive
ĠD ub
ĠR ack
ĠF our
Ġint el
um ers
all ery
ĠV e
Ġind ices
ĠAut onomous
à¸ ·
work ers
ĠAm ong
ibr aries
Ġexplain ing
pc a
Ġfl ash
Sc enario
Cre dential
server less
ĠTw ilio
Buil t
PRO FILE
Inter net
Ġtax i
ĠIM AGE
Ġarriv al
ĠResil iency
Ġ20220 5
ĠNon profit
Ġsqu are
ĠLI KE
ĠVI EW
Ġmort gage
ĠGuid ance
T ARGET
t hen
Ġw ire
Ġth rows
Ġcon crete
ad s
ĠM asters
Ġch ips
ĠH L
ĠH as
Ġpre p
Ġall in
ass ess
Ġstart er
Ġevent Source
ĠPro perty
ST R
Ġpass engers
ĠTrans lation
Ġlow level
11 8
Ã© n
Ġgraph ic
Ġlink ing
stream ing
ĠState ful
Ġ200 9
Ġtransl ations
ĠPlatform s
ĠInteg rate
Ġfigure s
Ġcell ular
Work flow
Ġquot es
Ġwhitep apers
ĠHD R
Ġpropag ated
Ġign ored
gp u
argu ment
Ġcow ritten
B lue
P at
V alu
j dbc
p b
v ol
x s
Ġt c
Ġre Post
ig gers
ĠT ARGET
Ġde b
ĠL ayers
ĠW ickr
ĠG al
ĠH oney
Ġtr ick
Ġnot ation
ak s
Ġcomp act
com ment
ark us
Ġcons iders
ari os
DS A
ĠQu estion
Ġ8 7
Ġtermin ating
Ġclean ed
Ġair craft
Ġnormal ization
Ġobtain ing
Output Key
Not ice
Ġpeak s
appro priate
Ġrepeated ly
Ġlift andshift
ĠCa rol
ĠMem bers
Ġswit ches
Ġcomma separated
Ġspo ken
1 30
C Us
D W
l ens
r int
t axi
â Ģ
re ference
ed ro
Ġin come
ĠS VM
il ton
Ġe ucentral
ĠI I
pp el
ĠD EM
ĠE asy
ĠW ant
ĠW ind
Ġlo ans
ĠO SS
Ġad verse
ĠV ER
ĠV TL
ach ines
ong o
Ġinstall ations
ĠEx pert
pend ing
à¸ «
Us ed
Ġdetect ions
oun ces
Ġsmall est
Ġtoken ization
Ġbin bash
Ġbrowser based
Ġbook mark
Ġpol it
ĠPut Object
Ġmis configurations
Ġmeant ime
ĠIncre asing
mult i
ĠAnn ouncing
ĠUl timately
ĠDEC LARE
collect or
Ġunlike ly
VAL UE
T er
c odes
d le
t ree
Ġ í
Ġa z
ĠA E
ĠC LO
ĠT PS
ma ps
ĠD ICOM
ĠP H
ĠP en
Ġas is
ĠM ass
Ġapp stream
ĠW ay
ĠG lob
ĠO H
ĠO RA
ĠO FF
com ple
ĠJ im
Ġpr imit
ĠPart icip
Ġatt ain
20 12
ST RING
Ġcompan ion
Ġdec imal
Pro ducer
Connect or
ĠGener ating
ERT IFIC
Ġprob abilities
Ġarnaw se
ĠSy m
Red u
Ġpip e
ĠEnc rypt
ĠTag ging
Ġdigit ization
ĠMc K
ĠAlert s
Author ization
Dec rypt
Ġnoc ost
Ġsmooth ly
ĠDrop box
ĠHard ware
ĠMob ility
Ġsympt oms
ĠTinker Pop
ëĬ Ķ
M art
N ative
T hing
U l
g lu
l it
m on
in er
at ar
ed y
Ġth rive
ĠC RL
ut ies
ĠT utorial
ver e
vi al
ec om
ĠD on
pt un
um ption
ĠB inary
ĠU til
ĠMan ifest
12 1
Ġbest in
Ġaws Source
Ġcontainer ization
Ġvalid ity
ĠSS IS
Ġfound ing
ĠĠĠĠĠĠĠĠĠĠĠĠĠĠĠĠ ĠĠ
Cloud Trail
rop y
Ġfact ories
Ġemploy s
Ġmeas urable
reg istry
me ans
ĠRet ry
Ġinsp iring
Ġslow ly
ĠMin imum
call back
Ġphot ography
Secret Value
Ġsw ap
Ã¨ re
annot ation
ĠLLM s
Ġshowc ased
Ġgrace fully
D X
U ntil
V ATE
m v
Ã ł
Ġa vid
an os
Ġd edic
Ġu m
Ġy ields
ĠC ritical
ĠW W
ĠG MT
ĠO PC
ĠO NN
ub mit
ll ib
sh a
Ġins urers
Ġlist ens
Ġproject ed
ĠRes pon
Ġdi vide
Ġenabl er
Ġregist ries
Ġperson s
Ġhead ing
ĠOpenS SL
Ġbrows ing
40 1
ograph ics
Ġinsert ing
Int erval
Ġaccept ance
request s
ĠIs ra
Ġinterru pt
tr uth
IG H
ĠReal Time
Ġpredic ate
Ġkeyn otes
ĠPredict ive
Ġguarant ees
Ġpetabytes cale
Mo dule
Ġtwe et
Associ ate
Ġemphas is
ĠGold man
Multi ple
ERTIFIC ATE
ĠONN X
C W
F W
c ust
c os
f leet
h icle
l ated
t ml
w orth
Ã µ
Ġt rou
Ġa fore
Ġthe ore
is ers
il st
ĠD IST
ĠP ix
ĠF P
ĠG P
ĠN AB
all ed
ĠV ee
Ġtr unc
Ġpre existing
In gress
ĠK ot
com SAML
pro b
Ġover rides
Con sole
20 9
20 16
12 6
Ġno isy
Ġhand shake
ĠArchitect ures
work load
Ġchalleng ed
ĠUn fortunately
ĠX N
Ġcount ing
config s
Bucket s
Under standing
Ġfix ing
ãĥ ³
ĠAB AP
Ġfetch ing
ĠUpd ated
ĠCN CF
ubl ished
Predict or
Micro soft
Ġsty les
Ġasym metric
acr ific
ĠKeyn ote
Ġafore mentioned
X P
Ġt ang
Ġto do
Ġd uties
ig ination
Ġg arbage
un nel
ĠE VENT
per formance
Ġun f
ite ment
ĠAs ynchronous
Ġ6 3
à¸ Ľ
loc ity
oun c
Ġpan els
Ġtransformation al
ĠRec ently
Ġhist ogram
Ġproblem atic
Ġeduc ate
Ġsoc iety
Ġhistor ically
Ġsort s
ĠRem o
ĠHy perp
ĠAmeric as
conf idence
Dis k
ĠStud y
Ġinterview s
ĠKer as
à¸Ń à¸ĩ
Ġinterpret ation
Ġ54 32
Comput e
ĠPOS IX
ĠWrit ing
Ġsurround ing
ĠLiv y
comSAML Attributes
G N
G i
J an
c ue
s ized
in formation
Ġc oded
Ġs we
Ġd il
Ġre think
ad vert
ĠM ut
ĠM ot
ĠF PS
ĠW ide
ep age
ĠO CS
ĠB in
end ix
load er
ĠWe ather
ell ers
up grade
Ġcol lation
20 6
res pective
12 4
Ġed itions
Ġload er
à¸ ¹
Ġco location
AN G
ourn e
ĠGu pta
Ġturn around
Ġ16 0
Policy Document
ĠQuery ing
à¤ Ĥ
ĠTensor IoT
Ġtell ing
Ġencour ages
Ġbroadcast ing
ĠEnc rypted
Ġproof of
ĠNO AA
Credentials Provider
ĠSnap Start
Ġfly wheel
Ġstrength s
ĠBay esian
Ġconstitu ents
Ġobst acles
ĠRab bitMQ
Ġphilo soph
Ãµ es
H ive
N um
N amed
W here
Y Z
Ġs ought
Ġs acrific
Ġf abric
Ġp agin
Ġin complete
ar ial
Ġex cluding
ĠR ES
ĠF T
ĠW ar
ĠW il
us a
ill ance
ĠV alle
ĠCon formance
av g
Ġ5 9
ĠIt al
Ġproject ion
Ġem its
AR TS
Ġ8 000
Ġra ces
Ġfore front
ĠComp ass
AL TER
ĠFire fox
Ġidentity based
serv ers
ĠNe ed
agema k
Ġcalcul ator
me an
60 8
ĠBucket s
Ġlisten ers
inter est
Ġtrace ability
Ġrecover ed
Ġbad ges
Ġmedi an
Ġconfident ly
Ġfre es
MO DEL
ĠPRO DUCT
Ġ36 00
íķ ĺ
ĠLimit ed
Provision ed
Ġdbinstance identifier
CRIP T
I AL
L ead
V oice
j it
n pm
w indow
x P
en ew
Ġf if
et ext
as cript
im pact
Ġl ies
ĠD oug
Ġas p
ort ium
ort heast
oc o
Ġmet astore
Ġag nostic
ĠPro viding
Ġcustomer facing
ord ance
AWS AccountId
Ġstream lining
ĠAl gorithm
ix ed
Ġhand ful
Ġ6 9
ĠSh adow
Ġcollect ive
Ġcapt ions
Ġprotect ions
ĠAg ents
Ġprevent ive
rel ation
ĠIN PUT
with out
EX EC
ĠGe org
Ġmultit enancy
Ġhum idity
Ġresid ing
Par allel
Ġdelimit er
represent ed
D eb
K B
K T
R el
V BR
d db
p ipel
r pm
on ical
Ġb rid
ĠC AD
Ġh ive
Ġcon gestion
ost ream
ain s
ĠN ormal
Ġset ups
Ġdet ach
To ol
Ġmin i
ĠEn vironments
ĠWeb site
Ġplace holders
ĠFin dings
Ġmatch making
ĠAC ID
vant ages
Ġquant ify
Ġcontribut es
Pr ice
Account s
RA Y
aps outheast
hel per
oper ation
ĠMo vie
label ed
Oper ations
Ġprotot ypes
Ġden ies
Ġceleb rate
Ġaccident ally
LOC ATION
Ġparam ount
Ġrb ac
Ġdereg ister
Ġmelo dy
T argets
Z ero
f luent
t ls
x m
Ġc od
Ġs Ã©
Ġd ru
ar on
ĠC ome
ĠC VE
ĠT i
ĠE c
ĠP UB
est ack
ĠW AL
per ience
ĠB all
Ġqu ote
eg rade
ject ion
Ġun changed
con straint
Ġtw ins
Ġopen ssl
ĠCont ract
11 5
sc s
ret rieve
Ġcompute intensive
ĠAccess ing
vers ions
Ġcolumn level
ĠDet ailed
tim ate
Cre ation
Ġfeder ate
ĠTensor RT
Ġtele com
Ġspin ning
ĠStud ios
appro ved
apps ync
Ġrepro duce
Ġenorm ous
A ns
C dk
H A
b est
c racker
v s
w indows
Ö Ģ
Ġt ile
in ventory
at abase
Ġs ake
st atic
ĠS igning
se ll
ĠC fn
ig nt
Ġh ints
Ġal ph
Ġar range
Ġout perform
ram an
ĠQu icksight
Ġauthor ities
Ġsk learn
Ġdetect ors
Ġattribut ion
ĠFun d
ĠPl ane
Ġself hosted
alc o
Ġprevent ative
ĠCluster IP
ĠCheck s
ĠRegist ration
print ln
Output Value
Ġbuy er
Ġflag ged
Ġdecl ared
Ġexerc ises
ĠStud ents
Em pty
Ġperman ently
Ġswit ched
mill isec
Ġcorp us
ï¬ ģ
ĠMex ico
tocons umer
E OF
O ct
a wn
d j
g ur
t rl
Ġc i
Ġs its
Ġan g
Ġf ig
ĠS ide
ĠS ER
ig ibility
ĠI ter
ĠD ave
ĠE mp
Ġwe alth
ĠO s
Ġse q
Ġcloud first
Ġdo ctor
Ġcons oles
sh ared
ok ens
ĠQ UB
Ġreal izing
ĠZ S
Ġhy d
ĠPer cent
Ġequ itable
Ġobserv ing
des c
Pl ugin
Ġneg atively
Ġbund led
Col or
Ġinterpre ted
Ġguarant eed
ĠThom as
0 80
B UILD
C idr
P ARTITION
T asks
W elcome
b ys
Ġ ride
Ġt ec
an z
Ġu pp
ĠC J
ĠC ircle
Ġde ident
ĠD Q
ĠD remio
ĠR S
el a
ĠL ic
ort ed
ĠG ar
Ġrun ner
Ġke en
Ġac adem
ĠQ R
ĠQ VBR
Ġpolicy document
ĠCh ampions
Ġdec ides
ĠConnect ors
RE AD
ĠTrans ition
Ġtext ract
Sp e
Ġgr and
Ġfac ulty
Ġzon al
Ġpool ed
Code Build
Ġpg logical
Ġiter atively
rds admin
lass ian
Ġtreat ments
fin al
ĠCUR RENT
Ġgeograph ies
ĠEp ic
Ġexcess ive
ĠQue ues
D MS
M att
a uc
d p
t v
at aset
an an
Ġp aired
Ġw heel
al b
Ġo ps
ag a
ĠD one
ĠL ou
ĠL td
ĠG GSCI
pl ate
min ent
Ġinv itation
DS I
ST RA
Ġredu ctions
Ġtemplate body
Ġversion ed
à¸ ķ
ĠUn ion
ĠUn ix
ĠX S
Ex ists
22 3
ĠGo ing
Code Pipeline
Ġelse where
IG N
Ġemerg ed
ĠAV AIL
Ġoffload ing
ij ing
Ġdual stack
ĠCommunic ation
ITR UST
Ġturb ine
MQTT Client
Ġforens ic
DOM AIN
F old
G s
Y md
c enes
k in
ĠS AGEMAKER
Ġn ont
ĠT aking
Ġus ability
ĠE E
ĠR F
ĠW ipro
Ġper mits
Ġset t
ĠQ C
AC U
Ġinc urs
Tra cking
En v
Ġquant ities
Ġdro pping
Ġprogress ion
ĠPolicy Document
Ġconver gence
ĠFunction Name
ĠExt ension
Ġcrypt o
Ġrestart ed
Dis able
ĠStrateg ies
ĠDesign er
Ġbrief ly
Ġprecise ly
Prom etheus
ĠSil icon
Ġstrugg ling
naire Response
reets cenes
ĠCompar ison
ãģĹ ãģ
Ġbestin class
M esh
S QS
c atch
f actor
n ortheast
er ge
Ġc Ã³
Ġu uid
ĠT I
ĠT al
Ġl end
Ġl uck
ĠM ON
ĠR Is
Ġen vision
Ġr ul
ĠH ours
Ġsp ring
ystem s
Ġfe male
ere x
DB Cluster
Ġinf inite
ĠCh anging
Ġstat istic
ĠInst itut
Ġdeliver ies
11 3
ĠCl imate
Ġart ist
ĠAll en
ĠSum mits
Pr int
Pr imary
class es
PE AT
ĠMB A
ĠThrough out
ĠDistribut or
Ġcheckpoint ing
exp ression
Ġcomputation ally
à¥ į
But ton
ĠMO DEL
Ġmotiv ated
ĠSever al
ACU UM
1 32
R ight
g un
o ples
t bl
t emplates
w hen
x gboost
ĠS ets
ch at
Ġh ide
Ġdat al
ĠE fficiency
est ring
nt he
iv ision
da ction
Ġaccount Id
St at
anc her
Ġweb hooks
ĠUn ique
Ġdemonst rations
Ġ12 7
30 8
ĠAS R
ĠĠĠĠĠ ÂłÂłÂł
Group Arn
Ġattach rolepolicy
Th ird
Ġconvers ions
ĠInteg er
hel f
Ġamong st
trans fer
ĠDE V
Ġlength y
Inf rastructure
Ġguardra il
dis play
Base line
ĠKeep ing
Ġperfect ly
ĠWebSocket s
ìĿ Ħ
Ġrefres hes
à¸µ à¹Ī
Sm art
Gre en
jp eg
ĠIde ally
Ġthr illed
Ġduplic ates
Ġunderutil ized
ĠSach s
G H
I E
L arge
Z W
c am
c apture
f ailure
s g
re commend
Ġf argate
Ġp arking
Ġd ark
ic her
ar naw
ĠS a
ĠC of
ĠT EST
ĠI Q
ra pper
ĠD ol
ĠE ffective
ĠP LC
ĠP VC
Ġex cluded
ĠM usic
ĠR iver
Ġint ra
um io
ĠO M
Ġ2 30
ĠIn dependent
Ġab ilities
ĠK im
Ġcomp action
ass ign
ĠPro gress
res ent
pr imary
ĠSecurity Group
Ġvalid ations
Ġlogs Put
Ġrefer ring
Ġvirtual ized
Ġplay books
tes y
air s
Ġtermin ates
Ch ain
ne eded
Ġadapt ing
Trans action
Ġfacilit ated
Ġsubscrib es
front end
author ity
Ġlock s
Ġlock ing
Over ride
Ġinstru ments
ĠFleet Wise
ĠBr anch
ĠHello World
Ã¨ s
Pool Id
Ġsyn ced
del ta
ĠEvalu ation
Ġflat ten
Ġtensor flow
ĠHand ling
Ġtruck s
ĠAmbassad ors
ĠNY C
Ġven ue
deli very
ĠOpenJ DK
C N
D AR
S witch
c md
w args
Ġa st
ro b
ĠC r
ĠD OC
ĠP ipe
Ġbe ar
Ġor ient
ĠB ad
ĠB MW
ĠCon cept
Ġag reed
Ġbut tons
Ġass ists
ĠHe imdall
to ol
ĠCustom ize
Ar k
Ġfree ing
ĠCPU Utilization
Ġcross platform
Ch ar
Ġtravel er
ĠInd ian
Ġ40 96
Ġhistor ic
class ification
ĠRel ated
ĠVisual ization
ĠCM D
Su pp
ĠSingle AZ
My SQL
Ġhom eless
ĠPe ering
Ġthrott led
Ġmultic lass
Mult ipart
Conf idence
Allow ed
Ġdisp atch
ĠawsPrincipal Tag
Ġadequ ate
Ġintermit tent
ĠRET UR
ĠValle y
b lic
w art
w ill
Õ ¸
Ġc ater
Ġin app
Ġm TLS
ĠT M
ĠT en
ĠAWS Region
Ġst ale
ma ven
vi a
iz za
ir ls
pl um
ĠB oost
ĠH ITRUST
In gest
Ġinter connected
ID s
ĠCont rollers
à¸ Ĭ
Ġrest oration
Ġnext gen
ĠAI M
ĠSS ES
Ġ9 7
Ġworld class
ĠUS B
ĠTra cker
Ġnon relational
AL B
Al ong
ĠOper ators
Ġbeh ave
CI M
Ġgra de
iling ual
Ġpol yg
ĠEvery thing
Class ification
ĠLat est
ĠEN ABLED
ĠDynamic Frame
ĠElect ric
Ġdoll ar
Ġunivers al
Ġsym metric
Ġfriction less
Ġabsolute ly
Ġsomew hat
ĠLeg acy
Ġimpress ive
ĠCOMPLETE D
3 16
B oot
B alance
F s
F ER
G G
I BM
L ong
L everaging
T emp
f r
h s
n al
ĠA NT
ĠS age
am in
ĠC olum
ĠM un
est ate
ĠF ARGATE
ĠW ireless
Ġsh a
Ġsh apes
log ies
av ed
av is
pro c
ef ully
Ġenc oders
10 8
pli ed
Ġpers ists
ĠWork force
ĠLinux based
ĠAnd rew
__ .
Ġid s
Ġinde ed
des k
Ġaff inity
ĠTransform ers
clus ions
MO DE
Ġtoler ant
Ġjoint ly
Ġdevi ation
Ġcreater ole
Ġenterpris egrade
Ġexch anges
ĠAWSServerless Function
Ġcogn itive
ĠEconom ic
Ġhypothe sis
ĠBes ides
Ġpromis ing
ĠKind le
Ġdru gs
D riven
Ġt ourn
Ġc ognito
Ġs ides
al ive
Ġo c
ĠS IM
ĠR ock
ĠO B
ĠN as
Ġsp arse
ĠJ ason
ĠJ osh
pro vides
Ġdis pos
Ġmult iv
Ġsub ordinate
ĠReg ardless
Ġrespon ders
20 17
Ġdirect ive
ĠAl tern
Ġform ed
Ġdec rypted
Ġ6 7
Ġ7 7
Pro duction
ĠSh arma
NAME D
Ġsimul ates
Ġemploy ment
Get Bucket
Ġcompet ing
ĠDR M
gu ide
Ġadapt er
Sh ared
Ġelimin ated
Ġadvert ised
Ġpromot es
Ġhit ting
Analy ze
ĠSchedul ed
Ins ert
ĠEv angelist
ĠUN LOAD
Ġformer ly
Implement ing
Ġchem istry
argu ments
ĠAgree ment
P ull
i xt
t asks
x ray
in ent
Ġthe rapeut
Ġf f
Ġd raft
Ġm ine
ĠS ound
Ġe bs
ĠC ensus
ol ang
ĠT E
ĠT itle
ĠT HE
lic ense
Ġcont est
ĠB TP
fer encing
Ġper ception
ĠU NI
Ġtr illion
ac iones
Ġj s
ak ed
ap igateway
Ġpart ially
Ġdis pon
Ġind irect
Ġtechnolog ists
ĠAn not
ĠAt os
à¸ Ī
Ġlow ers
ĠZ oo
Ġensure d
ĠGit lab
Ġlif es
serv ability
Ġid x
Ġsum maries
Trans it
AZ ON
ĠDep end
Ġsubject s
ĠFound ational
Ġcharge back
Ġ21 10
ĠCross Region
ĠFA ST
ĠBase line
Ġquarter ly
AIN ER
Ġovers ight
Fire wall
ĠFil ters
ĠFAI LED
2 34
3 34
F il
M Y
y l
Ġc able
ĠA DS
ĠA BS
ed ay
Ġe yes
ul us
ĠE T
ĠE mb
qu eries
ĠM oo
ĠR anger
Ġv Center
id ades
Ġsc rap
ĠN ET
igh ter
ĠIn coming
ge o
ĠU TF
Ġpre production
ĠCon ditions
Ġover provisioning
ĠPro blem
ER ROR
Ġincre ments
Ġspecific s
Ġtechn ically
Ġco aching
red is
EC K
ml processing
Ġpos es
Ġshort en
LT ech
ĠCA ST
Ġconstruct or
Ġsmart phone
Ġpopul ates
Ġinform ative
ĠRob ert
Ġrespond ents
Ġrestart s
ĠRest art
Ġenjoy ed
QU A
Ġdraw ing
datas ets
Ne ptune
Ġescal ation
Ġbes poke
Ġwar rant
Ġexped ite
Ġconvent ional
ĠBIG INT
Real time
Ġveter ans
ĠRich ard
andid ate
Ġproofof concept
B it
C alcul
D add
E FS
M ON
U X
b at
m osp
m ux
t argets
st he
ĠC ouch
Ġst orm
Ġpro ximity
Ġab use
Ġnot ing
ĠK en
com v
no s
ĠSe q
RE CT
Ġport ing
Ġport ions
Ġexpect ing
ĠCO DE
Ġsimul ators
App Stream
Ġbill s
Ġcross functional
cs i
Ġlower case
Resource Id
ograph ically
oint ment
custom ers
access ible
ĠPrior ity
Dynam ic
Comm on
Ġunlock ing
Oper ational
ĠEN CODE
block s
Ġcomplement ary
Ġpreserv ing
Ġthor ough
Ġpron unciation
ĠUSE ast
Question naireResponse
H uman
S un
f an
f amily
g d
g ot
u uid
v est
Ġt um
or se
Ġin ception
Ġre ven
Ġn il
ĠC apt
ra ils
ĠD est
ĠP G
ĠR DK
Ġv ote
ĠL oop
ĠB ulk
Ġadd itions
Ġun iqu
Ġunder represented
Ġatt aches
ST opic
Ġaws cli
Ġfull time
ĠUS West
Ġnode js
ĠTh reshold
by te
cript s
Ġwebs erver
Ġvers a
Ġconcept ual
Ġtests chema
ĠAss ertion
ili ation
ĠView ing
Ġtransition ed
be ing
ĠMe as
Ġul timate
script s
Ġpriorit ization
ĠPublish ing
Ġmolec ular
Ġembra cing
ĠEar ly
YE AR
Ġali ases
A UTH
S OURCE
b ig
l r
t p
u an
he et
ou ver
Ġp s
Ġw itness
ĠS CIM
am os
ĠT urn
ith read
ĠD TC
ot yping
ĠE LT
ĠP uppet
Ġcom pl
ĠW ater
ĠG R
ĠG CP
Ġacc ordance
ps ql
ac cept
Ġout er
ĠYou ve
Ġent itlement
Ġdis ad
con n
ok ed
For ward
Ġinf ra
now flake
ĠAl t
ĠAl to
Ġadv ocate
Ġinnov ators
ervice account
Ġlif el
Ġparameter ized
alu able
ĠPre vent
CO PY
ĠDes pite
Ġphys icians
ili pp
policy document
ĠREST ARTS
Ġswitch over
Check r
Ġencour aging
Ġattack er
ĠES P
Ġul t
ĠFI LE
annot ations
111 122223333
ĠConvers ation
ĠSha h
ĠMean while
Ġreim agine
ĠRUNN ING
ĠCof ounder
3 15
F OR
K P
U LL
V ISION
W arm
b ia
v ard
Ġp se
ic ast
Ġin appropriate
Ġb er
et te
ĠS ERVER
om aker
ag g
ĠAWS CloudFormation
ĠI A
Ġon eway
Ġg auge
est r
ĠL U
ir it
ĠIn side
Ġnot able
ĠK el
ets on
Ġpub sub
Ġscale in
10 6
ĠSe quence
Ġmy app
Ġ6 1
Ġadv ancing
Ġrece ipt
ven v
ĠIdent ifying
17 2
Ġcorre ction
ĠDes k
Ġsur prise
hes ity
Ġweek end
Ġstand ing
Ġtele health
ĠOR ACLE
Ġsubst itute
ĠGreen plum
Ġmist ake
Ġspons or
Ġfragment ed
ĠSUC CESS
ĠUnivers al
ĠOpportun ity
C fn
F ields
I ter
b lob
c ron
d ens
n amer
o lo
t ier
w or
Ġ il
at om
re lease
ĠS ending
ĠE O
Ġas semble
ĠH i
ĠK at
Ġkey space
Ġgo ver
Ġmulti AZ
res p
cle ar
ĠOpen Z
Ġtag based
Ġtext ual
ĠIm aging
Ġ7 3
Ar t
AS P
ĠDes ired
Ġspecial ty
ĠCheck list
Ġaw esome
Ġrobot ic
Ġcop ilot
ĠList en
ĠFore st
onom ic
Ġrev isions
Ġenjoy ing
sex ample
ĠInitial ize
Ġattract ive
Ġanticip ated
Ma xim
Ġmultin ode
ĠIsra el
ĠGeorg ia
ĠlogsPut LogEvents
A ugust
F r
S n
X Ray
f p
Ġd in
Ġand roid
Ġb old
ag ination
ĠT SQL
ĠAWS based
Ġdat os
Ġcan vas
ĠE P
ĠE gress
ĠM oodle
ĠW ild
ĠG xP
Ġres olutions
so s
ĠH PA
ĠV C
ĠJ un
Ġautom ations
ĠQu ad
10 3
ĠY et
RO S
An n
ĠInt uit
50 1
ĠDes igning
ĠDeep AR
ĠCS F
Th ank
Connect ing
Ġsol ver
Ġdiff ers
atic a
ĠBusiness es
Fin al
Ġair flow
Ġgen etic
blog post
Status Code
acc uracy
Ġult ral
P atch
i et
u z
w riter
es sel
Ġin advert
Ġo cean
Ġb or
Ġb ought
om an
am et
ve hicle
ĠT rial
Ġg old
vi z
Ġne ither
form ed
Ġacc redit
ĠN ord
ant e
ew ard
iv et
load ing
ass ets
cket s
ft p
Ġhigh value
Ġev ict
Ġdesign ate
10 7
Ġmanage able
na ut
Ġut f
Ġpe oples
Ġver bose
ĠOr ders
Ġauthor izes
Ġco authored
gra ding
Sp arks
ĠPl ain
Ġel igibility
22 8
ĠRE PEAT
Ġfree ly
ĠPer haps
ĠAC S
Ġtoken izer
Im ages
Ġcharg ing
ĠJo e
Ġgen re
hel p
Ġecosystem s
Ġtranscript ions
ĠEst im
ĠSecond ary
Up grade
SI ZE
Ġabstract ions
prot ocol
Ġintr insic
........ ........
Ġproport ion
CLI ENT
Ear lier
Recomm end
Ġbasket ball
G r
S Y
S ql
V ia
W W
p olic
Ġt ou
Ġd ash
is ons
Ġre daction
ĠS ame
Ġn ou
ĠC amp
zon a
ra ising
Ġg zip
Ġcan cell
Ġinst anc
ĠIn no
Ġcode commit
ks w
Ġloc ale
Ġstream lines
ST G
Name endpoint
ffect iveness
Ġaws Request
Ġpoint ed
à¸ Ĥ
Ġ8 3
11 4
ĠZ e
Ġ9 2
Ġline item
Ġhard coded
Re quired
Ġfact s
14 8
ĠOver ride
Ġintellig ently
ĠAllow s
ĠSub scriptions
Ġinternet facing
Ġcommit ting
ĠTer ms
Ġgre mlin
ĠIN DEX
Ġcou pling
Trans cription
OL D
Ġwor se
util ization
Ġvault s
Ġrecon nect
Ġir respective
Ġcum ulative
rele vant
nsp name
ĠOH DSI
B ra
M i
O X
S ingle
p ac
en ix
Ġm ism
ĠS epar
im s
ĠI GW
ers ed
ust ry
ĠE ps
ĠP ot
ĠR aw
ay l
ĠB ell
ĠCloud formation
Ġcloud trail
Ġinter cept
Ġuser Identity
ĠReg ulation
Ġfin anc
IN DEX
Ar ns
ĠTh read
ĠEng in
Re ceived
Ġhigher level
Ġsupp lies
ĠAg ility
Ġpercent ile
Ġprint s
ĠAny Company
ĠOR CL
ĠÂłĠÂłĠÂłĠÂł ĠÂł
37 9
ĠHigh level
Endpoint s
Ġfall back
ĠGen ie
ĠPrem ium
dis k
MA IN
ĠTur b
bl ended
ĠPST N
gn ore
ĠSpe akers
Ġleak age
ĠAng ular
Ġprospect s
Ġpen alty
Ġshowc asing
Ġincons istent
Ġsymb ol
ADD RESS
SUB NET
ĠFlor ida
ĠCircle CI
D own
F n
S aaS
S erial
S egment
i oc
r ators
s ources
on ic
Ġb ars
Ġb odies
lo mb
ĠC CI
ĠT X
ĠT XT
Ġis t
ĠF ul
ĠO MS
ĠO cean
ĠN G
ub s
Ġsp ect
int he
ms k
ten ess
Ġprot obuf
Ġ7 6
red ic
Ġoperational ize
xxxx xx
AL LE
Ġhead quart
ĠCD I
Ġparticip ated
count s
Ġexam ining
Ġcategor ized
amer a
Ġstaff ing
cd c
ĠFlow s
pack aged
ĠShow s
Ġarriv ing
ĠSchedul ing
Ġreve aled
ĠEvalu ate
cloudwatch agent
ĠIss ue
ĠlogsCreateLog Stream
Ġupskill ing
quant ity
Ġbal ances
millisec ond
7 00
B r
C ategory
D rop
f ly
f ail
r x
ê ³
en ames
st e
Ġo d
ĠC ust
ĠT emp
ĠAWS Run
vi ation
ĠM AN
ĠF ood
ĠG RE
Ġim plies
ĠB W
Ġsh ipment
end or
Ġ2 24
ĠV antage
Ġrec ruit
ĠApp lying
Ġinv aluable
LI N
ĠRes ervations
ĠStep hen
ĠZ ip
loc ator
Ġexpl oratory
Re ason
Ġexplo it
Ġpric ed
Ġcour tesy
ĠBe ijing
ĠDef ining
Ġtransl ating
Resource Tag
class ifier
ãĤ ¹
ĠAcc uracy
Ġcard inality
Ġeconom ies
Ġones ize
ĠTransform er
Ġseem ed
ĠAttribute Name
Ġalter ed
Ġsubstant ially
Ġrestric ts
ĠIR SA
Ġcomplain ts
Ġthor oughly
ĠKing dom
fits all
ĠMcK in
N UM
h d
m kdir
or able
Ġb ike
ĠT own
ĠD ream
ot el
ĠE LS
ĠR SQL
ĠF ields
Ġv env
Ġres izing
ĠSt an
ĠSt ill
Ġsp ik
Ġtra ject
Ġpl ate
Ġhas hes
li est
Ġinstance id
Ġk icks
net ic
Ġrequest er
Ġhigh throughput
Ġaws vpc
Ġsuccess or
Ġhtt pd
Ġapproach ing
Pro gress
ĠX code
Ġpri zes
Reg ions
ph ones
ĠLaunch Template
Sub nets
ĠGener ator
Enter prise
Ġ25 00
ĠInteg rations
oper ability
ĠDec ision
product s
SP s
Ġment orship
lay ers
unic ip
Ġinfer red
Vari able
Vari ant
ĠSur ic
Ġoutdo or
ĠReturn s
Ġspreadshe ets
ĠEmploy ee
Ġholid ay
emons et
Ġcurs or
ppel in
Multipart Upload
Ġultral ow
C ity
D rive
F B
F uture
S D
V p
f argate
m ind
v d
Ġc os
Ġp ilo
Ġp ump
ĠA ug
ro g
ĠS pons
ĠC ASE
ĠC rowd
ol ding
ec ret
ĠD N
ĠD LC
ĠD imensions
ĠR MS
Ġv acuum
ĠO TP
so red
Ġcustom built
ĠU HD
Ġpre f
Ġout reach
abl ished
Ġdis app
Ġhigh speed
ĠSc roll
Ġassoci ating
Ġing red
ĠCert ificates
ceed ed
Ġ200 6
co in
ĠRet ain
Rec overy
inf ra
Session Name
Ġinvestig ating
Rem ember
ĠOrigin al
ĠEN V
Ġrenew al
QUE ST
Ġvot ing
ĠAN Y
ĠBrit ish
D ns
F R
F older
m edia
v o
er ep
Ġc idr
Ġc ooper
Ġp uzz
ĠA ds
ĠA wards
Ġb on
ĠS U
Ġpro pose
ĠP ATH
ĠM app
ĠR AC
ĠF air
Ġv ending
ĠG M
per mission
ĠH aw
ĠV ACUUM
ĠSt ory
Ġpre pop
ĠK h
ak en
com ponents
Ġpost ing
Ġuser Name
Ġag gressive
Ġins ufficient
Ġfirst hand
ex ports
Ġrel ating
Ġport ability
Ġpath way
Sp eech
Com ponent
Ã© r
CO MP
Ġprof iler
Ġide ally
Ġextens ively
ĠBack ups
ĠAc ross
Ġ200 7
Ch ris
Ġexc itement
Ġreach able
ĠInf lux
List en
ãģ §
Ġapps v
Rec ently
ĠAcceler ating
ah ul
Ġinform s
File System
Spec ific
ĠCDN s
WOR K
Ġdisrupt ing
Ġuns upervised
Ġintr usion
Ġpreprocess ed
Ġmolec ules
associ ate
Ġsport ing
Ġwast ed
Ġshel f
Ġpursu ing
Ġsurpr ising
Ġmachin ery
ĠInstruct ions
Ġremin der
Mill is
contain ed
Ġtang ible
ĠHyperp arameter
H op
U ND
s r
z ed
Ġt ur
ĠA st
is ory
Ġw af
Ġo w
ent ities
ĠS UB
ver ting
ĠD PU
ĠE L
id ed
ĠG T
ĠB O
Ġ2 55
Ġper met
ĠSt ripe
Ġlog ins
Ġover ly
Ġmult ithread
ĠAut oscaling
Ġoptim ally
SQL Server
Ġdec oded
ĠArchitect ed
Ġrece ivers
Ġauthor izers
Cl usters
FS x
ĠEnter prises
Ġmatch Labels
text ract
ĠInd ic
ĠSupport s
connect ions
Ġrev is
ĠCR UD
Ġcolle ges
onym ous
ĠDi ego
Ġtoler ate
ĠSH AP
ĠExport er
ìĿ ´
ĠOwn ership
ĠBluepr int
ĠKy verno
ĠStand by
Ġacqu iring
Bo ard
H ERE
I ll
J on
L ow
P ersonal
S dk
S eries
W D
c ampaign
p urchase
t u
Ġs ob
Ġp un
Ġu buntu
Ġof ft
Ġn om
as l
ĠM bps
ĠM achines
ĠL ATEST
Ġapp ended
Ġad vent
Ġsp un
Ġab andon
Ġaccount id
ell ed
Ġcost optimized
Ġun ify
Ġcreated At
Ġret ro
ffic iencies
app lications
Ġsuccess es
ug gest
19 0
sent iment
ĠSim on
Com b
Ġris ing
Ġself contained
ax y
ĠFire cracker
ian o
Ġparallel ization
Ġindic ation
Sc an
ĠClient s
Def initions
Ġloss es
ĠRem ediation
ĠGame Sparks
Ġstudy ing
aur or
optim al
Ġconsolid ating
Ġinspect ing
label ing
Ġmac ros
ĠKub ecost
Ġmask ed
Ġconsequ ences
ĠArc GIS
ĠSME s
Ġattest ation
xm ld
STRA INT
M D
o e
p ipelines
Ġc m
Ġin active
al ter
Ġm us
Ġb ases
ĠT PM
ĠI OT
Ġl ap
ĠE ither
ĠP ump
ĠP aste
ĠM ur
Ġv an
ĠW indow
ĠB ry
ĠB uffer
Ġhe ur
ĠĠĠĠ ÂłÂłÂł
Ġqu iz
Ġwant ing
Ġrole arn
Ġ0 4
ĠAn sw
Ġpublic ations
eb y
ĠSS ML
Ġconsider ably
iss ue
TE X
Ġ16 9
User Password
Ġnear by
Instance Role
à¹ Ħ
à¹ Į
Ġrestrict ion
ĠView er
Ġpick ing
Ġwor st
gener ate
ĠBig Query
Ġautonom y
ĠHD D
Ġserial ized
XXXXXXXX XXXX
Ġinstrument ed
Hand le
vident ly
oust on
Arch ive
Ġcad ence
ĠAri zona
ignt y
A V
F ast
N ull
W ed
c ached
i S
m ut
v otes
w ers
in ar
Ġc row
ing ly
Ġf on
Ġm asks
ĠS ure
ĠS LO
am s
ag gle
ĠT une
if ul
Ġg ard
ĠP ASSWORD
ĠP owertools
qu er
ĠF ive
Ġapp arent
ĠO PTION
ĠH u
ĠV A
ĠV ide
Ġqu arant
Ġsp awn
Ġaut osc
Ġcomp iles
Ġover look
Con currency
Ġpermiss ive
Ġyear ly
Ġdeliver ability
ret ch
ĠLog stash
ĠInter faces
ĠSu cceed
Ġbo iler
CO MM
ĠRE P
tra ce
Al gorithm
hes helf
Ġcatalog ing
Ġbreak through
Ġcoste ffectiveness
Ġdb t
Ġiter ating
ĠPh ys
ne uron
Ġstand point
bin ding
DA Y
elb ourne
Ġq s
Ġthrott le
Ġrank ed
Ob j
ĠPO LICY
Ġdemocrat ize
ĠAssumeRole PolicyDocument
ĠSys dig
ĠNC CL
Ġassumerole policydocument
ĠIndividu al
quick start
ĠKot lin
ounc il
ĠDol by
ĠColum bia
B l
C at
a is
g ated
y cles
er ry
it ar
it ous
Ġto pr
ĠA T
ĠA NS
Ġre claim
ĠC ERTIFICATE
ig en
ĠI r
ra ined
ck nowledge
ĠM ust
ĠM essages
em b
ĠJ ane
ĠEC C
Ġfe ar
Ġdo ors
ĠAr ab
Ġdirect toconsumer
Ġclient es
Ġsoftware defined
Ġam bit
Ġcor ruption
ĠZ oom
Ġpe ered
ĠCl ara
ĠX eon
def ine
Ġred irection
90 1
Ġkub elet
dat ac
ĠJo h
ĠDo e
44 4
ĠPolicy Name
88 8
ĠEX TX
ĠUp grade
Ġms db
Inf osys
Ġbuffer ing
ĠNorth west
Ġmultic loud
Ent ities
Ġseason al
ĠThink box
ĠLi DAR
ĠHE VC
Est ablish
Org ID
Fun ctions
ĠItal ian
Ġonesize fitsall
E BS
R ail
p ract
v b
Ġd augh
Ġin qu
Ġb unch
ent ions
ĠS amples
Ġu ri
ĠC AS
Ġon the
ur st
ĠP ul
art is
ĠW omens
te e
Ġent re
riv ers
cre ds
Ġtw ost
ale t
Ġ0 8
Ġcomput es
Ġdi abet
Ġlong lived
Ġpar ity
Ġcontact less
Ġaud itor
requ ire
ĠTra ditionally
Ġten ancy
Ġcollabor ators
Ġtrust s
Ġbre vity
Ġz u
Ġscreen ing
ĠImage Net
ĠKe vin
Ġ40 3
ĠView s
tle ap
ĠGame Day
acc urate
Ġpet abyte
Ġhom epage
ĠCIS O
Ġgradu ate
LIC ATION
Ġboost ing
ĠWait ing
ACK UP
Ġpy torch
ĠComple x
Ġur gent
Ġappoint ments
OUT PUT
ĠUt ilities
ĠDu o
ĠWill iam
ĠMiB s
ĠDaemon Set
Lif ecycle
ĠRack space
Ġtrou ble
9 00
A ir
G overn
N s
U UID
b ad
f hir
p ot
r ick
w C
Ġs aml
is o
Ġn n
ĠC up
Ġh al
ab s
Ġl iqu
ur ities
un ique
ĠD own
ĠP ear
Ġor igination
ĠK DC
ap h
Ġtrans act
Ġk ios
Ġopt ical
ĠQ oS
Ġdetail type
Ġrem ark
ĠEM P
Ġalert ed
Ġbas ically
Invent ory
Ġshort age
code commit
ĠAss uming
ĠPh o
ĠAir lines
Ġrecogn izer
ĠNU M
Ġpromot ional
tr igger
ĠCON NECT
ERV AL
Ã§ Ãµes
exp ensive
Ġwra pped
ĠTyp ical
ĠMatt hew
ĠSent inel
ĠHE AD
ĠPal o
ĠMir roring
std in
iche ver
recogn ized
ĠVER SION
Ġreven ues
ĠOpenZ FS
xmld om
B egin
M at
R oom
S K
U til
b ec
c urement
l son
s dk
w af
in clude
Ġs un
Ġw ides
Ġb anner
ĠP u
qu it
ĠF ault
ĠL oft
us es
ill ions
all as
ĠCon st
ip edia
yp ro
enc ia
os a
Ġsub folder
ues e
20 7
As ia
ĠX R
Ġsk i
IC AL
Role Policy
ĠĠĠĠĠĠĠĠĠĠĠĠĠĠĠĠ ĠĠĠĠĠĠĠĠĠ
db instance
Ġfac ets
Ġx ml
Ġx amz
By Id
Im agine
ili um
Ġcompet ency
Ġcompet encies
df s
ERT IES
Ġmount ing
Ġmark er
az e
ĠUnder stand
ĠCo lomb
Ġmitig ating
Ġamazon aws
ĠAust in
Ġinspect ed
writ es
Ġfundament ally
cert s
Em ploy
Through out
Prot ect
ĠAv oid
ĠTom cat
Ġaward ed
dist ance
ĠSmith y
Ġmerch ants
ĠSig V
Dadd y
ĠSuric ata
D O
d it
i ating
m ys
s vc
v olumes
w ood
Õ ¶
Ġt ip
on ce
Ġs ess
Ġp hen
Ġto t
Ġd ry
Ġd anger
Ġre vert
ĠC idr
ut ers
as hes
ĠT y
ĠT EXT
Ġcon cluded
ĠD A
ĠD er
Ġas c
ĠR ange
Ġv on
ĠW CF
ĠB ow
ĠN ex
ĠIn Spec
Ġtrans code
ĠEC DSA
os itories
St r
Ġcustomer centric
ĠRe le
Ġ0 5
ĠAd venture
ĠOn demand
ĠY elb
Ġreview ers
Ġauthentic ity
ĠĠĠĠĠĠĠĠĠĠĠĠĠĠĠĠ ĠĠĠĠĠĠ
gorith ms
def initions
Ġdel iber
Ġsupp ose
Ġve get
Ġsubs idi
Ġprefix ed
Th ree
ĠGener ative
comp ile
Ġgra fana
EX P
Pl ayer
ĠCal ico
ĠPDF s
Metric Data
Ġpul se
sum mary
ĠSur vey
ĠSpe aker
Ġhood ie
ĠMer ge
Ġtact ical
pat ient
ëĭ ¤
ReadOnly Access
Ġphilosoph y
2 000
M ail
Q ual
T om
d igit
f o
f ound
j k
m ic
p id
x ic
Ġd bo
Ġin n
Ġb urn
ro ve
lo tt
ĠS er
om es
ĠC ategories
ab h
Ġpro lif
ad as
ĠL GW
Ġsu its
ĠW CUs
Ġch ampion
ill s
ĠN ER
Ġat h
ave l
Ġtr icks
Ġj itter
Ġcomp ens
con dition
Con current
Ġread ability
Ġhigh volume
Ġvalue added
20 23
ex ternal
lock s
Ġindustry s
roll ing
Role Name
Re ceive
Tra ditional
Ġfac et
Key Name
Ġarnaws iot
Ġextens ibility
xy z
ĠSub scrib
32 1
32 8
buil ds
ĠOR C
Ġdimens ional
48 5
ĠSCT E
select ed
ĠCar bon
Ġonboard ed
Ġstrict ly
Ġadhere nce
Ġdifferenti ation
Ġsal ary
privile ge
ĠCollabor ation
Ġub iqu
ĠInflux DB
Ġambit ious
A ge
C entral
H U
i Path
l anguage
s ion
Ġc w
Ġp cluster
ĠC trl
ĠT elemetry
im et
ĠAWS native
ĠI o
de le
Ġl t
ver ted
Ġg ram
ĠE rrors
ĠM IN
Ġv ac
Ġsc ik
ĠCon da
Ġout standing
Ġso vere
Ġ3 30
Ġ3 50
Ġaws user
ĠRes erve
11 7
Ġcomb at
Ex isting
ĠFin Tech
ĠCO MP
aut oscaler
Ġarnaws kms
bucket s
Ġsupp lemental
Ġrepresent atives
Ġ11 30
Des ign
Des cript
Ġaw sex
ĠRet ention
endpoint s
Det ail
ĠIdP s
Ġimm ense
DAT ABASE
à¸²à¸ Ļ
Ġfault s
analy ze
ĠCF N
Ġanim al
Ġsuperv isors
ĠAggreg ate
ĠCraw lers
Ġsil icon
NAM ESPACE
Ġinherent ly
Impro ved
Ġincent ives
Ġrend ers
à¹ģ à¸¥
ĠOL AP
sth rough
Ġprofic iency
itep aper
Ġoblig ations
ĠEngin Frame
A RE
B ERT
D OC
D istribution
H O
H ook
a ug
i y
n an
re li
Ġan ch
st one
Ġre kognition
ĠS wit
ĠT imes
ĠI L
ĠD riving
ĠE le
ĠM PEG
ĠM elbourne
ĠR ights
Ġv o
id param
form ity
per forming
ĠB us
ĠN ear
Ġservic ios
ĠU ID
oc ode
Ġso il
Ġdo s
ĠCloudF ronts
Ġdem ographic
Ġmain frames
Ġem ulator
ish ing
Ġdisc overs
ĠAt l
Ġter rit
ĠUn i
ĠUS ING
Res olver
Ġindustry specific
Ġhard ened
Ġachieve ments
Ġrisk y
Ġequ als
ROM ACS
CH AR
Ġge ography
Ch oosing
ãģ ¨
ĠLine ar
Ġcy cling
Ġgen es
ĠRel ay
Ġdocker compose
Ġattem pted
UM N
inter face
IO PS
Ġunlock s
Exp ress
Ġkms Decrypt
Ġvol atility
Ġ27 001
ĠMc C
ĠElect rical
ĠIncre ase
Ip Address
Ġleak s
ĠDru pal
but ton
rele ases
ĠMal ays
Ġadvis ory
Ġven ues
Ġconvent ions
Ġelb v
1 34
J une
J ava
X R
ĠA ward
et ooth
Ġcon cludes
Ġl inux
ĠE D
ĠM ega
ĠF rame
ĠF eedback
ke x
em odel
ĠW arm
ĠG S
ain t
her ing
li ances
Ġdes erial
ike y
Ġatt ended
Ġcontent ion
Ġwhat if
read er
NS ION
We ek
Ġchanges et
Ġadv ise
Ġiss uer
ĠEng age
Ġready touse
IP E
24 7
Ġspeed ing
Ġspeed up
Ġpassword stdin
Ch anges
à¹ Ĥ
Ġbound s
Ġrese ll
Ġinvestig ations
Tag ging
Ġsoon er
76 8
ĠGe orge
Spec ification
ĠRest rict
Load ing
ĠIM AG
Ġcompr ising
Ġgradu ates
Ġmail box
ĠSaf e
Ab ility
abil istic
Ġcreater epository
Ġwonder ing
menu idparam
Ġdatadropdown menuidparam
Rob ot
ãĥ¼ ãĥ
WR ITE
ĠlogsCreateLog Group
Ġsurve illance
Ġstd out
PLA IN
wart z
ksw agen
Ġdatadropdownmenuidparam menu
m edic
Ġt ough
it oid
Ġp Ãº
Ġw aves
ĠS ensor
Ġu pl
ĠD allas
ĠR y
ĠL y
ĠL ower
ĠL MS
Ġsu ites
Ġsu spect
id irectional
Ġ1 18
ĠU X
ĠCon gratulations
ew ide
ib ration
Ġun employ
ĠCom pos
anc ies
Ġ0 6
Ġfirst party
Ġwell being
Ġgroup name
ĠTr ino
Ġtools et
à¸ ³
Ġ8 6
Ġ9 3
Ġpay per
ĠÂłĠÂł ĠÂłĠ
xxxx x
ĠFire Lens
Ġgame play
erg ency
ĠGPU based
Ġcur ate
ĠSupport ing
Cont inuous
Ġedit ors
ĠNode JS
Ġjson path
NI ST
dev ic
prof iler
ĠSite Link
ĠInit ially
Ġfeel ing
Ġawscdk lib
Ġusr bin
Ġdram atic
ĠAv ro
Ã¼ r
ĠUDF s
ĠComb ining
Ġ140 2
ecurity group
itoid p
. __
d riving
e val
h ist
i ers
l int
l ient
n v
p ick
s ort
Ġt ie
Ġan gle
al con
ĠS USE
Ġu rban
Ġe labor
Ġh udi
Ġcon vey
Ġde pos
Ġus rlib
ĠP arent
ĠSt aging
ĠCon sequently
Ġinter medi
ĠDe b
Ġ5 00000
aun ched
ĠRe in
Ġmin s
ĠHe x
Ġdec or
Ġdec oding
PU B
Ġ202 21
Ġ7 9
Ex ternal
Ġop ent
Ġsent iments
aut hentication
Ġbroad est
AD MIN
Ġrema ined
PO OL
urs or
à¤ ²
ĠClient Error
88 3
Am z
Ġemer ge
ĠJO B
transform er
ĠTele com
Ġste ep
ĠNov artis
Ġaccum ulated
ĠHorizon tal
ssql server
Mart in
ĠLou is
A x
C RE
C USTOM
i ant
i ama
Ġf oo
Ġf arms
Ġp id
ĠA li
Ġin expensive
ĠT am
ĠT ER
ĠT IME
Ġh all
ĠP PE
Ġen de
ĠF resh
ĠL ar
ĠL AMP
ĠN I
ĠN om
ĠH igher
ĠSt aff
ign ment
ĠJ etson
Ġtrans cribed
li e
Ġdes irable
ĠPro p
Ġorgan izes
ĠEx ec
Ġaws auth
à¸ ¶
Ġ8 9
ĠConfig urations
Ġtext s
AC H
Ġsk ipped
Ġattribut ed
Ad am
ĠĠĠĠĠĠĠĠĠĠĠĠĠĠĠĠ ĠĠĠĠĠ
ĠAR G
Ġshort ly
ãģ ¯
ĠRole Arn
ĠBY O
CE E
xxxxxxxx xx
Ġalloc ating
IM AL
Red is
Ġul tra
ĠCR D
ĠGen es
ĠIM DS
Ġsw ift
Ġ12345678 9
Phone Number
ĠQuant iphi
Ġhab its
Ġwides pread
H C
J ul
R AL
T odo
m ember
it z
an es
Ġp v
Ġto ll
ĠA ria
Ġd om
ro red
ĠS port
ĠE BA
ĠP os
Ġyour s
Ġor d
ĠB etween
Ġwork bench
Ġ2 11
yst ore
ob ased
ĠJ son
ang le
Ġend of
St atic
St rike
Ġcluster ed
Ġhigh availability
Ġaws accountid
Ġdist ances
Ġcontainer Port
ĠZ h
ĠStorage Class
ĠWindows based
30 7
EC R
Re quire
aw ait
ĠCent OS
ĠMig rations
ĠAuto Scaling
ĠPar abricks
ĠProf it
ĠGB s
There fore
Fin ding
Ġentry point
Un like
Query Execution
Ġengineer ed
optim ization
Ġhub s
Ġspot s
Ġwhit elist
Ġspeak s
Ġment or
ĠSubnet Id
Ġserial ization
ĠVari ant
ĠCyber Ark
Ġmotiv ation
Ġmilest ones
Ġparagraph s
MG RL
Ġallevi ate
Ġdil ig
ĠMcKin sey
Ġofft heshelf
E c
M obile
M akers
N R
P aram
S C
S er
c aster
c ols
h ard
i Ã¨re
m obile
z os
Ġs ig
Ġin def
al arm
Ġm erg
Ġb lob
ĠS ar
ĠS RE
ĠS Ã£o
am el
Ġe lection
ĠC RO
ĠC old
ĠC MP
ol vers
ĠAWS Config
Ġcon clusion
ma int
ĠD G
ĠD id
ĠF requency
Ġv server
ĠL ed
id ade
ĠG uild
Âł ĠÂł
ĠB LE
ĠN ONE
Ġtr illions
In nov
ĠK om
ĠK ir
Ġcomp iling
Ġapplication level
Ġ5 10
Con tainers
Ġev angel
Ġsche mes
Ġrel ates
Ġjust intime
pd b
pd ata
ĠLog GroupName
oun ge
22 5
Ġdest ined
db a
ĠComm ercial
ME D
enu ine
De cember
Sh ift
Path s
Ġsync ing
ĠCM DB
ĠExper ts
Comp anies
Ret ention
Ġdup licated
Autom atic
ĠEvery one
NO DE
rep lica
cf g
ĠImpro ved
Ġine vit
Ġawscdk aws
Training Job
ĠLike wise
Success fully
ĠEdTech s
Ġagricult ural
ãĥ¼ ãĤ
ëĭ Ī
ĠCompare d
Ġtakea ways
Ġgetlogin password
ĠOCS P
arnaw ss
ĠELS E
Ġsob re
CEE DED
D H
D IS
M irror
S w
Y es
b undle
v f
Ġt iles
Ġa erospace
Ġc ros
Ġan c
Ġw s
Ġe last
ĠC ape
ve ctor
Ġst or
Ġl aid
ĠD ow
ĠP interest
qu es
Ġex its
ay a
Ġr ug
ĠG ain
ĠO ra
ĠB ooks
ĠB astion
ĠCloud Checkr
ĠV ue
ew ise
ĠMan ually
Ġ3 306
pro viders
Ġun supported
Ġevent ual
Ġpr Ã©
ĠPart y
Ġdem ographics
Ġaws Region
gre mlin
Ġdele ter
Ġhand written
ĠTrans actions
11 6
Ġsm oot
val ent
ĠX X
Ġrespons iveness
ĠAS M
ĠAct or
24 88
ĠST ART
ĠProgram ming
Th an
ane ous
Ġgre eting
format bucket
aff le
Delete Object
ĠRob erts
ĠBra in
Ġqual ifying
NO W
Ġenv oy
Ġtens ors
ĠStud ent
Ġsour c
Ġabstract s
Acc enture
ĠAL ARM
Impro ve
Ġgrad ients
acceler ator
Ġtu ples
ĠSTE M
Ġdra wn
Ġouts ourcing
Ġreproduc ibility
Mapp ings
Sent iment
ĠPortug uese
ĠMAT LAB
Ġgeoc oding
ĠBall room
ĠpÃº blic
2 10
6 78
L ocate
M ag
M AP
a Ã§Ã£o
d istributed
s ung
v ars
Ġa y
at hen
re ports
ĠA U
ĠA h
ĠA GW
Ġre n
Ġre action
ĠS hot
ĠC aching
ĠT alent
Ġl f
ra i
ĠD P
ĠM ic
ĠF older
el igible
ĠL ength
ĠG L
ĠB rowser
Ġ1 14
ĠN ACL
ĠH ouston
Ġat oms
Ġte aches
Ġpre v
Ġsp innaker
ew ork
enc er
Ġover night
St ats
ĠCom ment
ĠRe gex
ĠAd vert
Ġaddition ally
Ġexist ed
Ġdist ancing
RE SH
Ġdistribut ors
Ġtask ed
Ġvisual izes
Ġmod ifies
Ġorigin ated
Ġhttps d
Ġref act
uc iones
ĠLoad ing
ĠGet Object
Ġoperation ally
Ġshort cut
ĠBe eby
Ġcar ries
32 5
Ġturn key
Ġscore d
ĠAss ets
Instance Count
Ġtri age
Ġtempor al
ĠProt otyping
off set
Ġadjust s
bin ary
down s
ĠMe asure
Ġlight ing
Over all
UB LE
valid ate
ĠMa jor
ĠFort i
Ġche ap
ĠMat illion
ĠRecomm ended
Ġdead line
Ref resh
Ġine fficiencies
channel s
Ġdoz en
Ġcoh orts
ĠStat istics
Transform er
Typ ically
Ġreconc iliation
ĠInvest ig
Ġlect ure
ĠEther net
3 64
F ill
I FI
S l
T ogether
Z X
h ave
k itlearn
u v
Ġc rowd
or um
Ġd j
Ġm eg
lo o
et l
om al
Ġe g
Ġn ons
ĠE I
Ġas ide
ĠM aterial
Ġr igh
ĠW riter
ĠB ayer
ĠB eta
ĠB achel
ĠN V
Ġcl auses
Ġmodel ling
ĠK VS
ient o
ear chers
ert ificate
Ġspec s
Ġret ire
Con straint
Ġpat ched
Ġexp iry
AP H
ex ist
Ġlocal ized
Ġlif ec
duct ory
ĠĠĠĠĠĠĠĠĠĠĠĠĠĠĠĠ ĠĠĠĠĠĠĠ
56 7
Ġcontin ual
ĠPre cision
Ġmigr ates
Ġpool ing
Cluster Name
ĠParameter Value
we ather
Ġpriorit izing
Ġvpc id
Call er
zz a
ĠInsp ection
MA X
Ġcallback s
ĠEqu ity
ĠRecomm ender
ĠCF D
fil t
Deli ver
evalu ate
eman aged
ĠVe locity
Ġsacrific ing
ĠQUB O
Ġtopr ight
3 10
A UTO
B ATCH
D EC
X ML
b ridge
d est
j e
k ar
n ed
p v
t b
z o
Ġt aught
he x
Ġd c
ch allenge
as ource
ĠP TP
ĠR CF
ĠF L
ĠO BS
ĠH IT
po ff
ac et
ip v
Ġnot ifying
Ġro ck
av ings
Ġcode c
Ġapplications pecific
Ġmult ilingual
way son
ynam odb
ON D
Ġmultiple x
ĠSec onds
20 15
Ġcontent type
AP SH
Ġed its
pend ed
Ġ9 000
ĠInt ent
serv ing
ĠMySQL Compatible
version py
13 7
ãģ ¾
comp ress
Ġmount Path
Ġgen e
36 5
ĠCM MC
RT C
enk o
ĠForecast ing
Ġconsult ancy
Ġì ł
Copy right
web site
Ġfulfill ed
ĠCON T
Ġinject ed
ĠJust in
rem ove
appro ve
Feature s
Eng age
ĠSent iment
Ġincent ive
Ġintention ally
ĠQuest ions
decode utf
Ġnarr ative
ĠCUSTOM ER
ĠUps olver
ĠIMAG INE
Ġrigh thand
APSH OT
D istributed
F rames
G iB
H MS
M em
O wn
c pp
f act
o is
Ġf ourn
Ġp sy
Ġm unicip
ĠC AR
ol lo
ĠI G
ver ify
ĠR ound
ĠL it
ĠW OF
ĠG ROMACS
ĠB ET
ĠB ridge
ĠH OME
int o
Ġcreate policy
Ġcode artifact
sh ips
Ġmon go
ĠRe ason
Ġvari ability
ĠAn sys
ĠOn Pre
over rides
Ġpass ive
ĠIP Sec
Ġclass ifying
Id riven
ĠAI based
ĠSS RS
ĠCl umio
Ġrule based
Ġco ast
red ited
Ġorigin ate
jo ined
Ġlayer ed
DE MO
ĠActive MQ
ĠST AC
Ġattribute based
ĠStore s
ĠIS P
Ġassist ing
Def ined
rang es
hel loworld
Ġcult ures
ĠFound ry
Ġcrypt ographically
Ġinspect s
Launch ing
Ġrecover ing
Ġbund les
Network Interface
Ġnp x
Ġhouse hold
ĠAfric an
MM DD
Ġassert ions
Ġinteroper able
Mig rate
Ġcounter part
ĠIss ues
Outputs OutputKey
ĠPRE FIX
Ġhypothe tical
Ġmultist ep
Ġbiom edical
Ġoccurre nce
Ġarnawsiamawspolicy Amazon
ĠOP EN
Ġslic es
ĠSUP ER
Ġtheore tical
CRIPT ION
ĠPear son
0 123456789
B eyond
E B
F actor
b ird
c or
e ur
l c
p gs
Ġm eng
Ġm ouse
ct ic
Ġe b
Ġn orth
Ġl i
ĠP atel
qu are
ĠM ont
Ġal igning
ĠR ancher
ĠF ill
ĠL ang
Ġint ransit
ĠCon formity
Ġinter pol
Ġmult if
ick ing
Ġ0 100
LI MIT
Ġcent re
Ġcert manager
ĠAt lassian
hentic ate
Ġorganization wide
ĠSS N
amazon linux
Ġ9 1
ĠCl inical
ĠPost s
Ġutil is
OR TS
aw a
IP v
ĠRead iness
ĠModel ing
ĠMet astore
Group Id
Ġregul ation
Access Role
Ġprogress ive
ĠIS Ps
Enter prises
UT F
Det ector
Dis play
Ġgather s
ĠBro wn
Ġencount ers
ĠSH OW
Ġur llib
Ġbio informatics
2222 2222
Ġstruct ural
ĠVol kswagen
Ġsubdomain s
ĠCour ser
Language Code
Ġfict ional
ĠRedu cing
Termin ate
ogen ous
Ġboiler plate
B ar
I NS
K nox
M on
O LO
P ages
c op
d art
i O
k afk
n on
t c
t ode
ê °
Ġt ends
it ious
Ġf at
Ġin compatible
Ġb ol
Ġre vers
ĠS anta
se cs
ĠC at
ag ar
Ġh az
Ġcon volutional
de veloper
Ġg ar
ĠAmazon EC
ot ing
ĠM RI
est yle
Ġne utral
iz ar
ĠL um
and y
Ġ2 40
ĠIn for
ĠV TEX
ĠSt oring
log ists
ry o
pro ducer
Ġrec ru
Ġone hot
Ġk afka
ĠAr uba
Ġinfrastructure ascode
We bs
Ġ202 4
ĠInter operability
met ic
oid c
ĠSh op
Ġinvest or
Ġself signed
Ġless on
Ġequ ation
agema kers
Ġsubs ets
Ġfl ush
Ġquant itative
Ġreach ability
Ġdb a
55 5
Ġprogress es
ben chmark
ĠRequest Id
Ġcompar isons
Ġfund raising
Spec ial
Ġadvert isers
Ġcr icket
Am ount
Ġpredic ates
ĠPredict or
ĠHyper V
Ġdead letter
Ġceleb rity
ĠMon it
Ġmedic ations
Ġanonym ized
Implement ation
Ġprote ins
Ġpreserv ed
Provision ing
Ġmarg ins
ĠLambd abased
ĠHot els
Ġtravers ing
ona vir
Ġsurve ys
chart s
ĠMil an
sess ed
Ġelast ically
1 0000
7 20
I am
R ST
V o
V ersions
b as
b luepr
e ma
g oogle
y arn
Ġc c
Ġp ued
Ġre ap
ĠS AN
Ġe ast
ĠC Program
ĠT es
Ġl r
ad ditional
Ġdata cent
ĠH H
Ġ2 10
ub raman
ĠU AE
Ġrequ is
ĠK ar
Ġcomm od
Ġcomm iss
ĠJ DK
Ġspec ies
con formance
Ġtable ts
ĠUs es
ĠEn ables
We ight
Ġam p
work ing
ĠWork shops
ĠSim plified
Res ervation
Ġnode group
16 5
Ġinc ub
ĠDB As
eni um
bot tlerocket
24 0
Ġsur f
Ġarnaws logs
33 3
80 9
AD I
PO T
Ġfl ip
ĠString Not
ĠVPN s
Th read
Met a
oll back
ĠAir port
ĠVersion ing
det ector
Post s
ugging face
ĠMark up
Volume Claim
Ġabs ence
ĠPredict ion
hood ie
urer ich
ĠElect ronic
ĠCT AS
ĠNu cleus
Ġspons ors
Ġenthusiast s
ĠDeliver ing
ĠHam ilton
Initial ize
ĠSqu id
Ġidempot ent
Ġprimit ives
ĠPUB LIC
Ġorient ation
C or
C ES
C UR
F P
N V
h are
s now
t z
t ellers
v ille
in ic
re duce
Ġc rit
ĠS ay
ĠS us
ĠS eg
se ver
as ily
Ġl ik
ot h
ĠP EM
Ġne ptune
ist ering
ĠG rowth
Ġ2 15
ĠCon d
Ġsp irit
eg ative
Ġend less
Ġinf requent
Ġmain stream
ĠSQL Plus
Ġlook ups
Ġsign er
work shop
Ġear liest
34 5
Ġhard ening
Ġcollect ively
Ġexpect ation
App s
TE D
ĠDis abled
Ġprint ing
13 6
cluster identifier
Ġbin dings
ĠCluster Name
Ġchat s
CS V
Ġonto logy
Comm erce
Ġinflu enced
nam ec
Ġap igateway
ĠAddress es
WOR KSPACE
Ġfeat urerich
Ġabstract ed
ĠMc D
Ġ20210 6
fit ting
MAR C
ĠHot el
ĠVend ors
engine ering
Ġvert ically
Ġtact ics
Ġsynthes ize
Ġfhir value
etos ite
ìĹ Ĳ
2 50
C are
C ED
F lex
G IST
H istory
R ange
S ensor
U AL
d ates
g l
k es
p ine
t uning
w as
Ġ iceberg
he im
Ġf idelity
ĠA UT
ĠA QUA
Ġin secure
st rip
Ġb attle
ĠS ender
ĠC ook
ol en
ĠT AM
Ġst em
Ġl ights
Ġl ands
ur se
ra forma
ĠD ar
ĠP DT
ĠM utation
ri ad
ĠL aw
um es
ĠCloud watch
ĠU C
ĠJ ass
ĠJ Meter
ell a
Ġinter fer
enc rypt
Ġk endra
pre trained
ĠAs ync
sc ores
ric ts
NT RAL
Ġest Ã¡
Ex perience
ĠRep resent
ĠPer forming
Ġemploy er
DE F
Ġmechan ics
ĠLe ostream
list ed
inf of
Ġcred ibility
Ġhttp www
ĠVisual izing
Ġprob abilistic
ĠEm pty
ĠValid ating
ĠMin utes
Ġshard ed
ĠBr ist
Ġarriv ed
ĠLo ss
pass ive
prec ision
rest ricted
ĠTrain ium
Ġsear ched
ĠTransport ation
ĠSK U
Dr ag
WA RE
Ġincorrect ly
ĠEp isode
Graph QL
ĠMedic aid
Ġoverwhel med
Ġmerch and
ĠSUC CEEDED
ĠUltra Warm
Ġuniqu eness
Ġcompl iment
ĠPho enix
lott ed
ĠGenes ys
2 17
H ome
I V
L ower
M F
M IS
s old
s creen
ä ¸
in x
he aling
re pl
re nd
Ġc argo
Ġf uzz
Ġb order
Ġst aged
ĠE lement
ĠR PM
Ġr anks
ĠL ists
Âł ĠĠĠ
um s
Ġlo ved
ĠO ld
ĠO CI
Ġwh ilst
ac ct
ĠCon current
Ġsp ins
ip ed
log ic
lect ual
Ġke ypair
av ors
Ġmult ichannel
aws config
Ġ4 0000
AWS TemplateFormatVersion
Ġcheck in
RE C
ĠIP sec
Ġiss u
Ġver b
Ġra ises
ivi rus
18 2
Ġbo ards
Ġref rig
ĠPrivate Subnet
ĠCO TS
Cloud Endure
Ġreli ance
Al arms
Man ifest
Ġprevent ed
AG EN
osp eech
start ed
Ġadjust ment
Ġtele phone
Ġsynt h
Install ing
Ġtalent ed
ĠNumber Of
ĠOffic ial
ĠNO TE
Ġinvolve ment
Ġpodcast s
Ġoppos ite
Ġpreserv ation
Ġdisp ersed
WE EN
plot lib
Ġmv n
ĠQU ERY
Ġoccas ionally
ĠReach ability
Ġthumb n
Ġmim ic
dee plearning
ĠCover age
Ġintro ductory
ĠCos mos
ĠInno DB
Ġspik y
à¹ģà¸¥ à¸°
ëĭĪ ëĭ¤
2 14
B rian
E U
P i
S erializer
U NI
b ing
b idden
j b
re ns
Ġc uis
ĠA LD
am pled
ĠC ouncil
ĠT N
im estamp
ĠAWS Glue
ma pre
Ġpro minent
Ġr at
ĠG ate
Ġch ime
Ġch ampions
Ġres ist
ĠO x
Ġad ot
Ġse a
ult ure
ĠN ob
ant Ã©
ĠH ERE
00 4
Ġrec order
Ġob session
anc ouver
Ġunder way
Ġtable Name
pos ing
Ġ0 3
crib es
20 48
Ġoptim um
MS K
hor ized
ĠRes olution
Ġnext Token
Ar gu
ĠLog ger
Ġcount y
Ġclick ed
Ġutil s
ĠĠĠĠĠĠĠĠĠĠĠĠĠĠĠĠ ĠĠĠĠĠĠĠĠ
Tra ditionally
Ġavoid ed
15 8
By te
Ġemploy ing
Ġcenter ed
Ġaudit able
vant age
Ġprogramm able
ĠST AR
ĠIN NER
ĠPh ilipp
DI ST
ĠImport ing
ĠImport ant
Ġinstru mental
atell ite
Ġcr Ã©
Ġment ors
eto one
ĠSDDC s
Ġur g
ĠVIF s
ĠCorpor ate
Ġexplan ations
ĠMedic ine
ĠSk ip
ĠClaim s
Cross Account
ĠLaun ches
ĠSW IFT
ĠLuc ene
CONT AINER
Ġfing er
tot ext
Adv anced
Ġtec nolog
Ġrul ename
Ġdispon ib
ĠCouch base
ĠLU W
Ġsovere ignty
ĠCourser a
9 30
J AN
M ike
M ove
M ember
T ower
Y C
c idr
n ces
v isions
ë ¥
Ġt y
Ġs lide
ĠA W
de part
Ġg enuine
ĠE vidently
art a
ĠG IS
ĠB ure
Ġper t
oc he
Ġevent Time
ef ault
Ġcluster name
Ġpo inter
ĠCom mission
Ġdifferent ial
ER IC
Ġexist ence
ĠTr iggers
Ġ10 4
RE POSITORY
Ġ6 000
sc aling
Ġprovision er
Ġtables pace
Ġing ame
uss ian
Ġmaintain ers
Ġfuture proof
Ġachieve ment
Ġx gboost
Ġarnaws states
Ġschedul ers
ĠGo Daddy
Ġbenefit ing
Connect ions
Ġsagemaker Create
ĠCo hesity
spec ified
mod ified
Ġalloc ates
Ġslow ing
ĠOther s
Ġbook marks
rds db
ĠINT ERVAL
Ag ain
chedul ing
Dis covery
ĠModern ize
ĠTransform ing
Ġhom ogeneous
ĠInsp ect
Ġinstant iated
Ġglue Get
Ext ensions
Ġelev ate
ĠWorkbench J
Ġcorrel ations
ĠComb ined
Feder ation
ĠVert ical
ĠVert ica
elastic search
Dist ance
Ġbeaut iful
clo ak
ĠGH z
Ġshap ing
Ġacm pca
ĠSucceed ed
Ġdatacent ers
0 1234567890
1 19
H ar
L ess
L ib
M iss
N ovember
P ublisher
T odays
U ME
c oder
l f
n m
ì Ħ
Ġ ice
Ġt tl
Ġa f
ou pled
ĠA ff
ar ns
ig er
ĠI am
ĠP DB
ĠP air
Ġal wayson
ĠL akes
ĠB ooth
Ġapplic ants
00 8
ĠCloud Health
ĠV el
ware house
Ġfil ed
Ġtable t
crib ing
Ġeng ages
ĠIP FS
ĠCode Uri
ĠWeb RTC
Ġpe ek
Pro viding
Ġmarket places
Ġsens ing
ĠPre vious
CO VID
ank ar
Ġexport ers
ĠLoad er
Ġvers atile
13 8
ĠLe ft
Sc ope
ĠImage Id
Fin dings
Ġsuggest ion
Ġrecogn izing
rec overy
Ġever growing
Ġfoot age
Ġrot ating
su pp
Ġrev ocation
Ġrev ised
Ġrestart ing
ĠEnt ry
Ġrad ar
Ke eper
Secret String
aa aa
Ġbeg un
Ġnu est
loadb alancing
Ġbra ket
gent ina
epro xy
ĠDO UBLE
Ġpropos al
eread y
ĠFront end
itan ic
upport ed
ĠAttende e
Dan iel
Ġalt ogether
ĠPrinci ples
ĠDEM O
RECT ORY
ĠawsRequest Tag
D id
E lements
H istor
P aste
S ink
b alancing
d otnet
k b
t ower
t ospeech
ë ¡
Ġt an
Ġc ircle
Ġp ets
ig s
Ġh ight
Ġon etoone
Ġl Ã©
ĠE B
ĠP hot
ĠR x
ĠF uj
ĠL u
ĠW isdom
ill er
ĠB B
Ġle ur
ĠN ations
Ġhe x
ĠCloud Rail
ac m
der r
ĠAr un
Ġrel ax
ath ons
ric ane
ÂłÂłÂłÂł Ġ
An omaly
Ġ12 30
Ġself serve
Log Group
medi ation
ĠAC CESS
Ġarnaws quicksight
Open Search
RI B
sequ ence
Ġattack ers
lib s
inter rupted
ĠPath s
Write Options
ĠOff ers
Rem o
Ġrights ize
ĠAttribute Value
ĠStud ies
Ġreus ing
Ġrepe ating
mat rix
ĠĠĠĠÂłÂł Ġ
Ġprofit able
ĠSEC RET
Dep end
Ġë °
Ġembra ced
Ġvolunte ers
ĠRout es
ĠEs ri
Ġfant astic
Oct ober
ĠLic ensing
ĠChampions hip
ĠEps agon
ĠBET WEEN
2 30
C lear
E p
F ebruary
L AMBDA
S W
S ys
T un
T ASK
U A
t an
ing est
ĠA AA
ĠA Idriven
le ash
et up
Ġre ct
ĠS ID
ĠC ra
ĠC AF
ĠT RI
ĠT icket
Ġon call
ĠM F
ĠR a
ĠF eb
ĠG olang
ĠN PM
ĠN XP
Ġsh ips
Ġte ar
ĠV ancouver
ens ource
Ġstep up
velop e
Ġsub millisecond
Ġrespon ded
RE QUEST
line item
Ġmod alities
Ġimp ed
Ġauthentic ator
Res pon
ĠInter mediate
Ġhig hend
Ġinstruct s
Key Pair
ph rase
Qu antum
Ġisol ating
Cont inue
ãģ Ħ
ĠLab oratory
Ġassist ants
au x
Ġcharacter istic
Ġrot ated
ĠIs olation
Be ing
ĠFleet IQ
Ġmis configuration
rs a
Ġinvalid ation
Ġups ert
ĠSoc iety
ĠDan ilo
ĠEnh ance
Ġvacc ination
Ġqui et
ĠConvers ations
rust ed
Ġturb ines
Visual ize
Ġautog enerated
Sever al
ĠFoot ball
Ġhomeless ness
Ġtwost ep
C olumns
P ol
b andwidth
f olders
m ates
Ġt x
ĠA le
ĠA part
is a
st reetscenes
Ġb ounces
ĠC IP
ĠC hem
ch anges
ag i
ol as
ĠT an
ĠT ips
Ġst re
ma d
ĠD ET
ad er
ĠE tleap
ĠP NG
Ġex abytes
ĠF ine
ĠL ibraries
ĠB ash
ĠB loom
ĠH OST
00 3
ĠV o
Ġpre set
ĠCon ductor
Ġconfig s
Ġsee ks
Ġcons ensus
ines h
Ġinf light
Ġreal m
Ġhost names
ames h
RO W
Ġpe ace
Ġra cers
Ġcount less
Ġco hes
ĠGu est
Ġnon functional
ik h
Ġequ ip
Ġexplo its
Ġ200 3
code build
32 9
Ġchain ing
Ġ14 5
Fin ancial
MB s
Net Core
Ġiam Create
Ġiam Pass
ĠVer itas
Ġinsight ful
Ġlight ning
arks ubmit
Ret ry
Autom ate
Ġsufficient ly
Ġcompr ise
umb ling
ĠDL AMI
ĠCMK s
bre aking
br anches
ACT ION
ĠCIO s
Ġhop ing
Ġcreat et
ĠBook ing
Upd ates
ĠRecommend ation
Ġsudden ly
cur itÃ©
Ġsafegu ard
Ġrecre ated
Ġcmd let
Bound ary
Ġtel co
ĠSER DE
ĠSage Makers
Ġpse ud
ĠFul fill
C G
C lose
J PG
K afka
Y ear
j ay
k its
l ar
m time
Ġ Ï
re ster
Ġc aut
Ġs ont
ou vern
Ġd ns
Ġn v
ĠC ast
ch oice
Ġh int
Ġde em
ul atory
ĠF all
ĠF alco
so ck
ĠB ear
ĠN ing
ĠN orm
ĠCloud B
ĠU ns
Ġtr ab
ron es
od et
Ġcode build
Ġperform ances
ok es
ĠQ ub
Ġvis itor
Ġproject ions
Ġdist rict
Ġtyp ed
Ġmy riad
Ġcontainer d
ĠY OLO
Ġvideo ondemand
ĠGlue Context
Ġ202 30
Ġintegr ators
Ġver bs
Ġrule id
Data Frame
ĠMicro service
CO E
Ġsur faces
ĠWh itepaper
ĠGet Item
ĠBe hind
32 6
Ġfinal ists
ĠOper ate
ĠInf requent
Ġtre ating
erc ase
Ġexam ined
ah oo
ĠProt ected
AI M
prof its
26 5
local host
ĠChange Set
ĠDisc uss
ĠHead er
hand le
clus ive
Ġà¤ ¸
ĠPay load
Ġhyp ers
mat ched
ĠDebug ging
Ġreve als
prot ected
ulum i
LOC K
ĠHar vard
Ġcipher text
Ġredact ed
tensor flow
Ġbeaut y
ryst andard
ĠInform atica
Ġreproduc ible
ĠEXEC UTE
Ġaffili ates
ĠHoney code
ĠGlob e
ĠFT PS
Ġod ds
Ġprepop ulated
reli able
2 12
E ye
T aking
b asic
t age
x ia
er ec
re y
Ġre writing
ĠC dk
if ting
ĠD avis
ĠD MARC
ĠP ID
ĠP wC
ĠW al
ĠW all
ĠW ould
ustom er
ĠB a
ĠV ulner
eg rity
Ġfun ded
Ġun icorn
Ġread me
ĠQ lik
ĠRe ceiver
Ġdirect s
Ġscal ar
ci e
app runner
Ġoptim istic
ĠY ES
ug o
Ġindust rystandard
Ġ9 4
iss uer
Data Config
ĠTra il
Log ix
ĠKey Name
14 6
Ġbr ight
medi ately
90 6
ĠCre ative
TE NT
par alle
Ġkub e
att les
ser ies
ĠProf essor
ĠVis ibility
ãģ Ł
ĠGener ated
ĠMac OS
ĠOS I
Ġcaus al
ĠSES SION
Ġoffic ially
ĠAssoci ates
ĠDisc ord
NE L
Subnet Id
CR Y
analy zer
Ġment oring
Ġenrich ing
Ġshut ting
ĠScient ific
Ġden ial
Ġdestroy ed
ĠScal ability
Attribute Value
ĠLOB s
Ġnecess ity
192 168
Ġneighb ors
Ġclar ify
Ġthre ep
tom l
Ġenterpris ewide
Ġamb igu
Ġpure ly
IZ ATION
ĠWik ipedia
ĠVee am
Ġunf amiliar
Ġgover ning
Ġindef initely
4 20
D V
D LC
R andom
_ .
b ind
h op
j dk
k m
o i
r ank
s aml
Ġp a
ĠA th
ĠS in
ĠC olumns
as er
Ġcon v
ab b
ab ular
Ġst rives
Ġde ck
ad ium
ad ici
id c
ĠG PO
Ġres h
ĠB or
ĠN ever
ĠH a
Ġat mosp
Ġ2 00000
ĠIn jection
ĠV HD
ac ent
ĠK VM
ĠYou ng
Ġservice Account
Ġ3 84
ĠTo kens
Ġselect ively
pre pare
Ġsign aling
Ġrout ines
ET L
Ġplan es
ĠOr g
ĠUn lock
Ġrules et
lu ence
ĠNew Object
xxxx xxx
Ġconc ert
Stream s
ik i
Ġcorrect ness
TO P
add on
Connect ed
Ġtri vial
ÂłÂłÂłÂłÂłÂłÂłÂł ÂłÂłÂłÂł
Ġinstitut ional
Ġever changing
Ġelect rical
Ġoffic ers
ĠFound ers
ĠCall s
CON NECT
Comm unity
Ġspeech totext
ĠBr and
ĠCar rier
Ġmag azine
ĠNO DE
sk i
ĠChannel s
Ġflu id
Ġtack ling
Valid ation
Develop ment
Consider ations
Invoke Function
win ning
ĠMag ic
Ġencaps ulates
ĠSol r
Ġsch olar
Ġcleans ing
Ġearth qu
Ġusrlocal bin
Ġdomin ant
Ġciv il
assess ment
ĠParticip ants
Ġtraject ory
medic ine
ĠMonit ron
ĠTes la
D Q
P ri
S ESS
T uesday
W rit
b efore
c orp
m ag
r ar
at in
en h
st ud
Ġb ands
ro bot
ĠS ix
Ġst abil
Ġl ang
ĠM eg
ĠM OD
ĠF etch
Ġse x
ĠV an
Ġcomm erc
Ġaccount able
Ġtime based
Ġfe els
sh ifts
ĠCom poser
Ġtw itter
aws cdk
ĠRe uters
ĠSp ack
ĠTr n
ĠDynam oDb
Ġ8 1
sc op
RO OT
Ġ7 1
ĠAM AZON
Ġindustry recognized
ĠTh ail
ĠAdd ed
17 0
ĠRec ording
ĠRead s
ĠRead er
att r
Ġprogramm e
40 6
Ġbeh aves
Th ings
verse ly
Ġcraw ling
VE L
access role
Not ifications
ls n
Ġadvance ment
Ret rie
Ġconsult ation
Ġlinear ly
Ġdict ate
à¥ Ī
Ġlabor atory
opt mlprocessing
Ġrig id
íķ ľ
Ġbenefic i
Ġhop es
Ġgl ance
Ġutter ance
Incre ase
Ġpione er
ĠAWSLambda Function
ĠEar lier
ĠBlu etooth
Ġ270 17
ĠWeight ed
Ġfif th
Ġprolif eration
ĠForti Gate
pgs ql
F aces
G bps
L ex
V ec
W riter
p ull
s che
s ns
ĠA er
Ġd ados
Ġb ins
ro cess
et cher
ĠS VP
ĠS creen
il ation
ch a
ĠL AMBDA
Ġint ensity
ĠG ENER
Ġch apter
ĠU naut
ĠSt arb
Ġsp on
od d
ib ern
Ġevent Records
ere f
ener ate
Ġreg ards
ident ial
Ġselect ors
ĠAn a
pr incipal
AT S
Ġgu itar
ĠEKS A
Ġsend ers
Ġstatus es
loc ations
Ġnon null
ĠFin der
tra cking
ĠAS N
AL SE
Ġshort est
Ġshort ages
ĠMet al
Bucket bucket
run c
ĠBut ton
ĠDR AGEN
Pre view
ĠPh arma
ĠCo ordin
Ġrev oked
Ġcrypt oc
Ġstake holder
Be havior
à¸²à¸ ĩ
Ġà¤ ®
ĠSw ed
ĠSw iss
hour s
Ġawss ervic
num py
appro val
ĠElect ronics
integ er
vis ual
dig o
ĠLOG GER
ĠColor ado
Evalu ate
ĠMAC H
Ġliter ally
Ġharm on
Ġsurpr ised
Git Hub
Ġintel lectual
pipel in
Maxim um
Ġinadvert ently
ĠCrowd Strike
PUB LIC
ĠNing xia
2 123456789012
B s
C al
D ES
d ic
d og
l p
o h
w get
ì ļ
ĠA O
st able
Ġm other
Ġb lood
ro xy
et his
ĠS DI
Ġu ma
se ct
ut c
ĠAWS provided
Ġon est
ĠD omo
ĠP SA
Ġex filt
ĠM M
ĠM V
ĠM TT
ĠF LO
Ġv essel
ĠG OP
ĠO nt
Ġse b
her lands
ĠU iPath
AM S
Ġpr ime
Ġpr uning
ict or
Ġproduct ions
Ġobject locator
Ġstack ed
Ġwell s
RE ST
ĠZ al
amazon cloudwatchagent
Ġann e
ĠRun s
met adat
Ġhy dro
ĠCons olid
ĠCons umers
ĠCS P
ĠDet ail
Ġtun er
13 5
not ification
Ġdro ve
ĠMult us
my bucket
Ġcontract ors
ĠNAM ESPACE
det ermin
sub scrib
ĠUp grading
ĠSD LC
ĠPol y
ĠIndust ries
ĠImport Export
Inf requent
ĠCall er
arth ik
Back end
Ġdetermin istic
Ġcompos itions
ĠPe ak
Ġround s
00000000 00000000
Ġlapt ops
Ġste ering
micro soft
Http Client
ĠBring ing
Ġconstitu ent
privile ged
Ġsafegu ards
FE B
Ġsegreg ation
ĠHack athon
incre asing
Ġrefact ored
Ġspon sored
8 23
B es
B CO
F etch
R out
e zza
f alls
i pts
l ibrary
v ice
y ellow
Ġ 000
Ġf ont
is se
le ton
se g
Ġe ia
Ġn am
ag ment
ag nostics
Ġl on
Ġl ux
ĠP SS
est ic
est ablished
Ġres erv
ill ery
ĠN a
ĠĠĠĠ ÂłÂłÂłÂłÂłÂłÂłÂł
ĠH en
Ġtra iling
Ġaut oscaler
ĠK a
ob ier
Ġlog on
Ġevent Type
Ġcons ortium
Ġpr inter
ext ension
Ġtool box
flow s
app server
over ride
get Logger
AC TER
Pro f
ĠX L
Ġaud ited
18 6
ĠTra cing
aut henticator
Ġannoun ces
ĠComm ands
Ġcollabor ations
omet hing
Ġiniti ation
Ġlower ed
32 3
Ġexc er
Ġapps ync
service account
Ġtrend ing
Work space
bin activate
ĠLead ers
ĠALB s
Go v
ĠWest ern
Tech nical
Ġcoordin ating
Gener al
YY Y
Ġequiv al
Host ed
ĠVAL UE
Ġabs or
Ġbid ding
ĠEND POINT
More over
allow ed
Attach ment
ĠLimit ations
LOC AL
ĠDEC IMAL
ĠSK Learn
gr p
Ġdog s
ĠUt ility
Ġroutine ly
ĠProtect ing
avi er
ĠIC MP
sevent s
PRI MARY
ĠOW ASP
ĠCLO UD
ĠSwit zer
onavir us
ĠBure au
3 11
3 17
R ad
R aw
S ur
U DENT
d aily
e i
p riv
t od
v ine
w ind
x amz
§ Ģ
er ging
at ibilities
es ars
Ġp ays
Ġp aus
Ġp vc
ĠA ware
Ġo mitted
Ġb ed
om a
ĠC REAT
Ġfor got
ig o
ĠT ax
Ġcon clude
Ġl n
ra il
vi k
un n
ĠP E
ĠP urchase
Ġex cel
ĠM r
ĠF PG
Ġr icher
Ġle ap
ĠIn de
Ġpre loaded
Ġpre packaged
Ġnot ion
In side
ud get
Ġcloud front
Ġun iverse
Ġk NN
Ġcol con
Ġsub optimal
DS S
ĠOn premises
12 31
Ġplan ner
TT BL
Ġauthor itative
Com pare
Ex change
iss ues
OR DER
ivers ary
50 5
Ġconc ise
ĠPer force
bot h
14 2
33 1
process es
Get Att
ĠBe havior
SS O
ĠST ACK
De loitte
dev ices
Ġaltern atively
Ġmitig ated
Ġelect ronics
Ġcr ime
Ġamplify backend
ĠPut ting
ĠIndex es
ĠPay ments
ĠFilter ing
has Label
ĠPack er
ĠMetric Name
Integ rating
ĠSci kitlearn
ĠSustain able
ĠPK CS
ĠOrchest ration
ServiceRole For
Ġhon or
Ġtravers al
ĠMir ror
ĠAud iting
ĠDI Y
evalu ation
Ġcompound s
Ġfluctu ations
ĠJon athan
pay ment
Ġpolit ical
Ġdash boarding
ADI US
Ġlik ed
2 20
A verage
F ailover
M iB
M onth
P ers
P ART
S at
f all
j q
on c
or ma
it ud
Ġp agination
Ġto xic
ĠA NAL
Ġd as
Ġm und
Ġre warding
ĠC ancer
ĠC COE
Ġl ending
Ġg ouvern
ĠD igit
ad ia
ĠM ind
est im
ĠF ellow
Ġr ural
el le
ĠL everage
um eric
Ġad hering
ĠB ec
Ġ1 70
ĠN W
ss ample
Ġwork forces
ter min
Ġper ceived
ĠU E
ĠSt ruct
Ġconfig map
Ġall i
Ġcloud powered
pro gram
pro gress
Ġover written
Ġk n
Ġmon g
ale ido
AWS Marketplace
ID ENT
Ġcent os
à¸ ¸
Ġ8 2
IN CT
Ġut l
ker as
Ġref ined
ĠFin Ops
Reg ardless
ĠPublic Subnet
Ġfl ights
ĠST REAM
ĠCheck ing
Out bound
Ġexam ines
ilit Ã©
new s
Ġauto approve
we et
ĠNet herlands
Ġbit rates
Ġprincipal Id
ĠEnvironment al
ov a
Ġbrand ing
Dis cover
ĠRest aur
uff ers
Ġden oted
ino is
ĠSM ART
Ġsup ers
ĠDS L
Ġmedic ation
br anch
pe ak
ĠCa esars
Ġdeprec ation
employ ee
Ġleaderboard s
Ben efits
Ġfict itious
ampl ess
epoch s
ĠFIN RA
ĠRelations hip
Ġencompass es
Ġremind ers
Ġcaption ing
ANG U
Ġacadem ia
ĠcÃ³ digo
ĠRETUR NS
Ġff mpeg
Ġrefrig er
2 11
M atches
R ock
U G
Z IP
d h
f ee
t as
Ġt t
Ġb ul
ro ker
Ġe at
Ġn y
ĠC AT
ol v
as ive
Ġon t
ĠD eg
ĠP ACS
ĠR AN
ĠL Z
ĠL iqu
ĠG an
Ġres cue
ĠB ASE
ĠN av
ĠH op
You ve
ap at
ĠJ ay
Ġav atar
Ġone off
Ġk afk
its u
ĠAd opt
Ġlearning based
ST ATUS
12 9
ĠCh ad
ĠCh anny
Ġdec oder
eb s
Ġ8 30
ĠOpen API
Ġcount ers
Ġco aches
ĠIT EM
ĠRep lay
18 4
Select ing
AB C
Ġsepar ating
ik o
Reg istration
Ġ15 000
14 3
ĠDeep Speed
33 7
ĠMS SQL
Ġbre ast
Ġrate based
ailo vers
MP ORT
Th ink
Ġaw k
Ġold est
ĠAcceler ated
Ġlambda InvokeFunction
Ed itors
Check s
Det ermine
Ġdebug ger
ĠUpload ing
ĠOps Hub
ĠCR Ds
66 6
Gu ide
Ġhierarch ies
ĠPe er
Ġseason ality
ĠArm based
Product s
ĠBoot strap
manifest s
ĠAggreg ation
ĠHC LTech
Ġhon ored
Ġhous es
mx net
Ġconcent rate
aro ld
ĠPri vile
Ġrehost ing
Enh anced
bys ide
Ġtum or
Ġbor row
Ġphen omen
Ġlifec ycles
5 000
F ly
J osh
L atest
S ending
S plit
S ometimes
X Y
Y ZE
m ond
t rial
t emperature
ì ł
ĠA TT
Ġm d
Ġo mit
ar c
ent ation
Ġre written
ig an
ĠT TS
Ġcon ferencing
ab out
Ġst ars
ur k
Ġg ross
ĠD ivision
ĠM id
ĠF ULL
ĠG AT
ĠG RC
Ġwe igh
and ro
Ġim balance
Ġ1 145
oo f
ĠN ON
ĠH om
ĠV T
Ġtr im
ial og
Ġcloud hsm
Ġk m
Ġk wargs
Ġorgan ic
Ġfil ings
AWS Lambda
pr ints
ĠAl liances
ĠRes ervation
ubernet ess
ĠWeb hook
Ġi Phone
Data Key
ĠComp aring
App lying
Ġinitial izes
Ġred un
Al location
ĠRec ent
ĠRec ognition
Ġsupp ression
ĠDet ermine
cont rolled
Des ired
count er
Stack Set
Ġentry level
à¤ ķ
ĠMod ules
Ġadopt ers
Ġ40 4
class ified
Job Status
AI R
Ġbus es
ãĤ ¯
Ġund es
Ġproceed s
38 9
Ġbat ched
Ġip v
Ġì ŀ
Ġhom eg
ĠSav ed
Ġacknowledge ment
ĠHugging Face
ĠRetail ers
Content Type
ĠIncre mental
Par quet
ĠAnn ounce
ĠKnow ing
Ġproport ional
Ġcomplain t
agec lass
Ġmultin ational
datal ake
ĠStan ford
Ġoverlook ed
ĠOx ford
Ġlux ury
2 15
A LI
B road
F ail
G ather
R yan
V company
g c
q w
r n
on n
Ġc ac
Ġf ram
Ġp iv
Ġm el
Ġm qtt
ĠC le
ĠAWS TemplateFormatVersion
Ġpro mises
Ġcan ce
ĠD ual
qu bit
ĠM R
ĠR W
ĠF DA
ĠF ox
Ġr f
art ition
ĠL INE
ĠL ounge
Ġacc redited
ĠB ug
Ġle ase
ĠN T
ĠH arness
ĠH MAC
ĠIn valid
Ġj azz
Ġhas s
Ġinter change
os ed
Ġun interrupted
cre ation
aws credentials
ict ure
Ġimpro per
Ġdev null
Ġgroup id
ĠEn coding
Ġaws lambda
ix i
Ġform ation
Ġwrit ers
Ġdist ract
Ġdisc lo
Ġ7 50
angu ages
ĠNext flow
Ġpri ze
17 6
Ġlatency sensitive
IT O
ql sh
Ġhead s
Ġx y
Ġinitial izing
DE V
ĠTest er
Ġfinal ize
Ch allenge
ĠString Like
Ġbound ed
comp iled
Job s
sql server
ĠNet ezza
Ġvalu ed
ĠExpl ain
Ġrobust ness
ĠIll inois
Ġneg atives
gener ator
Ġcorpor ations
Admin Role
ĠSchema Name
nam i
SEC URITY
ĠHIPAA eligible
ĠPredict ions
Ġsl urm
Ġfarm ing
str ftime
ASH ARE
Ġsit etosite
Ġdatat ype
ĠWOR KSPACE
Ġrack s
Ġant ip
Ġclip board
11111111 1111
Evalu ation
Ġsurvi ve
Ġrent al
TRA NS
ĠWORK DIR
Ġwaterm ark
Ġwaterm arking
keep ing
Ġenumer ate
Ġexpend iture
ĠAVAIL ABLE
Ġdiabet es
ĠMalays ia
ĠDG MGRL
Webs ite
Ġrat ios
SESS ION
3 12
C ell
D ee
L ight
N Z
P et
S lot
b ac
b ank
c ab
f etch
g al
i ries
m us
n as
t ax
u ire
x v
Ġa urora
Ġs antÃ©
ĠS hen
il a
se ks
ol ive
ĠT A
ĠR NN
Ġv ent
ĠL C
ĠL IN
ĠW ood
ĠW arning
Ġres kill
ĠN vidia
du ced
end ars
po ds
Ġover see
Ġreg ard
Ġcomple ments
Ġcreated b
Ġback test
ĠRe ality
ĠEn roll
ĠQu arkus
Ġ10 30
Ġ6 55
Ġrout able
An not
gra d
Re lease
Ġself healing
ĠUser Name
Ġconsist ed
IP Address
ĠRead Write
TE NSION
Ġbre w
Ġparallel ize
Ġfl ask
run ch
Ġsoc alled
Ġscan ner
Ġ25 000
NI ME
Ġmount s
ĠSign al
bin bash
Count er
ament e
ony ms
Part ner
ĠInit iate
Ġsurvey ed
Ġretain s
ĠNOT ICE
ACCOUNT ID
conf irm
ĠCall ing
Ġap northeast
Ġpoll ut
ĠArtifact s
annot ated
ĠNat West
Ġassemb led
sim ple
Ġsho es
Optim ize
ategor ical
coms aml
ĠMiss ing
pol ly
ĠIR AP
Ġincons ist
Can ary
aggreg ate
ĠCrypt o
ĠSY STEM
ĠRC NN
Ġopinion ated
Ġcapac ities
Ġubiqu itous
Ġintermedi ary
C redit
G GER
S uch
b k
b ulk
s cheduler
w hat
on ing
is ense
Ġin accurate
Ġre load
Ġre imag
om p
am pling
ĠC ities
ch urn
Ġfor cing
ĠT AG
ĠT unnel
ĠD ash
ĠD OP
ĠD MA
ĠR oche
ĠF TR
ĠF alcon
el ve
Ġuse State
ĠO EE
cl s
Ġj dbc
Ġdef end
ĠPro ced
Ġsub directory
con vert
Con vers
ci ally
app stream
ĠAl gorithms
Ġ10 5
Ġclass ifications
err ors
for cing
sc aler
Ġtext tospeech
An alyst
ĠX XXXXXXXX
Ġcapacity optimized
gra f
ĠTech n
Ex pl
ĠEMR FS
Ġminim ized
ĠAS C
En coding
Aut henticator
EN V
Ġpos ed
Get Item
SS DB
Ġleg is
40 3
70 1
ne ath
Ġpopul ating
Work load
Trans port
security hub
ĠIDE s
ĠExt ended
Ġrefresh ing
Ret ail
Port al
ĠCON STRAINT
export er
Ġgradu ated
TR ACT
ĠYear s
reet ier
ĠAppro xim
ĠDX GW
Ġheart beat
Ġwra pping
Author izer
Min utes
Ġpoor ly
ĠSpe ech
market ing
ĠSegment ation
ĠStat mux
communic ation
ĠPhil ips
ĠSem antic
Ġadvis ors
char acter
IND OW
Mount s
Ġic ons
Ġholid ays
Ġprohib itive
ĠAchie ving
Ġtrick y
ĠMut ual
ĠMun ich
Ġmism atch
ĠCust odian
Ġski ing
ĠTER MIN
ĠJass y
F ort
K s
Q A
R outing
S cheduler
Y X
f res
f uture
i ana
z illa
Ġs hed
Ġf asc
Ġp ed
Ġd rone
ĠS atellite
Ġn imble
ĠC amb
Ġh over
Ġst itch
Ġg ro
Ġg lu
ĠD DB
Ġal go
lic as
ĠL imits
id t
ĠW ORM
ist a
ĠG a
ĠĠĠĠ ÂłÂłÂłÂłÂłÂłÂł
ĠH yp
Ġte e
iv s
In c
ĠK NN
ĠFor rester
Ġk its
Ġfin ite
Ġlaun cher
ĠUs ually
ĠCh air
We aver
Ġtim er
19 8
19 9
Ġjust ice
Ġann iversary
Ġver ifiable
Ġauthor izations
Ġmoder ate
Ġmat plotlib
ĠRep ositories
Ġgraph ql
Ġcentral izing
ĠRE POSITORY
ĠComp ression
Ġmicro phone
ĠDes igned
Ġcertificate based
ĠDis ney
test s
ĠAdv isory
13 9
Des pite
Ġmicroservices based
Ġannot ators
ĠTensor Board
Ġinterv entions
ios ity
ARN ING
Ġelect ron
Parameter Key
Load B
mo vies
ĠAdministr ative
Ġflu ency
Ġanim als
Health care
ĠDele tion
ĠAssist ance
Ġpractition er
ĠUN ION
Ġfrag ments
Ġbio logy
Ġunint ention
Found ry
Ġexch anged
press ure
loadbalancer controller
ĠLE FT
ĠRoad map
except ions
Ġappe ared
ĠUtil izing
polic ys
aze bo
Employ ee
ĠNom ad
ĠANAL YZE
ANGU AGE
B ASE
D DB
N F
S k
S an
T y
T uning
c rypt
d iff
f k
i ro
t ail
w ar
Ã ¢
Õ ¥
Ġt ons
ĠS chm
Ġe vident
ve ll
ĠT emporary
ĠI ron
Ġst ating
ly s
Ġg t
ĠAmazon ians
ĠD T
ĠD ouble
ĠP ipes
ĠM VC
low er
Ġres izable
Ġ1 000000
ĠN DI
ĠN athan
ĠH P
her ic
00 5
ĠU CI
In clude
Ġcloud enabled
enc ers
con tains
Ġmulti GPU
ID E
ĠAl b
read able
Ġoff site
10 31
Ġam pl
Ġrece ipts
Se quence
ĠCO E
air port
Ġclo ses
ik an
ĠAnd re
Man ual
Ġestim ating
Ġdecision makers
ĠMod er
imin al
IA LI
Ġprob e
Dat adog
Ġbroadcast grade
Ġarnawss agemaker
check point
uck ily
à¸²à¸ ¡
ĠCON FIG
ĠURI s
Ph ase
Wait ing
Ġmand ate
ĠAppro ved
Ġtwe ak
Ġkick ed
Ġwat ches
integ rated
ĠForm ula
ĠSam sung
ĠConstruct s
vp ce
Ġbootstra pped
RY POINT
Ġwel ld
ĠPing One
Ġsecretsmanager Get
ĠASE AN
ĠQU IC
amiliar ity
ĠMED HOST
Ġdoub led
Ġdiscipl ine
ĠGal axy
ĠZe ppelin
conformance pack
depart ment
ĠCREAT ING
E rrors
F ormation
J B
J K
L ife
R SA
S elf
b es
c amp
d uty
f ollow
i op
m ble
r Ã´
y f
Ġt p
in ivas
Ġs ist
it ize
an omaly
Ġf n
ĠA sh
ĠA TS
Ġo ct
Ġe k
ĠT ASK
ĠI H
ith y
Ġst ere
Ġst olen
ĠD if
our se
ĠM el
ĠM and
ĠR od
Ġen velope
lic t
pt ables
ĠF ORE
ĠL in
ĠL es
ĠW ER
ĠG reg
ĠN ick
ĠN ull
Ġsh arp
ĠV eter
log group
iv ating
ĠK rish
ib ase
ign in
og rap
ĠJ ain
ĠJ ac
te in
ĠLambda Function
Ġinstance Type
ear s
ĠTo y
con currency
ĠApp Registry
Ġsingle tenant
ĠRes olvers
ĠIP S
to point
Ġpack ed
ĠAM C
Ġlabel ers
ĠBy te
ĠIT SM
Data Store
ĠAR RAY
15 9
ik a
Ġbre ached
Ġphys ician
40 5
Ġside byside
ĠAny one
Ġmount ain
Trans cript
Ġdr ink
Ġvar lib
ĠNet Weaver
Part ners
Ġpositive ly
Ġspread ing
Ġflag ship
PRO JECT
Load er
Ġì Ŀ
IoT MQTTClient
Api Gateway
pack ages
Ġround up
Ġmand ates
organ izations
ĠĠĠĠÂłÂł ĠÂłĠÂłĠÂłĠÂłĠ
Nam ec
Ġaccomp an
Ġprospect ive
ĠLight ning
Ut ils
ĠMill er
Secrets Manager
Ġundert aking
Ġunders erved
Ġdiscre p
Ġadvers arial
rument ation
GN ITO
Boot strap
Ġrevis it
ĠLed ger
4 56
A DS
C AR
C ognizant
D ifferent
J ames
L AN
O p
S YS
a way
b illing
k h
r ative
s ink
t or
u da
y elb
Õ «
Ö Ĥ
Ġt iny
re kognition
Ġc ave
Ġc asc
ion i
Ġf Ã¼r
al ert
st aging
ent es
ĠS RA
am an
Ġn ut
ĠĠ ÂłĠ
Ġfor ma
ve ct
as g
ĠI CS
Ġst ri
Ġde ath
Ġg olf
ĠD up
ĠM AM
ĠL ocations
id river
ĠG em
ĠN or
ĠN HS
Ġma is
ĠV ector
eg ister
ass ist
Ġun success
ĠPro of
view er
Ġtw enty
Ġtool bar
ĠEx it
LI ANT
Ġrecommend ing
CO RE
Ġself driving
pc ds
Ġleast privilege
ĠST UDENT
Under stand
Ġ24 5
Request Id
Ġdifficult ies
Ġearly stage
ĠSign er
ĠCo vid
dev ops
Ġdisru pted
ĠAutomation AssumeRole
ĠSy base
ĠEX PLAIN
Ġmitig ations
Ġbur dens
ĠCM AF
ĠMe h
Ġdur ably
Ġeconom ical
43 9
ĠCR R
ĠDetect ing
Ġinflu ences
Class Name
web hook
ĠCross account
typ et
Ġà¤ ¹
ye arold
ĠInv oice
Connection Factory
Ġconvenient ly
Ġcal endars
MM dd
parameter group
Ġdam aged
Upd ating
ĠHand le
Ġsnow flake
uperv isor
Incre ased
Ġjud ges
ĠRow s
ĠSun day
Ġcogn itoidp
Ġserious ly
Del ay
Ġoccurre nces
ĠFig ma
ĠJack son
Ġoverthe top
ĠMON AI
Ġlifel ike
ĠRMS E
Ġmultithread ed
ĠOPTION S
Ġscik itlearn
ë¥ ¼
2 70
A part
C ast
C AT
C ookie
D est
O IDC
R ot
W indow
Z ones
k l
o ols
t ok
å ®
æ ĸ
Ġa ka
Ġc ope
Ġc atalyst
en arios
Ġto tally
ĠA FT
Ġd l
Ġe book
ĠT ip
Ġh un
ĠD aaS
ĠD AS
ĠM Bytes
ĠM erged
ist ence
ĠG ig
ep ad
ill ary
ĠO DP
Ġle urs
Ġsh uff
end o
ĠV ersions
Ġnot re
ru ck
Ġhas ht
no ver
Ġfile b
Ġun labeled
Ġag ing
Ġk ops
Ġbucket Name
Ġrequest Parameters
ict ionary
ĠRe venue
ĠRe ceive
ĠAd just
Ġstack set
ST EP
Ġaws config
Ġdist ricts
Ġ10 2
Ġbenef ited
Ġstrateg ically
Com ment
ĠPr int
ĠEng land
Ġcare g
Ġaudit ability
Ġ200 5
32 7
Ġ2019 0
Att ende
ĠAuthor izer
Ġweek ends
ĠCol l
mb re
Ġ18 00
ĠList ener
ĠSy mb
Ass ess
valu ed
[...]
